{
  "version": "1.0",
  "truncation": null,
  "padding": null,
  "added_tokens": [
    {
      "id": 0,
      "content": "<UNK>",
      "single_word": false,
      "lstrip": false,
      "rstrip": false,
      "normalized": false,
      "special": true
    },
    {
      "id": 1,
      "content": "<SEP>",
      "single_word": false,
      "lstrip": false,
      "rstrip": false,
      "normalized": false,
      "special": true
    },
    {
      "id": 2,
      "content": "<MASK>",
      "single_word": false,
      "lstrip": false,
      "rstrip": false,
      "normalized": false,
      "special": true
    },
    {
      "id": 3,
      "content": "<CLS>",
      "single_word": false,
      "lstrip": false,
      "rstrip": false,
      "normalized": false,
      "special": true
    },
    {
      "id": 4,
      "content": "<PAD>",
      "single_word": false,
      "lstrip": false,
      "rstrip": false,
      "normalized": false,
      "special": true
    }
  ],
  "normalizer": {
    "type": "Sequence",
    "normalizers": [
      {
        "type": "NFD"
      },
      {
        "type": "StripAccents"
      }
    ]
  },
  "pre_tokenizer": {
    "type": "Sequence",
    "pretokenizers": [
      {
        "type": "Whitespace"
      },
      {
        "type": "Digits",
        "individual_digits": true
      }
    ]
  },
  "post_processor": {
    "type": "TemplateProcessing",
    "single": [
      {
        "SpecialToken": {
          "id": "[CLS]",
          "type_id": 0
        }
      },
      {
        "Sequence": {
          "id": "A",
          "type_id": 0
        }
      },
      {
        "SpecialToken": {
          "id": "[SEP]",
          "type_id": 0
        }
      }
    ],
    "pair": [
      {
        "SpecialToken": {
          "id": "[CLS]",
          "type_id": 0
        }
      },
      {
        "Sequence": {
          "id": "A",
          "type_id": 0
        }
      },
      {
        "SpecialToken": {
          "id": "[SEP]",
          "type_id": 0
        }
      },
      {
        "Sequence": {
          "id": "B",
          "type_id": 1
        }
      },
      {
        "SpecialToken": {
          "id": "[SEP]",
          "type_id": 1
        }
      }
    ],
    "special_tokens": {
      "[CLS]": {
        "id": "[CLS]",
        "ids": [
          1
        ],
        "tokens": [
          "[CLS]"
        ]
      },
      "[SEP]": {
        "id": "[SEP]",
        "ids": [
          2
        ],
        "tokens": [
          "[SEP]"
        ]
      }
    }
  },
  "decoder": {
    "type": "WordPiece",
    "prefix": "##",
    "cleanup": true
  },
  "model": {
    "type": "WordPiece",
    "unk_token": "<UNK>",
    "continuing_subword_prefix": "##",
    "max_input_chars_per_word": 100,
    "vocab": {
      "<UNK>": 0,
      "<SEP>": 1,
      "<MASK>": 2,
      "<CLS>": 3,
      "<PAD>": 4,
      "!": 5,
      ",": 6,
      ".": 7,
      ":": 8,
      "?": 9,
      "ء": 10,
      "ا": 11,
      "ب": 12,
      "ة": 13,
      "ت": 14,
      "ث": 15,
      "ج": 16,
      "ح": 17,
      "خ": 18,
      "د": 19,
      "ذ": 20,
      "ر": 21,
      "ز": 22,
      "س": 23,
      "ش": 24,
      "ص": 25,
      "ض": 26,
      "ط": 27,
      "ظ": 28,
      "ع": 29,
      "غ": 30,
      "ف": 31,
      "ق": 32,
      "ك": 33,
      "ل": 34,
      "م": 35,
      "ن": 36,
      "ه": 37,
      "و": 38,
      "ى": 39,
      "ي": 40,
      "٠": 41,
      "١": 42,
      "٢": 43,
      "٣": 44,
      "٤": 45,
      "٥": 46,
      "٦": 47,
      "٧": 48,
      "٨": 49,
      "٩": 50,
      "##ه": 51,
      "##ز": 52,
      "##ا": 53,
      "##ف": 54,
      "##ي": 55,
      "##د": 56,
      "##ة": 57,
      "##ت": 58,
      "##ع": 59,
      "##ر": 60,
      "##ض": 61,
      "##ل": 62,
      "##ب": 63,
      "##ن": 64,
      "##و": 65,
      "##ق": 66,
      "##ح": 67,
      "##م": 68,
      "##ذ": 69,
      "##ش": 70,
      "##ك": 71,
      "##ج": 72,
      "##س": 73,
      "##غ": 74,
      "##ظ": 75,
      "##خ": 76,
      "##ص": 77,
      "##ث": 78,
      "##ى": 79,
      "##ء": 80,
      "##ط": 81,
      "##.": 82,
      "##!": 83,
      "##,": 84,
      "##?": 85,
      "ال": 86,
      "##نا": 87,
      "##ال": 88,
      "##ان": 89,
      "ان": 90,
      "##ية": 91,
      "من": 92,
      "في": 93,
      "##ما": 94,
      "##ها": 95,
      "##ذا": 96,
      "##ات": 97,
      "##ون": 98,
      "الم": 99,
      "الا": 100,
      "##لك": 101,
      "##ين": 102,
      "##يا": 103,
      "عل": 104,
      "##ير": 105,
      "##ول": 106,
      "##وا": 107,
      "الت": 108,
      "##ري": 109,
      "##عل": 110,
      "##ست": 111,
      "##هم": 112,
      "##را": 113,
      "على": 114,
      "##كن": 115,
      "##ام": 116,
      "لا": 117,
      "##قد": 118,
      "##يل": 119,
      "##دة": 120,
      "عن": 121,
      "##..": 122,
      "...": 123,
      "لل": 124,
      "##ار": 125,
      "##دي": 126,
      "##ذه": 127,
      "هذا": 128,
      "بال": 129,
      "الع": 130,
      "ما": 131,
      "وال": 132,
      "##يق": 133,
      "##دا": 134,
      "مع": 135,
      "##اب": 136,
      "##ور": 137,
      "الى": 138,
      "هنا": 139,
      "ذلك": 140,
      "الح": 141,
      "##كل": 142,
      "##بة": 143,
      "##وم": 144,
      "وا": 145,
      "##عة": 146,
      "هذه": 147,
      "##كر": 148,
      "##لا": 149,
      "الس": 150,
      "كان": 151,
      "الذ": 152,
      "الان": 153,
      "##قة": 154,
      "الب": 155,
      "##حد": 156,
      "التي": 157,
      "هو": 158,
      "##يع": 159,
      "##فس": 160,
      "##كث": 161,
      "كل": 162,
      "##مكن": 163,
      "لي": 164,
      "##مل": 165,
      "##ني": 166,
      "##كون": 167,
      "اخ": 168,
      "##نت": 169,
      "الق": 170,
      "نح": 171,
      "اع": 172,
      "##يد": 173,
      "الف": 174,
      "الط": 175,
      "شي": 176,
      "لم": 177,
      "##كم": 178,
      "او": 179,
      "##الم": 180,
      "لان": 181,
      "##رف": 182,
      "اذا": 183,
      "##تا": 184,
      "##يف": 185,
      "##عا": 186,
      "##ناس": 187,
      "الذي": 188,
      "ول": 189,
      "##تر": 190,
      "##عب": 191,
      "وه": 192,
      "##وق": 193,
      "هناك": 194,
      "بع": 195,
      "##دما": 196,
      "##قيق": 197,
      "انه": 198,
      "اي": 199,
      "اس": 200,
      "يمكن": 201,
      "##اي": 202,
      "##صل": 203,
      "الن": 204,
      "##بر": 205,
      "##تم": 206,
      "الش": 207,
      "##علم": 208,
      "##اد": 209,
      "##وج": 210,
      "انها": 211,
      "ولك": 212,
      "##يات": 213,
      "لدي": 214,
      "##فا": 215,
      "##ستط": 216,
      "هي": 217,
      "##بل": 218,
      "##كثر": 219,
      "لكن": 220,
      "##يم": 221,
      "##ود": 222,
      "##قل": 223,
      "نفس": 224,
      "##رة": 225,
      "##با": 226,
      "##من": 227,
      "تلك": 228,
      "##حي": 229,
      "الناس": 230,
      "##خل": 231,
      "ولكن": 232,
      "##جا": 233,
      "##فعل": 234,
      "##وس": 235,
      "##خص": 236,
      "##صف": 237,
      "الي": 238,
      "انا": 239,
      "قد": 240,
      "##رك": 241,
      "##قا": 242,
      "##ثير": 243,
      "سي": 244,
      "##جر": 245,
      "##سب": 246,
      "تح": 247,
      "لن": 248,
      "##كان": 249,
      "علي": 250,
      "##حدث": 251,
      "جدا": 252,
      "##ضا": 253,
      "##قط": 254,
      "الج": 255,
      "لذا": 256,
      "وت": 257,
      "##وع": 258,
      "##حك": 259,
      "##ذلك": 260,
      "اكثر": 261,
      "##وف": 262,
      "اف": 263,
      "بان": 264,
      "##اقة": 265,
      "##بع": 266,
      "##جل": 267,
      "الد": 268,
      "ليس": 269,
      "##اس": 270,
      "عندما": 271,
      "العالم": 272,
      "اق": 273,
      "كنت": 274,
      "##وال": 275,
      "##مة": 276,
      "##شا": 277,
      "الخ": 278,
      "نحن": 279,
      "ضحك": 280,
      "كما": 281,
      "##عرف": 282,
      "##قع": 283,
      "##ستطيع": 284,
      "ار": 285,
      "حول": 286,
      "##تي": 287,
      "##مر": 288,
      "##ثل": 289,
      "ست": 290,
      "##بي": 291,
      "##تقد": 292,
      "##عم": 293,
      "##غي": 294,
      "##خت": 295,
      "الص": 296,
      "الوا": 297,
      "وقد": 298,
      "ين": 299,
      "##في": 300,
      "##شر": 301,
      "##اني": 302,
      "##ريد": 303,
      "با": 304,
      "##عي": 305,
      "##تاج": 306,
      "##جربة": 307,
      "به": 308,
      "فقط": 309,
      "وي": 310,
      "##رض": 311,
      "##سنا": 312,
      "##ظر": 313,
      "##ياء": 314,
      "حي": 315,
      "##فة": 316,
      "##ته": 317,
      "##رق": 318,
      "##بد": 319,
      "##نع": 320,
      "##حة": 321,
      "##صة": 322,
      "الل": 323,
      "الك": 324,
      "الال": 325,
      "كانت": 326,
      "##كثير": 327,
      "الواقع": 328,
      "فان": 329,
      "##هر": 330,
      "مت": 331,
      "##تى": 332,
      "الاش": 333,
      "##يرة": 334,
      "اخر": 335,
      "سا": 336,
      "كيف": 337,
      "مثل": 338,
      "وان": 339,
      "##نو": 340,
      "##سم": 341,
      "##يار": 342,
      "##عادة": 343,
      "تا": 344,
      "حسنا": 345,
      "##تح": 346,
      "##لة": 347,
      "##بت": 348,
      "##وي": 349,
      "##قوم": 350,
      "##سة": 351,
      "الاس": 352,
      "لقد": 353,
      "ون": 354,
      "##سي": 355,
      "الما": 356,
      "##ريقة": 357,
      "الحقيق": 358,
      "شيء": 359,
      "مل": 360,
      "وق": 361,
      "##يي": 362,
      "الر": 363,
      "بعض": 364,
      "اح": 365,
      "ام": 366,
      "بين": 367,
      "شخص": 368,
      "##ضل": 369,
      "##شكل": 370,
      "الغ": 371,
      "##سبب": 372,
      "بد": 373,
      "##يس": 374,
      "##دم": 375,
      "##حن": 376,
      "##نات": 377,
      "است": 378,
      "كم": 379,
      "##ليل": 380,
      "حيث": 381,
      "ثم": 382,
      "يع": 383,
      "##عاب": 384,
      "##كي": 385,
      "##كرا": 386,
      "اننا": 387,
      "##كرة": 388,
      "فعل": 389,
      "مست": 390,
      "يج": 391,
      "##رج": 392,
      "##ريق": 393,
      "##ورة": 394,
      "لدينا": 395,
      "تع": 396,
      "تق": 397,
      "حقيق": 398,
      "عا": 399,
      "قبل": 400,
      "يت": 401,
      "##فل": 402,
      "##بدا": 403,
      "##وية": 404,
      "بعد": 405,
      "اط": 406,
      "كب": 407,
      "وم": 408,
      "##رب": 409,
      "##وب": 410,
      "##وى": 411,
      "##حا": 412,
      "##مات": 413,
      "##ياة": 414,
      "نفسية": 415,
      "اليوم": 416,
      "الالعاب": 417,
      "الاشياء": 418,
      "اش": 419,
      "بها": 420,
      "هل": 421,
      "##يج": 422,
      "##ضي": 423,
      "##قبل": 424,
      "##جم": 425,
      "##سا": 426,
      "##غير": 427,
      "##طة": 428,
      "التجربة": 429,
      "##ختل": 430,
      "لو": 431,
      "##بغي": 432,
      "الو": 433,
      "المت": 434,
      "##ولة": 435,
      "##واء": 436,
      "##وقت": 437,
      "ات": 438,
      "له": 439,
      "##اية": 440,
      "##عر": 441,
      "##عام": 442,
      "##طو": 443,
      "للغ": 444,
      "##ديد": 445,
      "حتى": 446,
      "لت": 447,
      "مختل": 448,
      "يق": 449,
      "##ضع": 450,
      "##لم": 451,
      "##مك": 452,
      "الطاقة": 453,
      "ينبغي": 454,
      "للغاية": 455,
      "بت": 456,
      "بسبب": 457,
      "حين": 458,
      "فقد": 459,
      "نظ": 460,
      "وج": 461,
      "وكان": 462,
      "يح": 463,
      "##نة": 464,
      "##مت": 465,
      "##طف": 466,
      "الكثير": 467,
      "انهم": 468,
      "افضل": 469,
      "بل": 470,
      "بص": 471,
      "بط": 472,
      "تعلم": 473,
      "وب": 474,
      "ومن": 475,
      "##فت": 476,
      "##عبة": 477,
      "##رت": 478,
      "##رات": 479,
      "##ذي": 480,
      "الام": 481,
      "##ولي": 482,
      "اص": 483,
      "جم": 484,
      "##هي": 485,
      "##تما": 486,
      "##بح": 487,
      "##ثة": 488,
      "##طا": 489,
      "##الة": 490,
      "##راء": 491,
      "##يلة": 492,
      "للم": 493,
      "اك": 494,
      "تكون": 495,
      "حيات": 496,
      "سوف": 497,
      "صنع": 498,
      "عمل": 499,
      "##لب": 500,
      "##بق": 501,
      "##حل": 502,
      "الز": 503,
      "الث": 504,
      "الوقت": 505,
      "الحياة": 506,
      "##بدو": 507,
      "قليل": 508,
      "مال": 509,
      "##فكر": 510,
      "##عد": 511,
      "##عن": 512,
      "##رعة": 513,
      "##سبة": 514,
      "##خر": 515,
      "##ماذا": 516,
      "##امل": 517,
      "ليست": 518,
      "اعتقد": 519,
      "ايضا": 520,
      "##وسيق": 521,
      "سيكون": 522,
      "اج": 523,
      "تصف": 524,
      "حد": 525,
      "صحي": 526,
      "غير": 527,
      "يحدث": 528,
      "##تنا": 529,
      "##حظ": 530,
      "##ماك": 531,
      "المست": 532,
      "##ينة": 533,
      "##يام": 534,
      "واح": 535,
      "واحد": 536,
      "الذين": 537,
      "نحتاج": 538,
      "تصفيق": 539,
      "احد": 540,
      "بي": 541,
      "بن": 542,
      "حقا": 543,
      "خل": 544,
      "فا": 545,
      "مد": 546,
      "ور": 547,
      "وح": 548,
      "##اء": 549,
      "##دد": 550,
      "##لد": 551,
      "##كت": 552,
      "السعادة": 553,
      "اخذ": 554,
      "علينا": 555,
      "تج": 556,
      "رب": 557,
      "شكرا": 558,
      "مف": 559,
      "نت": 560,
      "نستطيع": 561,
      "ولا": 562,
      "وفي": 563,
      "##فك": 564,
      "##يون": 565,
      "##خدم": 566,
      "##ناء": 567,
      "##ارة": 568,
      "وهذا": 569,
      "##نوات": 570,
      "يجب": 571,
      "تم": 572,
      "لك": 573,
      "مز": 574,
      "##هد": 575,
      "##اق": 576,
      "##اص": 577,
      "##يه": 578,
      "##تهم": 579,
      "##عمل": 580,
      "##رون": 581,
      "##بب": 582,
      "##بون": 583,
      "##ودة": 584,
      "##كس": 585,
      "##جز": 586,
      "العل": 587,
      "اللا": 588,
      "انت": 589,
      "##ارب": 590,
      "##وجد": 591,
      "##ضاء": 592,
      "##وسيقى": 593,
      "اد": 594,
      "كت": 595,
      "نا": 596,
      "##فع": 597,
      "##رية": 598,
      "##لق": 599,
      "##وز": 600,
      "##جه": 601,
      "##ظم": 602,
      "##خذ": 603,
      "والم": 604,
      "##كرى": 605,
      "ولذا": 606,
      "وهي": 607,
      "يمكننا": 608,
      "##خلف": 609,
      "##ركة": 610,
      "##عرفون": 611,
      "اخرى": 612,
      "##شكلة": 613,
      "##طفال": 614,
      "تعلمون": 615,
      "ربما": 616,
      "عالم": 617,
      "فه": 618,
      "كنا": 619,
      "مهم": 620,
      "نريد": 621,
      "يكون": 622,
      "##دام": 623,
      "##ترا": 624,
      "##رد": 625,
      "##وح": 626,
      "##وث": 627,
      "##كب": 628,
      "اله": 629,
      "الرا": 630,
      "انني": 631,
      "##علو": 632,
      "عند": 633,
      "##ذهب": 634,
      "والتي": 635,
      "السمك": 636,
      "الذكرى": 637,
      "البشر": 638,
      "وهو": 639,
      "##حيط": 640,
      "ساعة": 641,
      "تاثير": 642,
      "مختلفة": 643,
      "بح": 644,
      "تت": 645,
      "جز": 646,
      "عام": 647,
      "لنا": 648,
      "لذلك": 649,
      "لماذا": 650,
      "مج": 651,
      "مص": 652,
      "##يال": 653,
      "##يية": 654,
      "##در": 655,
      "##نون": 656,
      "##مي": 657,
      "##مو": 658,
      "##كة": 659,
      "##خيل": 660,
      "الموسيقى": 661,
      "الامر": 662,
      "##ريض": 663,
      "##ريبا": 664,
      "العمل": 665,
      "ماذا": 666,
      "البح": 667,
      "الطريقة": 668,
      "يمكنك": 669,
      "الشي": 670,
      "الحقيقية": 671,
      "بصورة": 672,
      "جميع": 673,
      "اكبر": 674,
      "خلال": 675,
      "اث": 676,
      "تن": 677,
      "تص": 678,
      "حل": 679,
      "عبر": 680,
      "فال": 681,
      "كثير": 682,
      "لها": 683,
      "مق": 684,
      "يبدو": 685,
      "##اف": 686,
      "##عية": 687,
      "##رص": 688,
      "##نسبة": 689,
      "##قي": 690,
      "##مس": 691,
      "##طي": 692,
      "العلم": 693,
      "المن": 694,
      "##ولوج": 695,
      "للت": 696,
      "القص": 697,
      "لانه": 698,
      "اسم": 699,
      "##جاح": 700,
      "##غيير": 701,
      "##عيش": 702,
      "اللعب": 703,
      "مليار": 704,
      "##فكير": 705,
      "##علومات": 706,
      "استط": 707,
      "بم": 708,
      "تفعل": 709,
      "تجربة": 710,
      "جعل": 711,
      "جيد": 712,
      "راي": 713,
      "فكرة": 714,
      "وس": 715,
      "يا": 716,
      "يوجد": 717,
      "##زف": 718,
      "##دت": 719,
      "##تها": 720,
      "##بيع": 721,
      "منذ": 722,
      "الارض": 723,
      "الاخر": 724,
      "##يلا": 725,
      "بالم": 726,
      "العا": 727,
      "والت": 728,
      "عليه": 729,
      "فعلا": 730,
      "قليلا": 731,
      "اريد": 732,
      "بكل": 733,
      "ثلا": 734,
      "فن": 735,
      "قاد": 736,
      "كذلك": 737,
      "لكل": 738,
      "نو": 739,
      "نوع": 740,
      "##اه": 741,
      "##اول": 742,
      "##يين": 743,
      "##لت": 744,
      "##جاب": 745,
      "##الي": 746,
      "##انية": 747,
      "منها": 748,
      "##ماء": 749,
      "المحيط": 750,
      "الاطفال": 751,
      "##ريس": 752,
      "##ارع": 753,
      "بالفعل": 754,
      "##تاك": 755,
      "وهنا": 756,
      "##فاعل": 757,
      "الحقيقة": 758,
      "كبيرة": 759,
      "##يجيل": 760,
      "##عندما": 761,
      "واحدة": 762,
      "اللاعب": 763,
      "بذلك": 764,
      "بكثير": 765,
      "تط": 766,
      "دا": 767,
      "صف": 768,
      "فكر": 769,
      "قصة": 770,
      "كال": 771,
      "كريس": 772,
      "لكي": 773,
      "مر": 774,
      "مس": 775,
      "منا": 776,
      "مثير": 777,
      "ميجيل": 778,
      "نص": 779,
      "وكل": 780,
      "يوم": 781,
      "##فية": 782,
      "##فهم": 783,
      "##يز": 784,
      "##عت": 785,
      "##عو": 786,
      "##نى": 787,
      "##وت": 788,
      "##وما": 789,
      "##حص": 790,
      "##ذج": 791,
      "##كار": 792,
      "##سطة": 793,
      "المز": 794,
      "المح": 795,
      "المشا": 796,
      "الاست": 797,
      "##ياه": 798,
      "##واجه": 799,
      "##قدم": 800,
      "بالنسبة": 801,
      "وليس": 802,
      "لديك": 803,
      "الجم": 804,
      "بهذا": 805,
      "ويمكن": 806,
      "ونحن": 807,
      "بدون": 808,
      "حقيقة": 809,
      "كبير": 810,
      "##حاولة": 811,
      "##طوري": 812,
      "حينها": 813,
      "صحيح": 814,
      "اذ": 815,
      "اول": 816,
      "استطيع": 817,
      "بر": 818,
      "بس": 819,
      "بوا": 820,
      "تش": 821,
      "تما": 822,
      "ذات": 823,
      "سنة": 824,
      "سبب": 825,
      "عدة": 826,
      "مما": 827,
      "مكان": 828,
      "نفعل": 829,
      "نعرف": 830,
      "نعم": 831,
      "نظر": 832,
      "وذلك": 833,
      "##عدة": 834,
      "##رح": 835,
      "##ضر": 836,
      "##بط": 837,
      "##بات": 838,
      "##وكب": 839,
      "##قول": 840,
      "##شرة": 841,
      "##كذا": 842,
      "##كري": 843,
      "##كيف": 844,
      "##غم": 845,
      "##ظيم": 846,
      "##ثان": 847,
      "الكر": 848,
      "الكم": 849,
      "انما": 850,
      "##هاية": 851,
      "##يرا": 852,
      "التح": 853,
      "##ستخدم": 854,
      "##راض": 855,
      "لاي": 856,
      "العديد": 857,
      "معظم": 858,
      "##فسية": 859,
      "الفلم": 860,
      "##بعد": 861,
      "احب": 862,
      "يقول": 863,
      "مالو": 864,
      "بواسطة": 865,
      "الكربون": 866,
      "اهم": 867,
      "اقل": 868,
      "امر": 869,
      "بيل": 870,
      "تد": 871,
      "تغير": 872,
      "دون": 873,
      "سن": 874,
      "سنوات": 875,
      "فلم": 876,
      "قمت": 877,
      "مو": 878,
      "مشكلة": 879,
      "نش": 880,
      "وض": 881,
      "وكن": 882,
      "وور": 883,
      "يش": 884,
      "##يدة": 885,
      "##يدا": 886,
      "##دق": 887,
      "##دعة": 888,
      "##عنا": 889,
      "##عات": 890,
      "##لاب": 891,
      "##نظر": 892,
      "##وء": 893,
      "##جة": 894,
      "##خاص": 895,
      "الصف": 896,
      "##ناها": 897,
      "فيها": 898,
      "##اتي": 899,
      "##وني": 900,
      "المع": 901,
      "المج": 902,
      "الاط": 903,
      "##يادة": 904,
      "##واد": 905,
      "التا": 906,
      "##على": 907,
      "##ستقبل": 908,
      "الحص": 909,
      "الحرا": 910,
      "وانا": 911,
      "واذا": 912,
      "##لايين": 913,
      "الانس": 914,
      "اخت": 915,
      "القاد": 916,
      "اعني": 917,
      "شييا": 918,
      "اوكس": 919,
      "##ترة": 920,
      "##دمات": 921,
      "اسماك": 922,
      "الشخص": 923,
      "اليه": 924,
      "تحدي": 925,
      "عليها": 926,
      "باننا": 927,
      "##والي": 928,
      "اللعبة": 929,
      "الاساس": 930,
      "الماية": 931,
      "تقريبا": 932,
      "حدث": 933,
      "وحتى": 934,
      "##خلفات": 935,
      "فنحن": 936,
      "تماما": 937,
      "##ثانيل": 938,
      "وكنت": 939,
      "اوكسيد": 940,
      "ابدا": 941,
      "بشكل": 942,
      "ترك": 943,
      "داي": 944,
      "را": 945,
      "رجل": 946,
      "فض": 947,
      "فريق": 948,
      "قص": 949,
      "لح": 950,
      "لهم": 951,
      "لكم": 952,
      "مح": 953,
      "مش": 954,
      "مبا": 955,
      "نقوم": 956,
      "ها": 957,
      "وما": 958,
      "وضع": 959,
      "يكن": 960,
      "##فق": 961,
      "##تص": 962,
      "##رش": 963,
      "##رين": 964,
      "##ند": 965,
      "##نية": 966,
      "##وص": 967,
      "##قر": 968,
      "##قب": 969,
      "##حر": 970,
      "##ملك": 971,
      "##كين": 972,
      "##جب": 973,
      "##جح": 974,
      "##غب": 975,
      "##ظام": 976,
      "##ثال": 977,
      "انفس": 978,
      "##ذاء": 979,
      "المعلومات": 980,
      "الاح": 981,
      "الاكثر": 982,
      "##ياس": 983,
      "##يانات": 984,
      "علاقة": 985,
      "##راسة": 986,
      "##ارج": 987,
      "العام": 988,
      "##كلفة": 989,
      "القصة": 990,
      "اعرف": 991,
      "شيي": 992,
      "اسب": 993,
      "##خلوق": 994,
      "##بعض": 995,
      "اقوم": 996,
      "ارى": 997,
      "##ختار": 998,
      "الصحي": 999,
      "الكوكب": 1000,
      "المارش": 1001,
      "يجعل": 1002,
      "عاما": 1003,
      "نظام": 1004,
      "وكانت": 1005,
      "الزمن": 1006,
      "كثيرا": 1007,
      "العلمي": 1008,
      "القصص": 1009,
      "ثلاثة": 1010,
      "نوعا": 1011,
      "وهناك": 1012,
      "داخل": 1013,
      "اغ": 1014,
      "تس": 1015,
      "تخ": 1016,
      "تكن": 1017,
      "تستطيع": 1018,
      "تريد": 1019,
      "ثاني": 1020,
      "جل": 1021,
      "حال": 1022,
      "ذا": 1023,
      "سال": 1024,
      "سعادة": 1025,
      "سواء": 1026,
      "شب": 1027,
      "لست": 1028,
      "مول": 1029,
      "مخلوق": 1030,
      "هم": 1031,
      "وعندما": 1032,
      "يقوم": 1033,
      "##هة": 1034,
      "##هوم": 1035,
      "##اصة": 1036,
      "##فينة": 1037,
      "##يت": 1038,
      "##ينا": 1039,
      "##عوا": 1040,
      "##لعب": 1041,
      "##بية": 1042,
      "##ويل": 1043,
      "##وعة": 1044,
      "##قص": 1045,
      "##مج": 1046,
      "##مان": 1047,
      "##شف": 1048,
      "##جد": 1049,
      "##ظهر": 1050,
      "##خدام": 1051,
      "##طل": 1052,
      "##طور": 1053,
      "النت": 1054,
      "##ونه": 1055,
      "الاول": 1056,
      "الاولي": 1057,
      "##ياكل": 1058,
      "##واع": 1059,
      "##راعة": 1060,
      "للع": 1061,
      "##ديدة": 1062,
      "بالا": 1063,
      "بالت": 1064,
      "بالط": 1065,
      "العاب": 1066,
      "والا": 1067,
      "والذي": 1068,
      "##ابق": 1069,
      "هنالك": 1070,
      "كانوا": 1071,
      "القيام": 1072,
      "الطبيع": 1073,
      "لاننا": 1074,
      "لانها": 1075,
      "##ترنت": 1076,
      "##وجودة": 1077,
      "لديها": 1078,
      "نفسي": 1079,
      "##منية": 1080,
      "##جاز": 1081,
      "تحتاج": 1082,
      "الدول": 1083,
      "ستكون": 1084,
      "##عمال": 1085,
      "بهذه": 1086,
      "ويكي": 1087,
      "الكب": 1088,
      "الاسماك": 1089,
      "##كرافت": 1090,
      "##رجة": 1091,
      "الوهم": 1092,
      "لهذا": 1093,
      "نظرة": 1094,
      "بطريقة": 1095,
      "##حظة": 1096,
      "##حظات": 1097,
      "المستقبل": 1098,
      "مدى": 1099,
      "مزرعة": 1100,
      "##اقات": 1101,
      "ناثانيل": 1102,
      "##موذج": 1103,
      "##ولوجيا": 1104,
      "##تاكيد": 1105,
      "##كريات": 1106,
      "ووركرافت": 1107,
      "دايما": 1108,
      "اب": 1109,
      "اناس": 1110,
      "بش": 1111,
      "بام": 1112,
      "بناء": 1113,
      "تو": 1114,
      "جديد": 1115,
      "حصل": 1116,
      "دوما": 1117,
      "طوال": 1118,
      "طريقة": 1119,
      "طريق": 1120,
      "عم": 1121,
      "فهم": 1122,
      "قو": 1123,
      "قام": 1124,
      "مه": 1125,
      "مض": 1126,
      "مخ": 1127,
      "مجم": 1128,
      "نع": 1129,
      "يس": 1130,
      "##دل": 1131,
      "##دها": 1132,
      "##رع": 1133,
      "##ربة": 1134,
      "##بيد": 1135,
      "##ذكر": 1136,
      "##شة": 1137,
      "##سن": 1138,
      "##غيرة": 1139,
      "##صبح": 1140,
      "##طلة": 1141,
      "القد": 1142,
      "##الية": 1143,
      "انك": 1144,
      "انكم": 1145,
      "المحن": 1146,
      "المريض": 1147,
      "الاع": 1148,
      "الاخ": 1149,
      "##ياض": 1150,
      "##ريخ": 1151,
      "##همة": 1152,
      "لاعب": 1153,
      "للا": 1154,
      "للق": 1155,
      "بالس": 1156,
      "بالتاكيد": 1157,
      "##ابل": 1158,
      "##ورن": 1159,
      "الحال": 1160,
      "##لاق": 1161,
      "الانترنت": 1162,
      "البيانات": 1163,
      "كلما": 1164,
      "##نتهي": 1165,
      "الطبي": 1166,
      "لانني": 1167,
      "##عاون": 1168,
      "ولم": 1169,
      "##ترك": 1170,
      "وهكذا": 1171,
      "##وقع": 1172,
      "يمكنكم": 1173,
      "##ايات": 1174,
      "##تمع": 1175,
      "##ادر": 1176,
      "تحت": 1177,
      "وتلك": 1178,
      "الدواء": 1179,
      "##اسا": 1180,
      "اقول": 1181,
      "##والق": 1182,
      "الاشخاص": 1183,
      "##بتكار": 1184,
      "الحقيقي": 1185,
      "وقت": 1186,
      "الرجل": 1187,
      "بدات": 1188,
      "تعمل": 1189,
      "حقيقي": 1190,
      "حقيقية": 1191,
      "##فلام": 1192,
      "##ربما": 1193,
      "بليون": 1194,
      "##تمام": 1195,
      "مالذي": 1196,
      "كتاب": 1197,
      "البحث": 1198,
      "الانسان": 1199,
      "مباشرة": 1200,
      "انفسنا": 1201,
      "اما": 1202,
      "ارا": 1203,
      "امل": 1204,
      "اكون": 1205,
      "بدا": 1206,
      "تسم": 1207,
      "تبدو": 1208,
      "تغيير": 1209,
      "حا": 1210,
      "حوالي": 1211,
      "خدعة": 1212,
      "سوال": 1213,
      "عدد": 1214,
      "لع": 1215,
      "لعب": 1216,
      "مذه": 1217,
      "مشا": 1218,
      "نصف": 1219,
      "نفكر": 1220,
      "نجاح": 1221,
      "هول": 1222,
      "وين": 1223,
      "يد": 1224,
      "يستطيع": 1225,
      "##فض": 1226,
      "##يور": 1227,
      "##تف": 1228,
      "##تك": 1229,
      "##تبر": 1230,
      "##تاني": 1231,
      "##لام": 1232,
      "##قق": 1233,
      "##قية": 1234,
      "##حم": 1235,
      "##مسة": 1236,
      "##جارب": 1237,
      "##سات": 1238,
      "##غام": 1239,
      "##طعم": 1240,
      "الول": 1241,
      "##ناعة": 1242,
      "منهم": 1243,
      "فيه": 1244,
      "المق": 1245,
      "المخ": 1246,
      "المص": 1247,
      "المتح": 1248,
      "الافت": 1249,
      "الافلام": 1250,
      "التالي": 1251,
      "##ريك": 1252,
      "للن": 1253,
      "بالغ": 1254,
      "واع": 1255,
      "السوال": 1256,
      "السبب": 1257,
      "البر": 1258,
      "البلد": 1259,
      "##نتج": 1260,
      "نحو": 1261,
      "الفضاء": 1262,
      "الفوز": 1263,
      "الطعام": 1264,
      "اوف": 1265,
      "##رفة": 1266,
      "##ترول": 1267,
      "اسوا": 1268,
      "الشركة": 1269,
      "##فاض": 1270,
      "لكنها": 1271,
      "##باء": 1272,
      "##وسط": 1273,
      "##قاذ": 1274,
      "##قاء": 1275,
      "##جلة": 1276,
      "الخدمات": 1277,
      "فانك": 1278,
      "وانه": 1279,
      "الاسطوري": 1280,
      "وقال": 1281,
      "بدلا": 1282,
      "استخدم": 1283,
      "مستوى": 1284,
      "مستقبل": 1285,
      "عادة": 1286,
      "اشهر": 1287,
      "مختلف": 1288,
      "وبال": 1289,
      "الامور": 1290,
      "##بحث": 1291,
      "حياتنا": 1292,
      "بنفس": 1293,
      "فانا": 1294,
      "ورلد": 1295,
      "##كتور": 1296,
      "##جزة": 1297,
      "مهمة": 1298,
      "جزء": 1299,
      "الاخرى": 1300,
      "اللاعبين": 1301,
      "فكرت": 1302,
      "الصفر": 1303,
      "اختيار": 1304,
      "شبكة": 1305,
      "##ورنيا": 1306,
      "هولاء": 1307,
      "الولايات": 1308,
      "المتحدة": 1309,
      "اه": 1310,
      "افعل": 1311,
      "تب": 1312,
      "توا": 1313,
      "تقوم": 1314,
      "تفكر": 1315,
      "تفكير": 1316,
      "جين": 1317,
      "خط": 1318,
      "ذه": 1319,
      "زا": 1320,
      "سو": 1321,
      "سم": 1322,
      "سمك": 1323,
      "شركة": 1324,
      "طبي": 1325,
      "طلاب": 1326,
      "عرض": 1327,
      "عظيم": 1328,
      "فع": 1329,
      "فل": 1330,
      "فوق": 1331,
      "فترة": 1332,
      "قال": 1333,
      "قول": 1334,
      "كا": 1335,
      "كامل": 1336,
      "لش": 1337,
      "لس": 1338,
      "مرة": 1339,
      "مرض": 1340,
      "مرت": 1341,
      "موجودة": 1342,
      "نكون": 1343,
      "نذهب": 1344,
      "وهم": 1345,
      "ويق": 1346,
      "وكيف": 1347,
      "وربما": 1348,
      "يب": 1349,
      "يخ": 1350,
      "يعرف": 1351,
      "##هو": 1352,
      "##زة": 1353,
      "##اط": 1354,
      "##فز": 1355,
      "##فورنيا": 1356,
      "##يش": 1357,
      "##يك": 1358,
      "##يء": 1359,
      "##يود": 1360,
      "##تق": 1361,
      "##عه": 1362,
      "##رر": 1363,
      "##ضح": 1364,
      "##ضى": 1365,
      "##ضون": 1366,
      "##لل": 1367,
      "##بار": 1368,
      "##ونا": 1369,
      "##ورا": 1370,
      "##قات": 1371,
      "##حصل": 1372,
      "##منا": 1373,
      "##شك": 1374,
      "##كما": 1375,
      "##جعل": 1376,
      "##سر": 1377,
      "##سون": 1378,
      "##غط": 1379,
      "##خرا": 1380,
      "##خيال": 1381,
      "##خفاض": 1382,
      "##صم": 1383,
      "الذا": 1384,
      "الكل": 1385,
      "الالم": 1386,
      "##ناق": 1387,
      "انجل": 1388,
      "انظر": 1389,
      "انواع": 1390,
      "منه": 1391,
      "منت": 1392,
      "منط": 1393,
      "المل": 1394,
      "المنا": 1395,
      "المشكلة": 1396,
      "المدر": 1397,
      "المياه": 1398,
      "المخلفات": 1399,
      "الاث": 1400,
      "الاقل": 1401,
      "##وانات": 1402,
      "التكن": 1403,
      "التفكير": 1404,
      "##راه": 1405,
      "لابد": 1406,
      "##يقة": 1407,
      "##ابقة": 1408,
      "الحاس": 1409,
      "##ومة": 1410,
      "##ومن": 1411,
      "البيي": 1412,
      "البترول": 1413,
      "التيتاني": 1414,
      "كليا": 1415,
      "القليل": 1416,
      "الفكرة": 1417,
      "##عاد": 1418,
      "ولقد": 1419,
      "##عبر": 1420,
      "##وقف": 1421,
      "بعيدا": 1422,
      "يمكنهم": 1423,
      "##ايية": 1424,
      "النهاية": 1425,
      "النظام": 1426,
      "النموذج": 1427,
      "##وجب": 1428,
      "لكنه": 1429,
      "##يمة": 1430,
      "##قلت": 1431,
      "##قليل": 1432,
      "نفسه": 1433,
      "##حيث": 1434,
      "##جاه": 1435,
      "##جاج": 1436,
      "اليس": 1437,
      "##ركات": 1438,
      "تحصل": 1439,
      "لنقل": 1440,
      "افهم": 1441,
      "باست": 1442,
      "فانت": 1443,
      "ساقوم": 1444,
      "##سيط": 1445,
      "مليون": 1446,
      "استخدام": 1447,
      "يتحدث": 1448,
      "اشياء": 1449,
      "الوراء": 1450,
      "وجود": 1451,
      "مفيد": 1452,
      "مفهوم": 1453,
      "نتحدث": 1454,
      "مزارع": 1455,
      "فهو": 1456,
      "##دامة": 1457,
      "جميعا": 1458,
      "وسوف": 1459,
      "المشاعر": 1460,
      "اذن": 1461,
      "الكمان": 1462,
      "لايمكن": 1463,
      "اهمية": 1464,
      "نشعر": 1465,
      "الاطلاق": 1466,
      "القادم": 1467,
      "رايع": 1468,
      "اسبوع": 1469,
      "##طورية": 1470,
      "بالطبع": 1471,
      "الكبيرة": 1472,
      "الوهمي": 1473,
      "التيتانيك": 1474,
      "اض": 1475,
      "اضا": 1476,
      "بف": 1477,
      "بو": 1478,
      "بول": 1479,
      "بحيث": 1480,
      "تف": 1481,
      "تر": 1482,
      "ترون": 1483,
      "تخيل": 1484,
      "تقدم": 1485,
      "جا": 1486,
      "جد": 1487,
      "حدي": 1488,
      "حسب": 1489,
      "حرق": 1490,
      "خارج": 1491,
      "دول": 1492,
      "دراسة": 1493,
      "درجة": 1494,
      "ذكريات": 1495,
      "رو": 1496,
      "زيادة": 1497,
      "سنو": 1498,
      "سفينة": 1499,
      "شلل": 1500,
      "صعبة": 1501,
      "صناعة": 1502,
      "طفل": 1503,
      "طعام": 1504,
      "طبيع": 1505,
      "عان": 1506,
      "فر": 1507,
      "فس": 1508,
      "فهي": 1509,
      "فوز": 1510,
      "قوية": 1511,
      "كر": 1512,
      "كن": 1513,
      "لف": 1514,
      "لد": 1515,
      "لما": 1516,
      "لفعل": 1517,
      "لوس": 1518,
      "لعبة": 1519,
      "محد": 1520,
      "ميات": 1521,
      "مفا": 1522,
      "معلومات": 1523,
      "ميلا": 1524,
      "مفاعل": 1525,
      "محاولة": 1526,
      "ند": 1527,
      "نخ": 1528,
      "هير": 1529,
      "وع": 1530,
      "وار": 1531,
      "وبد": 1532,
      "وسي": 1533,
      "وبعد": 1534,
      "وبعض": 1535,
      "يست": 1536,
      "يدي": 1537,
      "يبدا": 1538,
      "##هلك": 1539,
      "##زل": 1540,
      "##زين": 1541,
      "##فذ": 1542,
      "##يب": 1543,
      "##يو": 1544,
      "##دف": 1545,
      "##دنا": 1546,
      "##تب": 1547,
      "##عى": 1548,
      "##عور": 1549,
      "##عتم": 1550,
      "##رير": 1551,
      "##رغم": 1552,
      "##ضية": 1553,
      "##لو": 1554,
      "##بو": 1555,
      "##نين": 1556,
      "##وه": 1557,
      "##والم": 1558,
      "##قم": 1559,
      "##قرا": 1560,
      "##حو": 1561,
      "##حات": 1562,
      "##ذة": 1563,
      "##شل": 1564,
      "##كشا": 1565,
      "##جع": 1566,
      "##سية": 1567,
      "##غذ": 1568,
      "##خي": 1569,
      "##طب": 1570,
      "##طات": 1571,
      "##طام": 1572,
      "##طبق": 1573,
      "الة": 1574,
      "النا": 1575,
      "الها": 1576,
      "الرق": 1577,
      "##الا": 1578,
      "##انيا": 1579,
      "انتم": 1580,
      "منكم": 1581,
      "##مار": 1582,
      "##ماق": 1583,
      "##هارات": 1584,
      "##ونة": 1585,
      "##ونية": 1586,
      "المف": 1587,
      "المد": 1588,
      "المعد": 1589,
      "المهمة": 1590,
      "الاه": 1591,
      "الاد": 1592,
      "الاسب": 1593,
      "الايام": 1594,
      "الابتكار": 1595,
      "##يانا": 1596,
      "##ياسة": 1597,
      "##وايل": 1598,
      "##وارد": 1599,
      "##ريع": 1600,
      "##ريب": 1601,
      "##ريكي": 1602,
      "للس": 1603,
      "بالق": 1604,
      "العقد": 1605,
      "العودة": 1606,
      "والر": 1607,
      "والق": 1608,
      "معا": 1609,
      "معي": 1610,
      "معهد": 1611,
      "##ابة": 1612,
      "##ابات": 1613,
      "##كله": 1614,
      "السكين": 1615,
      "اختر": 1616,
      "اخبر": 1617,
      "القمة": 1618,
      "نحب": 1619,
      "نحصل": 1620,
      "الفض": 1621,
      "لمدة": 1622,
      "لانقاذ": 1623,
      "##ترض": 1624,
      "##وقود": 1625,
      "اسطوري": 1626,
      "يمكنني": 1627,
      "##ايي": 1628,
      "النو": 1629,
      "الشب": 1630,
      "##علمون": 1631,
      "##فاء": 1632,
      "##يميا": 1633,
      "##ودوت": 1634,
      "##باح": 1635,
      "##خلص": 1636,
      "ولكنه": 1637,
      "##جاعة": 1638,
      "##قاط": 1639,
      "##قايق": 1640,
      "تحقيق": 1641,
      "##قطع": 1642,
      "##بعث": 1643,
      "الدجاج": 1644,
      "اقوى": 1645,
      "الخاصة": 1646,
      "اردت": 1647,
      "##بيو": 1648,
      "##تقدم": 1649,
      "الصح": 1650,
      "الصور": 1651,
      "الصعب": 1652,
      "الصحة": 1653,
      "##عيدة": 1654,
      "فانها": 1655,
      "تاريخ": 1656,
      "الغذاء": 1657,
      "يعمل": 1658,
      "##رجح": 1659,
      "اطعام": 1660,
      "ومع": 1661,
      "##يجة": 1662,
      "اتعرفون": 1663,
      "لهذه": 1664,
      "##عامل": 1665,
      "##طوة": 1666,
      "لتلك": 1667,
      "بتلك": 1668,
      "بصدد": 1669,
      "##وليك": 1670,
      "اصاب": 1671,
      "اصبح": 1672,
      "حياتك": 1673,
      "حياتهم": 1674,
      "صنعنا": 1675,
      "##حلات": 1676,
      "الثلا": 1677,
      "الثاني": 1678,
      "صحيحة": 1679,
      "العلماء": 1680,
      "كتبت": 1681,
      "##ترام": 1682,
      "الهياكل": 1683,
      "عندها": 1684,
      "مجد": 1685,
      "##نونة": 1686,
      "العملية": 1687,
      "الشيء": 1688,
      "المنط": 1689,
      "رايعة": 1690,
      "اللاعبون": 1691,
      "كالفورنيا": 1692,
      "مثيرة": 1693,
      "نصنع": 1694,
      "المزرعة": 1695,
      "المشاكل": 1696,
      "الجميع": 1697,
      "##باتية": 1698,
      "وضوح": 1699,
      "التاثير": 1700,
      "الحصول": 1701,
      "الحصبة": 1702,
      "الحرارة": 1703,
      "الحرارية": 1704,
      "الصحيح": 1705,
      "الطبيعي": 1706,
      "ويكيبيد": 1707,
      "الذاكرة": 1708,
      "المدرسة": 1709,
      "الحاسوب": 1710,
      "دولار": 1711,
      "سنويا": 1712,
      "هيرودوت": 1713,
      "ويكيبيديا": 1714,
      "اين": 1715,
      "اصل": 1716,
      "اتم": 1717,
      "اعلم": 1718,
      "اجل": 1719,
      "ابي": 1720,
      "بب": 1721,
      "بث": 1722,
      "بما": 1723,
      "برا": 1724,
      "تك": 1725,
      "تلا": 1726,
      "تحدث": 1727,
      "تبدا": 1728,
      "توجد": 1729,
      "تعرفون": 1730,
      "تعيش": 1731,
      "تواجه": 1732,
      "تكلفة": 1733,
      "تجاه": 1734,
      "ثو": 1735,
      "جنو": 1736,
      "جاء": 1737,
      "جلد": 1738,
      "جيدة": 1739,
      "جيدا": 1740,
      "حب": 1741,
      "حجم": 1742,
      "خطة": 1743,
      "خيال": 1744,
      "خمس": 1745,
      "خمسة": 1746,
      "دار": 1747,
      "دعم": 1748,
      "داني": 1749,
      "دولة": 1750,
      "دواء": 1751,
      "دعو": 1752,
      "رفع": 1753,
      "رياض": 1754,
      "رقم": 1755,
      "سب": 1756,
      "صدي": 1757,
      "صورة": 1758,
      "صغير": 1759,
      "صغيرة": 1760,
      "ضمن": 1761,
      "طف": 1762,
      "طاقة": 1763,
      "عدم": 1764,
      "عطلة": 1765,
      "غال": 1766,
      "فالم": 1767,
      "فعندما": 1768,
      "قا": 1769,
      "قط": 1770,
      "قرا": 1771,
      "قرص": 1772,
      "قلت": 1773,
      "قابل": 1774,
      "قمنا": 1775,
      "لات": 1776,
      "مك": 1777,
      "مث": 1778,
      "متم": 1779,
      "مواد": 1780,
      "نري": 1781,
      "نست": 1782,
      "نسم": 1783,
      "نسبة": 1784,
      "نعمل": 1785,
      "نهاية": 1786,
      "نستخدم": 1787,
      "وث": 1788,
      "وعل": 1789,
      "يتم": 1790,
      "يعلم": 1791,
      "يريد": 1792,
      "يفكر": 1793,
      "يعيش": 1794,
      "ياتي": 1795,
      "يملك": 1796,
      "##هما": 1797,
      "##هذا": 1798,
      "##هتم": 1799,
      "##هيم": 1800,
      "##زم": 1801,
      "##فريق": 1802,
      "##ينات": 1803,
      "##دوا": 1804,
      "##دمة": 1805,
      "##تين": 1806,
      "##تني": 1807,
      "##رن": 1808,
      "##لف": 1809,
      "##به": 1810,
      "##بعة": 1811,
      "##بارة": 1812,
      "##وين": 1813,
      "##وتي": 1814,
      "##حها": 1815,
      "##حين": 1816,
      "##مية": 1817,
      "##مني": 1818,
      "##ذين": 1819,
      "##شات": 1820,
      "##جي": 1821,
      "##جتما": 1822,
      "##غف": 1823,
      "##خا": 1824,
      "##صر": 1825,
      "##صول": 1826,
      "##ثي": 1827,
      "##طلب": 1828,
      "اليق": 1829,
      "الدا": 1830,
      "##ناه": 1831,
      "##ناعية": 1832,
      "اني": 1833,
      "انجاز": 1834,
      "انخفاض": 1835,
      "##هاب": 1836,
      "المس": 1837,
      "المال": 1838,
      "المتا": 1839,
      "المعرف": 1840,
      "المجم": 1841,
      "المسا": 1842,
      "الاز": 1843,
      "الاص": 1844,
      "الابر": 1845,
      "##وام": 1846,
      "##وافق": 1847,
      "##وارع": 1848,
      "التس": 1849,
      "التحدث": 1850,
      "التقدم": 1851,
      "##ريف": 1852,
      "##ريكم": 1853,
      "##علق": 1854,
      "##عليم": 1855,
      "##راع": 1856,
      "##راضي": 1857,
      "لاح": 1858,
      "##يلته": 1859,
      "عنها": 1860,
      "للط": 1861,
      "للناس": 1862,
      "للاس": 1863,
      "##ارات": 1864,
      "##ارنة": 1865,
      "بالك": 1866,
      "العربة": 1867,
      "العوالق": 1868,
      "والع": 1869,
      "معدل": 1870,
      "##ورك": 1871,
      "##وراني": 1872,
      "الحا": 1873,
      "الحض": 1874,
      "الحك": 1875,
      "واي": 1876,
      "واق": 1877,
      "##لاع": 1878,
      "السنوات": 1879,
      "البي": 1880,
      "##فسة": 1881,
      "##مكنة": 1882,
      "ليكون": 1883,
      "اخيرا": 1884,
      "القول": 1885,
      "اعط": 1886,
      "اعاد": 1887,
      "اعزف": 1888,
      "الفاي": 1889,
      "الطيور": 1890,
      "اود": 1891,
      "لانهم": 1892,
      "##رفاه": 1893,
      "##تاثير": 1894,
      "##يفة": 1895,
      "ولات": 1896,
      "ولماذا": 1897,
      "##قيقة": 1898,
      "##صلت": 1899,
      "النوع": 1900,
      "النظر": 1901,
      "النجاح": 1902,
      "##برنا": 1903,
      "##تمال": 1904,
      "الشركات": 1905,
      "الشعور": 1906,
      "##وجود": 1907,
      "ولكني": 1908,
      "##فايل": 1909,
      "##صفح": 1910,
      "اليوراني": 1911,
      "سيء": 1912,
      "سيية": 1913,
      "##جرد": 1914,
      "عليك": 1915,
      "الجز": 1916,
      "وتح": 1917,
      "افات": 1918,
      "بانه": 1919,
      "بانهم": 1920,
      "الدكتور": 1921,
      "اقتص": 1922,
      "##شاة": 1923,
      "الخيال": 1924,
      "ستيف": 1925,
      "##تقدمة": 1926,
      "ينجح": 1927,
      "##فيذ": 1928,
      "##شرية": 1929,
      "ويجب": 1930,
      "حيوانات": 1931,
      "اللحظات": 1932,
      "كيفية": 1933,
      "واننا": 1934,
      "وانها": 1935,
      "##يارات": 1936,
      "تاخذ": 1937,
      "##تحرك": 1938,
      "الماضي": 1939,
      "الرحلات": 1940,
      "الغال": 1941,
      "الغابات": 1942,
      "كمية": 1943,
      "يعني": 1944,
      "يعتقد": 1945,
      "يعتبر": 1946,
      "يتوجب": 1947,
      "اطول": 1948,
      "##ساعد": 1949,
      "##غيرات": 1950,
      "##طوير": 1951,
      "يحمل": 1952,
      "بطول": 1953,
      "عملي": 1954,
      "اجتما": 1955,
      "احدى": 1956,
      "تجعل": 1957,
      "تجارب": 1958,
      "لكيف": 1959,
      "##عملية": 1960,
      "العلاقات": 1961,
      "ادرك": 1962,
      "##لقت": 1963,
      "فهنا": 1964,
      "السمكة": 1965,
      "البشرية": 1966,
      "جزيلا": 1967,
      "البحر": 1968,
      "اثناء": 1969,
      "مليارات": 1970,
      "ياكل": 1971,
      "##اهتمام": 1972,
      "تطعم": 1973,
      "صفحة": 1974,
      "صفحات": 1975,
      "المحور": 1976,
      "اولا": 1977,
      "القادمة": 1978,
      "تحديات": 1979,
      "فضايية": 1980,
      "مخلوقات": 1981,
      "النتيجة": 1982,
      "بامكان": 1983,
      "قوة": 1984,
      "مجموع": 1985,
      "الاخيرة": 1986,
      "بدانا": 1987,
      "مشاكل": 1988,
      "##غامرة": 1989,
      "الافتراض": 1990,
      "واعتقد": 1991,
      "البلدان": 1992,
      "زايد": 1993,
      "سويا": 1994,
      "عظيمة": 1995,
      "الكلمات": 1996,
      "انجليس": 1997,
      "##كشافية": 1998,
      "##غذية": 1999,
      "الفضول": 2000,
      "النووي": 2001,
      "##بيوتر": 2002,
      "مجددا": 2003,
      "دعونا": 2004,
      "اليقين": 2005,
      "اليورانيوم": 2006,
      "??": 2007,
      "از": 2008,
      "اقد": 2009,
      "اعلى": 2010,
      "امنية": 2011,
      "اترك": 2012,
      "بق": 2013,
      "بهم": 2014,
      "بفعل": 2015,
      "باس": 2016,
      "بسي": 2017,
      "بيي": 2018,
      "تري": 2019,
      "تست": 2020,
      "تيد": 2021,
      "تكرا": 2022,
      "تظهر": 2023,
      "تنتهي": 2024,
      "جديدة": 2025,
      "حرا": 2026,
      "حياة": 2027,
      "حالة": 2028,
      "حاول": 2029,
      "حطام": 2030,
      "خب": 2031,
      "خطا": 2032,
      "خاص": 2033,
      "خطوة": 2034,
      "ذكر": 2035,
      "روس": 2036,
      "روي": 2037,
      "راسا": 2038,
      "سع": 2039,
      "سك": 2040,
      "سار": 2041,
      "سيع": 2042,
      "سيم": 2043,
      "سبق": 2044,
      "سوء": 2045,
      "شكل": 2046,
      "شوارع": 2047,
      "طو": 2048,
      "طير": 2049,
      "طول": 2050,
      "عد": 2051,
      "عما": 2052,
      "عمر": 2053,
      "عشر": 2054,
      "عقب": 2055,
      "عديدة": 2056,
      "غام": 2057,
      "غذاء": 2058,
      "فرق": 2059,
      "فتح": 2060,
      "فرص": 2061,
      "قدما": 2062,
      "قريبا": 2063,
      "قيود": 2064,
      "كين": 2065,
      "كار": 2066,
      "كاي": 2067,
      "كاف": 2068,
      "لق": 2069,
      "لذي": 2070,
      "لعدة": 2071,
      "لحظة": 2072,
      "لحظات": 2073,
      "مقد": 2074,
      "ميل": 2075,
      "مصل": 2076,
      "مرات": 2077,
      "مخيل": 2078,
      "مريض": 2079,
      "مياه": 2080,
      "ملايين": 2081,
      "ني": 2082,
      "نر": 2083,
      "نق": 2084,
      "نعلم": 2085,
      "نسي": 2086,
      "نضع": 2087,
      "نكت": 2088,
      "نلعب": 2089,
      "نراه": 2090,
      "هولي": 2091,
      "هكذا": 2092,
      "وز": 2093,
      "وف": 2094,
      "وات": 2095,
      "وير": 2096,
      "ووا": 2097,
      "وست": 2098,
      "ورا": 2099,
      "وغير": 2100,
      "وعن": 2101,
      "وكما": 2102,
      "وعبر": 2103,
      "ير": 2104,
      "يك": 2105,
      "يصل": 2106,
      "يفعل": 2107,
      "يسم": 2108,
      "يصبح": 2109,
      "##هية": 2110,
      "##هور": 2111,
      "##هولة": 2112,
      "##هشة": 2113,
      "##زا": 2114,
      "##زال": 2115,
      "##اح": 2116,
      "##ادي": 2117,
      "##فضل": 2118,
      "##فكرة": 2119,
      "##يهم": 2120,
      "##يعة": 2121,
      "##ديا": 2122,
      "##تعرفون": 2123,
      "##عمة": 2124,
      "##رو": 2125,
      "##روس": 2126,
      "##لها": 2127,
      "##لوج": 2128,
      "##بري": 2129,
      "##بعا": 2130,
      "##وات": 2131,
      "##وير": 2132,
      "##وبة": 2133,
      "##وود": 2134,
      "##قذ": 2135,
      "##قس": 2136,
      "##قال": 2137,
      "##حوا": 2138,
      "##حام": 2139,
      "##حيل": 2140,
      "##حرك": 2141,
      "##حتاج": 2142,
      "##مه": 2143,
      "##مرا": 2144,
      "##شري": 2145,
      "##كا": 2146,
      "##كبر": 2147,
      "##سال": 2148,
      "##سين": 2149,
      "##سولة": 2150,
      "##غما": 2151,
      "##غبة": 2152,
      "##غلب": 2153,
      "##ظل": 2154,
      "##ظن": 2155,
      "##ظيف": 2156,
      "##صال": 2157,
      "##ثر": 2158,
      "##ثق": 2159,
      "##طى": 2160,
      "##طعام": 2161,
      "##طلق": 2162,
      "الات": 2163,
      "الري": 2164,
      "الست": 2165,
      "الخلف": 2166,
      "الوقود": 2167,
      "##نان": 2168,
      "##انوية": 2169,
      "انته": 2170,
      "منى": 2171,
      "##ماية": 2172,
      "##ماذج": 2173,
      "##هار": 2174,
      "##اتهم": 2175,
      "المو": 2176,
      "المحد": 2177,
      "المثير": 2178,
      "المثل": 2179,
      "المرض": 2180,
      "المعن": 2181,
      "المفاعل": 2182,
      "الملايين": 2183,
      "المتقدمة": 2184,
      "الاب": 2185,
      "الاوق": 2186,
      "الاصل": 2187,
      "الاحي": 2188,
      "الابدا": 2189,
      "الارت": 2190,
      "الافك": 2191,
      "الامنية": 2192,
      "الاعمال": 2193,
      "الارجح": 2194,
      "الاجتما": 2195,
      "##لكم": 2196,
      "##ياف": 2197,
      "##ياق": 2198,
      "علم": 2199,
      "##يري": 2200,
      "##ولا": 2201,
      "التن": 2202,
      "التخ": 2203,
      "التص": 2204,
      "التقي": 2205,
      "التعاون": 2206,
      "التجارب": 2207,
      "التعامل": 2208,
      "التغيرات": 2209,
      "التغلب": 2210,
      "##راف": 2211,
      "##راحة": 2212,
      "##راسات": 2213,
      "##امة": 2214,
      "عنه": 2215,
      "للج": 2216,
      "للعمل": 2217,
      "للاهتمام": 2218,
      "##ارك": 2219,
      "##ارس": 2220,
      "##ارقة": 2221,
      "##ديو": 2222,
      "##دينا": 2223,
      "بالض": 2224,
      "بالرغم": 2225,
      "العم": 2226,
      "والص": 2227,
      "والى": 2228,
      "والان": 2229,
      "والسبب": 2230,
      "##داا": 2231,
      "##داف": 2232,
      "معه": 2233,
      "معهم": 2234,
      "معرفة": 2235,
      "معجزة": 2236,
      "##ابا": 2237,
      "##ابيع": 2238,
      "الحدي": 2239,
      "##ومان": 2240,
      "واست": 2241,
      "واقع": 2242,
      "السحر": 2243,
      "السابق": 2244,
      "السابقة": 2245,
      "الانتاج": 2246,
      "البع": 2247,
      "البدا": 2248,
      "##فسيي": 2249,
      "كلها": 2250,
      "كلمة": 2251,
      "اخترا": 2252,
      "القرص": 2253,
      "القيادة": 2254,
      "نحاول": 2255,
      "اعت": 2256,
      "اعم": 2257,
      "اعطي": 2258,
      "الفن": 2259,
      "الفرق": 2260,
      "الفقر": 2261,
      "الفحم": 2262,
      "الفشل": 2263,
      "الطبية": 2264,
      "الطقس": 2265,
      "ولو": 2266,
      "ولان": 2267,
      "##ترح": 2268,
      "وهذه": 2269,
      "اساس": 2270,
      "اسيلة": 2271,
      "اسابيع": 2272,
      "##ايزة": 2273,
      "##صلة": 2274,
      "النباتية": 2275,
      "النحام": 2276,
      "##تمد": 2277,
      "##تموني": 2278,
      "الشيي": 2279,
      "##ادات": 2280,
      "لديه": 2281,
      "لديهم": 2282,
      "##فاق": 2283,
      "##ستطا": 2284,
      "##بلغ": 2285,
      "لكننا": 2286,
      "##قلب": 2287,
      "##حيدة": 2288,
      "ولكننا": 2289,
      "ولكنها": 2290,
      "ولكنني": 2291,
      "##وسا": 2292,
      "سيحدث": 2293,
      "تحمل": 2294,
      "تحاول": 2295,
      "عليهم": 2296,
      "الجد": 2297,
      "الجهة": 2298,
      "وتقول": 2299,
      "افكر": 2300,
      "افريق": 2301,
      "افلام": 2302,
      "اقص": 2303,
      "##شاف": 2304,
      "##شاء": 2305,
      "الخدعة": 2306,
      "اربع": 2307,
      "##تهوف": 2308,
      "الكهر": 2309,
      "الكتب": 2310,
      "الالف": 2311,
      "##هرية": 2312,
      "سايل": 2313,
      "مثلها": 2314,
      "##نوعة": 2315,
      "تاداا": 2316,
      "##بتكر": 2317,
      "الاسفل": 2318,
      "ونفسية": 2319,
      "احدا": 2320,
      "احتمال": 2321,
      "امكان": 2322,
      "الغني": 2323,
      "يعد": 2324,
      "فعله": 2325,
      "تقول": 2326,
      "تقيس": 2327,
      "تقرير": 2328,
      "عادي": 2329,
      "##ساعدة": 2330,
      "الوحيدة": 2331,
      "المتوسط": 2332,
      "اتخيل": 2333,
      "اتعلمون": 2334,
      "لتص": 2335,
      "يقضون": 2336,
      "بتغيير": 2337,
      "حينما": 2338,
      "وجه": 2339,
      "وجهة": 2340,
      "يحتاج": 2341,
      "##رتفع": 2342,
      "الامراض": 2343,
      "اصدق": 2344,
      "للمستقبل": 2345,
      "صنعناها": 2346,
      "عملية": 2347,
      "##بقي": 2348,
      "##بقى": 2349,
      "##حلي": 2350,
      "الثانوية": 2351,
      "##عدون": 2352,
      "المستدامة": 2353,
      "واحيانا": 2354,
      "احدهم": 2355,
      "فاجاب": 2356,
      "مدينة": 2357,
      "العلا": 2358,
      "##وثات": 2359,
      "##وثرات": 2360,
      "جميعها": 2361,
      "حلوي": 2362,
      "فالس": 2363,
      "مقالة": 2364,
      "اسمه": 2365,
      "اسمحوا": 2366,
      "استطعت": 2367,
      "استطعنا": 2368,
      "بمجرد": 2369,
      "رايت": 2370,
      "ياخذ": 2371,
      "الاخرين": 2372,
      "العاجل": 2373,
      "والتطوير": 2374,
      "ثلاث": 2375,
      "قادم": 2376,
      "تطير": 2377,
      "منافسة": 2378,
      "نصدق": 2379,
      "يوميا": 2380,
      "##يزة": 2381,
      "المزيد": 2382,
      "الاستكشافية": 2383,
      "##واجهة": 2384,
      "ويمكننا": 2385,
      "ويمكنني": 2386,
      "بسرعة": 2387,
      "بسهولة": 2388,
      "تشعر": 2389,
      "التحدي": 2390,
      "سنكون": 2391,
      "موخرا": 2392,
      "وضح": 2393,
      "المجتمع": 2394,
      "المجنونة": 2395,
      "اسماكها": 2396,
      "الاساسية": 2397,
      "تركيز": 2398,
      "##ملكة": 2399,
      "العامة": 2400,
      "تسال": 2401,
      "تريدون": 2402,
      "جلدي": 2403,
      "سالت": 2404,
      "##طلات": 2405,
      "الطبيعية": 2406,
      "ابوا": 2407,
      "حصلت": 2408,
      "مجموعة": 2409,
      "للقيام": 2410,
      "للقياس": 2411,
      "الطبيعة": 2412,
      "تسمح": 2413,
      "لعدم": 2414,
      "تبين": 2415,
      "سمعتم": 2416,
      "مرتين": 2417,
      "وكيفية": 2418,
      "##ناقض": 2419,
      "منتصف": 2420,
      "المناخ": 2421,
      "الاثنين": 2422,
      "التكنولوجيا": 2423,
      "البييي": 2424,
      "القليلة": 2425,
      "اسبوعيا": 2426,
      "طبيعي": 2427,
      "عانى": 2428,
      "فرصة": 2429,
      "لدرجة": 2430,
      "وبدلا": 2431,
      "##خيص": 2432,
      "##طبيق": 2433,
      "الهاتف": 2434,
      "الرقم": 2435,
      "المعدل": 2436,
      "الاهداف": 2437,
      "الادوية": 2438,
      "الاسبوع": 2439,
      "##يميايية": 2440,
      "التاثيرات": 2441,
      "اتمنى": 2442,
      "ثوبي": 2443,
      "جنوب": 2444,
      "جاءت": 2445,
      "داروين": 2446,
      "يفكرون": 2447,
      "##وتينات": 2448,
      "المتاحة": 2449,
      "الابرة": 2450,
      "لاحقا": 2451,
      "الحاضر": 2452,
      "الحكومة": 2453,
      "الجزء": 2454,
      "افاتار": 2455,
      "الغالب": 2456,
      "لكيفية": 2457,
      "الافتراضية": 2458,
      "بسيطة": 2459,
      "غامق": 2460,
      "هوليوود": 2461,
      "المعنى": 2462,
      "الاوقات": 2463,
      "الاحيان": 2464,
      "الافكار": 2465,
      "الكهرباء": 2466,
      ",,": 2467,
      "اية": 2468,
      "اذه": 2469,
      "ايد": 2470,
      "ابعد": 2471,
      "ابحث": 2472,
      "اومن": 2473,
      "اوليك": 2474,
      "اريكم": 2475,
      "بض": 2476,
      "بك": 2477,
      "بج": 2478,
      "بتح": 2479,
      "بارع": 2480,
      "بلايين": 2481,
      "بوجود": 2482,
      "تز": 2483,
      "تغ": 2484,
      "توق": 2485,
      "تاي": 2486,
      "تجر": 2487,
      "توف": 2488,
      "تعرف": 2489,
      "تتح": 2490,
      "تجم": 2491,
      "تستخدم": 2492,
      "تقطع": 2493,
      "تبعث": 2494,
      "ثانية": 2495,
      "جر": 2496,
      "جو": 2497,
      "جول": 2498,
      "جام": 2499,
      "جمل": 2500,
      "جاه": 2501,
      "حض": 2502,
      "حق": 2503,
      "حرف": 2504,
      "حتما": 2505,
      "حقق": 2506,
      "خدا": 2507,
      "خاصة": 2508,
      "در": 2509,
      "دوا": 2510,
      "دور": 2511,
      "ديز": 2512,
      "دكتور": 2513,
      "دقايق": 2514,
      "دقيقة": 2515,
      "راس": 2516,
      "رسم": 2517,
      "روية": 2518,
      "رغب": 2519,
      "رضى": 2520,
      "زراعة": 2521,
      "سه": 2522,
      "سر": 2523,
      "سيق": 2524,
      "سعي": 2525,
      "سريع": 2526,
      "شه": 2527,
      "شا": 2528,
      "شديد": 2529,
      "شرح": 2530,
      "صح": 2531,
      "صري": 2532,
      "صور": 2533,
      "ضع": 2534,
      "طا": 2535,
      "طن": 2536,
      "طعا": 2537,
      "طعم": 2538,
      "طلب": 2539,
      "طيور": 2540,
      "عقل": 2541,
      "عالية": 2542,
      "عوالم": 2543,
      "عبارة": 2544,
      "غوا": 2545,
      "غيت": 2546,
      "فسي": 2547,
      "فكما": 2548,
      "فقلت": 2549,
      "فقال": 2550,
      "قت": 2551,
      "قر": 2552,
      "قاب": 2553,
      "قاي": 2554,
      "قوي": 2555,
      "قوى": 2556,
      "قضي": 2557,
      "قراء": 2558,
      "قياس": 2559,
      "قيمة": 2560,
      "كذ": 2561,
      "كام": 2562,
      "كاد": 2563,
      "كيميايية": 2564,
      "لب": 2565,
      "لغ": 2566,
      "لث": 2567,
      "لسنا": 2568,
      "لتح": 2569,
      "لحل": 2570,
      "لجعل": 2571,
      "لعملية": 2572,
      "مب": 2573,
      "مغ": 2574,
      "مط": 2575,
      "مذا": 2576,
      "مري": 2577,
      "مرا": 2578,
      "مفي": 2579,
      "مشر": 2580,
      "مسا": 2581,
      "موسيقى": 2582,
      "مثال": 2583,
      "موقف": 2584,
      "مهارات": 2585,
      "مجاعة": 2586,
      "مغامرة": 2587,
      "مواجهة": 2588,
      "نن": 2589,
      "نكن": 2590,
      "نتا": 2591,
      "نصل": 2592,
      "نتي": 2593,
      "نشر": 2594,
      "نهر": 2595,
      "نبدا": 2596,
      "ننظر": 2597,
      "نجح": 2598,
      "نموذج": 2599,
      "ناسا": 2600,
      "ننتج": 2601,
      "نهتم": 2602,
      "نبتكر": 2603,
      "هز": 2604,
      "هات": 2605,
      "هياكل": 2606,
      "هدف": 2607,
      "وص": 2608,
      "وها": 2609,
      "ونت": 2610,
      "وبا": 2611,
      "وصف": 2612,
      "وبدا": 2613,
      "وراء": 2614,
      "وعلى": 2615,
      "وقلت": 2616,
      "يو": 2617,
      "يغ": 2618,
      "يص": 2619,
      "يهم": 2620,
      "يقل": 2621,
      "يجل": 2622,
      "يعرفون": 2623,
      "يفهم": 2624,
      "يوما": 2625,
      "ينتهي": 2626,
      "يزال": 2627,
      "يرتفع": 2628,
      "##زرعة": 2629,
      "##از": 2630,
      "##ادة": 2631,
      "##ايق": 2632,
      "##فر": 2633,
      "##فرد": 2634,
      "##يط": 2635,
      "##يست": 2636,
      "##ده": 2637,
      "##دان": 2638,
      "##دية": 2639,
      "##دني": 2640,
      "##دود": 2641,
      "##درب": 2642,
      "##تض": 2643,
      "##تان": 2644,
      "##تكم": 2645,
      "##تكار": 2646,
      "##عق": 2647,
      "##عال": 2648,
      "##عها": 2649,
      "##عين": 2650,
      "##عطف": 2651,
      "##رها": 2652,
      "##روف": 2653,
      "##رسة": 2654,
      "##ضمن": 2655,
      "##ضوع": 2656,
      "##لون": 2657,
      "##لول": 2658,
      "##برا": 2659,
      "##بور": 2660,
      "##نها": 2661,
      "##نقل": 2662,
      "##وة": 2663,
      "##وان": 2664,
      "##وها": 2665,
      "##وست": 2666,
      "##قه": 2667,
      "##قيرة": 2668,
      "##قتص": 2669,
      "##حق": 2670,
      "##حية": 2671,
      "##حدة": 2672,
      "##حلة": 2673,
      "##حياة": 2674,
      "##حرية": 2675,
      "##مز": 2676,
      "##مها": 2677,
      "##مين": 2678,
      "##مست": 2679,
      "##ذر": 2680,
      "##ذب": 2681,
      "##شية": 2682,
      "##شوا": 2683,
      "##شياء": 2684,
      "##كد": 2685,
      "##كات": 2686,
      "##كيل": 2687,
      "##كمل": 2688,
      "##كاس": 2689,
      "##جات": 2690,
      "##جيل": 2691,
      "##جار": 2692,
      "##سه": 2693,
      "##سوم": 2694,
      "##سكر": 2695,
      "##سكون": 2696,
      "##سفل": 2697,
      "##ظرة": 2698,
      "##خو": 2699,
      "##خط": 2700,
      "##خول": 2701,
      "##صي": 2702,
      "##صنع": 2703,
      "##صمي": 2704,
      "##ثور": 2705,
      "##ثناء": 2706,
      "##ثمار": 2707,
      "##ىء": 2708,
      "##طم": 2709,
      "##طان": 2710,
      "##طون": 2711,
      "##طين": 2712,
      "##طريقة": 2713,
      "الض": 2714,
      "الجا": 2715,
      "الوي": 2716,
      "النات": 2717,
      "الهي": 2718,
      "الرفاه": 2719,
      "##الغ": 2720,
      "##انب": 2721,
      "##ماكن": 2722,
      "##ماضي": 2723,
      "##هات": 2724,
      "##هايو": 2725,
      "##ونها": 2726,
      "المرات": 2727,
      "المطا": 2728,
      "المثال": 2729,
      "الموجودة": 2730,
      "الموارد": 2731,
      "الممكنة": 2732,
      "المحلي": 2733,
      "الموثرات": 2734,
      "المملكة": 2735,
      "الار": 2736,
      "الابي": 2737,
      "الايج": 2738,
      "الاجم": 2739,
      "الاحل": 2740,
      "الاكت": 2741,
      "الاحص": 2742,
      "الاوايل": 2743,
      "الاكبر": 2744,
      "الاقتص": 2745,
      "##ينما": 2746,
      "##ينيات": 2747,
      "##ياب": 2748,
      "علوم": 2749,
      "علماء": 2750,
      "علاقات": 2751,
      "##يرات": 2752,
      "##يرابا": 2753,
      "##ولت": 2754,
      "##ولون": 2755,
      "##وار": 2756,
      "##واصل": 2757,
      "التو": 2758,
      "التعا": 2759,
      "التغيير": 2760,
      "التكلفة": 2761,
      "التصفح": 2762,
      "التيرابا": 2763,
      "##ريج": 2764,
      "##ريبة": 2765,
      "##علقة": 2766,
      "##همون": 2767,
      "##رار": 2768,
      "##راعي": 2769,
      "##رايس": 2770,
      "##راعية": 2771,
      "##راجع": 2772,
      "##امي": 2773,
      "##امين": 2774,
      "لاع": 2775,
      "لاسفل": 2776,
      "##قدر": 2777,
      "##يلية": 2778,
      "عندي": 2779,
      "للد": 2780,
      "للر": 2781,
      "للب": 2782,
      "للخيال": 2783,
      "للماضي": 2784,
      "##ارية": 2785,
      "##اردة": 2786,
      "##ارجا": 2787,
      "##ديك": 2788,
      "##ديمة": 2789,
      "بالام": 2790,
      "بالضر": 2791,
      "العمر": 2792,
      "العامل": 2793,
      "العطلة": 2794,
      "العوالم": 2795,
      "العثور": 2796,
      "ماك": 2797,
      "ماهية": 2798,
      "والح": 2799,
      "والغ": 2800,
      "والاف": 2801,
      "##داد": 2802,
      "##داء": 2803,
      "##داخل": 2804,
      "معنا": 2805,
      "معها": 2806,
      "معين": 2807,
      "معكم": 2808,
      "معينة": 2809,
      "معاق": 2810,
      "معنى": 2811,
      "معسكر": 2812,
      "معصمي": 2813,
      "##ابرة": 2814,
      "##ابتكار": 2815,
      "الحي": 2816,
      "الحر": 2817,
      "الحب": 2818,
      "الحظ": 2819,
      "الحالة": 2820,
      "واض": 2821,
      "واخ": 2822,
      "##كره": 2823,
      "##كرتنا": 2824,
      "##كرونة": 2825,
      "##لاد": 2826,
      "##لاعب": 2827,
      "السل": 2828,
      "السخ": 2829,
      "السري": 2830,
      "السوق": 2831,
      "السنة": 2832,
      "السفينة": 2833,
      "السياسة": 2834,
      "السعيدة": 2835,
      "السيارات": 2836,
      "الذكريات": 2837,
      "الانواع": 2838,
      "الانجاز": 2839,
      "البن": 2840,
      "البص": 2841,
      "البرا": 2842,
      "البطا": 2843,
      "البيية": 2844,
      "البسيط": 2845,
      "البشري": 2846,
      "##كثيف": 2847,
      "كلمات": 2848,
      "ليديا": 2849,
      "اخطو": 2850,
      "اخبار": 2851,
      "##نتقل": 2852,
      "القرن": 2853,
      "اعرض": 2854,
      "اعترا": 2855,
      "اعتق": 2856,
      "اعادة": 2857,
      "الفي": 2858,
      "الفور": 2859,
      "الفتح": 2860,
      "الفريق": 2861,
      "الفقيرة": 2862,
      "الطرق": 2863,
      "الطلاب": 2864,
      "لمحاولة": 2865,
      "اوقات": 2866,
      "اوتعرفون": 2867,
      "اوهايو": 2868,
      "##تاد": 2869,
      "##تاح": 2870,
      "ولند": 2871,
      "وليست": 2872,
      "##ترق": 2873,
      "##تركون": 2874,
      "##ترسي": 2875,
      "##ترونية": 2876,
      "##عبية": 2877,
      "بعدم": 2878,
      "ايجاب": 2879,
      "اسف": 2880,
      "اسل": 2881,
      "اسطورية": 2882,
      "يمكنه": 2883,
      "##ايج": 2884,
      "النها": 2885,
      "النرد": 2886,
      "النفسية": 2887,
      "النفسيي": 2888,
      "##برز": 2889,
      "##برت": 2890,
      "##تمر": 2891,
      "الشكل": 2892,
      "الشمس": 2893,
      "##علمين": 2894,
      "##ادية": 2895,
      "##ادرة": 2896,
      "##وجه": 2897,
      "##ياتي": 2898,
      "##فاع": 2899,
      "##فاظ": 2900,
      "##فاية": 2901,
      "لكنهم": 2902,
      "##ودوا": 2903,
      "##قلق": 2904,
      "نفسها": 2905,
      "##باط": 2906,
      "##جاة": 2907,
      "##خصوص": 2908,
      "اليها": 2909,
      "قدرات": 2910,
      "سيتم": 2911,
      "تحريك": 2912,
      "لنفس": 2913,
      "لنلق": 2914,
      "عليكم": 2915,
      "الجيم": 2916,
      "الجيدة": 2917,
      "الجينات": 2918,
      "وتق": 2919,
      "##وعد": 2920,
      "##وعى": 2921,
      "##وفر": 2922,
      "##وفيات": 2923,
      "بانها": 2924,
      "##بعي": 2925,
      "الدم": 2926,
      "الدخل": 2927,
      "الدراسة": 2928,
      "الدراسات": 2929,
      "اقرا": 2930,
      "اقود": 2931,
      "اقترح": 2932,
      "##والى": 2933,
      "الخوف": 2934,
      "الخمس": 2935,
      "الخمسة": 2936,
      "الخارقة": 2937,
      "ارخص": 2938,
      "ارسم": 2939,
      "ستة": 2940,
      "ستت": 2941,
      "ستختار": 2942,
      "ستحصل": 2943,
      "##تقدون": 2944,
      "##خترا": 2945,
      "##ختيار": 2946,
      "الصين": 2947,
      "ينظر": 2948,
      "ينطبق": 2949,
      "باستطا": 2950,
      "الليلة": 2951,
      "اللحظة": 2952,
      "الالاف": 2953,
      "فانه": 2954,
      "فاننا": 2955,
      "متع": 2956,
      "متج": 2957,
      "مثلما": 2958,
      "وانني": 2959,
      "##يارد": 2960,
      "تاكل": 2961,
      "##ويورك": 2962,
      "الاسطورية": 2963,
      "ونح": 2964,
      "ونصف": 2965,
      "الماضية": 2966,
      "ملوثات": 2967,
      "وقو": 2968,
      "وقود": 2969,
      "وقتهم": 2970,
      "الروح": 2971,
      "احاول": 2972,
      "امضاء": 2973,
      "امريكي": 2974,
      "بينهم": 2975,
      "شخصية": 2976,
      "##شكلات": 2977,
      "الغوص": 2978,
      "الغاز": 2979,
      "##يسية": 2980,
      "##حنة": 2981,
      "فعلت": 2982,
      "مستق": 2983,
      "مستعدون": 2984,
      "##رجات": 2985,
      "##رجعوا": 2986,
      "تعد": 2987,
      "تعود": 2988,
      "تعطي": 2989,
      "##فلم": 2990,
      "بعدها": 2991,
      "اطف": 2992,
      "كبشر": 2993,
      "اشعر": 2994,
      "##ضيح": 2995,
      "##ساطة": 2996,
      "لوضع": 2997,
      "الوصول": 2998,
      "المتشك": 2999,
      "المتبقي": 3000,
      "اتحدث": 3001,
      "بتطبيق": 3002,
      "نظري": 3003,
      "وجد": 3004,
      "وجدت": 3005,
      "بطاقة": 3006,
      "##رتنا": 3007,
      "اصبعي": 3008,
      "##طاق": 3009,
      "##طاء": 3010,
      "للمريض": 3011,
      "اكمل": 3012,
      "حياته": 3013,
      "عملهم": 3014,
      "##بقية": 3015,
      "الزراعة": 3016,
      "الزراعية": 3017,
      "الثانية": 3018,
      "##خروج": 3019,
      "اجد": 3020,
      "اجابة": 3021,
      "حدود": 3022,
      "المستوى": 3023,
      "بيتر": 3024,
      "بنفسية": 3025,
      "خلف": 3026,
      "وروية": 3027,
      "ورغما": 3028,
      "اخذت": 3029,
      "تجري": 3030,
      "مفترسي": 3031,
      "نتخيل": 3032,
      "تملك": 3033,
      "##هدف": 3034,
      "اللازم": 3035,
      "##ضاءة": 3036,
      "ادلة": 3037,
      "ادارة": 3038,
      "فهذا": 3039,
      "فهذه": 3040,
      "الهند": 3041,
      "الرايعة": 3042,
      "تاثيرات": 3043,
      "مجتمع": 3044,
      "مصاب": 3045,
      "مصدر": 3046,
      "اثارة": 3047,
      "تنظر": 3048,
      "تنفيذ": 3049,
      "تصنع": 3050,
      "تصبح": 3051,
      "كثيرة": 3052,
      "مقارنة": 3053,
      "##طيور": 3054,
      "العلمية": 3055,
      "استطا": 3056,
      "استطلاع": 3057,
      "جعلت": 3058,
      "جعلني": 3059,
      "العاجلة": 3060,
      "قادرون": 3061,
      "قادرين": 3062,
      "##جابة": 3063,
      "مثيرا": 3064,
      "يومنون": 3065,
      "##عوه": 3066,
      "##حصول": 3067,
      "المحاد": 3068,
      "ويمكنك": 3069,
      "تشكيل": 3070,
      "ذاتها": 3071,
      "نظرنا": 3072,
      "التحول": 3073,
      "معظمها": 3074,
      "احببت": 3075,
      "يقولون": 3076,
      "تدخل": 3077,
      "المعجزة": 3078,
      "التاريخ": 3079,
      "اسماكك": 3080,
      "تحديدا": 3081,
      "قصص": 3082,
      "لحمي": 3083,
      "لحوالى": 3084,
      "##ندسة": 3085,
      "الاحترام": 3086,
      "اسبانيا": 3087,
      "الصحيحة": 3088,
      "تكنولوجيا": 3089,
      "تستطيعون": 3090,
      "مولمة": 3091,
      "يقومون": 3092,
      "##قصى": 3093,
      "##مجيات": 3094,
      "النتايج": 3095,
      "مهما": 3096,
      "مهتم": 3097,
      "مضت": 3098,
      "يسير": 3099,
      "##دهار": 3100,
      "##بيدات": 3101,
      "القدرة": 3102,
      "الاعترا": 3103,
      "الاعماق": 3104,
      "بالسعادة": 3105,
      "الطبيب": 3106,
      "تحتوي": 3107,
      "امام": 3108,
      "ارادوا": 3109,
      "حافة": 3110,
      "سوالا": 3111,
      "لعنة": 3112,
      "مذهل": 3113,
      "نجاحها": 3114,
      "يدعى": 3115,
      "المخرج": 3116,
      "المصادر": 3117,
      "الافتراضي": 3118,
      "البروتينات": 3119,
      "استخدمنا": 3120,
      "مختلفين": 3121,
      "جزءا": 3122,
      "افعله": 3123,
      "تواصل": 3124,
      "جينيا": 3125,
      "ذهب": 3126,
      "ذهبت": 3127,
      "سمكة": 3128,
      "طبيب": 3129,
      "طبيعة": 3130,
      "فعالة": 3131,
      "##اطر": 3132,
      "##صميم": 3133,
      "منطقي": 3134,
      "التكنلوج": 3135,
      "البييية": 3136,
      "استخدامها": 3137,
      "اضاف": 3138,
      "بوصة": 3139,
      "جاك": 3140,
      "حديثة": 3141,
      "روبرت": 3142,
      "فسيلته": 3143,
      "لفترة": 3144,
      "محدد": 3145,
      "مفاصل": 3146,
      "مفاعلات": 3147,
      "##هلكها": 3148,
      "##بوط": 3149,
      "المفترض": 3150,
      "المدارس": 3151,
      "##ريكيين": 3152,
      "اخترت": 3153,
      "الشباب": 3154,
      "##قاطع": 3155,
      "يعملون": 3156,
      "الثلاثة": 3157,
      "المنطقة": 3158,
      "ابيس": 3159,
      "تلاحظ": 3160,
      "دانيال": 3161,
      "سبيل": 3162,
      "غالوب": 3163,
      "قطعة": 3164,
      "مثيل": 3165,
      "متمسكون": 3166,
      "##خاخ": 3167,
      "المعرفة": 3168,
      "المجموع": 3169,
      "الازرق": 3170,
      "للطاقة": 3171,
      "الحضارة": 3172,
      "الفايدة": 3173,
      "اقتصادي": 3174,
      "حيواناتها": 3175,
      "اجتماعي": 3176,
      "تجاربهم": 3177,
      "ادركت": 3178,
      "فهناك": 3179,
      "##بيوترات": 3180,
      "اقدام": 3181,
      "ذكرت": 3182,
      "سكيد": 3183,
      "طويلة": 3184,
      "لقياس": 3185,
      "لذيذة": 3186,
      "مخيلتنا": 3187,
      "نيويورك": 3188,
      "نكتشف": 3189,
      "يسمى": 3190,
      "المثيرة": 3191,
      "المثلى": 3192,
      "الابداع": 3193,
      "الحديثة": 3194,
      "الانتاجية": 3195,
      "البعض": 3196,
      "اختراع": 3197,
      "افريقيا": 3198,
      "اقصد": 3199,
      "##تهوفين": 3200,
      "العلاج": 3201,
      "فالسوال": 3202,
      "ابوابا": 3203,
      "تجرب": 3204,
      "جوليارد": 3205,
      "جملة": 3206,
      "حرفيا": 3207,
      "خداع": 3208,
      "ديزني": 3209,
      "رغبتي": 3210,
      "سيقوم": 3211,
      "سعيدا": 3212,
      "طعاما": 3213,
      "عقلي": 3214,
      "غيتس": 3215,
      "قتل": 3216,
      "قررت": 3217,
      "قراءة": 3218,
      "لتحقيق": 3219,
      "مريية": 3220,
      "مفيدة": 3221,
      "نتيجة": 3222,
      "نشرت": 3223,
      "الويب": 3224,
      "الهيكل": 3225,
      "الابيض": 3226,
      "الايجاب": 3227,
      "الاجمالي": 3228,
      "الاحلام": 3229,
      "الاكتشاف": 3230,
      "التيراباور": 3231,
      "بالضرورة": 3232,
      "اعتقاد": 3233,
      "الفتحات": 3234,
      "ولندعوه": 3235,
      "ايا": 3236,
      "ايق": 3237,
      "اكل": 3238,
      "اتى": 3239,
      "ايام": 3240,
      "اذهب": 3241,
      "ابتكار": 3242,
      "اوايل": 3243,
      "اظن": 3244,
      "اضاءة": 3245,
      "بغ": 3246,
      "بخ": 3247,
      "بنا": 3248,
      "بون": 3249,
      "بري": 3250,
      "بيع": 3251,
      "بنت": 3252,
      "بكم": 3253,
      "باي": 3254,
      "بتم": 3255,
      "بصف": 3256,
      "بوف": 3257,
      "بشر": 3258,
      "بحل": 3259,
      "بقي": 3260,
      "ببعض": 3261,
      "بجد": 3262,
      "بريك": 3263,
      "بسيط": 3264,
      "بتاثير": 3265,
      "بشرية": 3266,
      "بقدر": 3267,
      "ته": 3268,
      "تض": 3269,
      "تل": 3270,
      "تذ": 3271,
      "تظ": 3272,
      "تنا": 3273,
      "تير": 3274,
      "تول": 3275,
      "تاب": 3276,
      "تحد": 3277,
      "تصل": 3278,
      "تقل": 3279,
      "تبا": 3280,
      "تمن": 3281,
      "تقا": 3282,
      "تبع": 3283,
      "تجل": 3284,
      "تشر": 3285,
      "تشكل": 3286,
      "تمت": 3287,
      "تامل": 3288,
      "توز": 3289,
      "تخلف": 3290,
      "تختار": 3291,
      "تعاون": 3292,
      "تلام": 3293,
      "تقليل": 3294,
      "تخلص": 3295,
      "تساعد": 3296,
      "تبلغ": 3297,
      "تناقض": 3298,
      "ثقب": 3299,
      "جرا": 3300,
      "جرب": 3301,
      "جوب": 3302,
      "جراء": 3303,
      "جلب": 3304,
      "جودة": 3305,
      "جدل": 3306,
      "جهو": 3307,
      "جيري": 3308,
      "جايزة": 3309,
      "جوعى": 3310,
      "حف": 3311,
      "حيا": 3312,
      "حار": 3313,
      "حبي": 3314,
      "حفل": 3315,
      "حلم": 3316,
      "خا": 3317,
      "خر": 3318,
      "خيا": 3319,
      "خوف": 3320,
      "خرج": 3321,
      "خاط": 3322,
      "خدمة": 3323,
      "خارجا": 3324,
      "دف": 3325,
      "دع": 3326,
      "درا": 3327,
      "ديم": 3328,
      "دخل": 3329,
      "دمر": 3330,
      "دفع": 3331,
      "درجات": 3332,
      "ذراعي": 3333,
      "رج": 3334,
      "راب": 3335,
      "رحل": 3336,
      "روح": 3337,
      "رفض": 3338,
      "رومان": 3339,
      "رخيص": 3340,
      "رحلة": 3341,
      "رسوم": 3342,
      "زم": 3343,
      "زمن": 3344,
      "زمنية": 3345,
      "زهرية": 3346,
      "سط": 3347,
      "سير": 3348,
      "سري": 3349,
      "سيل": 3350,
      "سجل": 3351,
      "سلب": 3352,
      "سابق": 3353,
      "سياسة": 3354,
      "سعيدة": 3355,
      "سيلته": 3356,
      "سحرية": 3357,
      "شك": 3358,
      "شرا": 3359,
      "شار": 3360,
      "شهد": 3361,
      "شركات": 3362,
      "شعبية": 3363,
      "صن": 3364,
      "صاح": 3365,
      "ضر": 3366,
      "ضبط": 3367,
      "ضدها": 3368,
      "ضغط": 3369,
      "طرق": 3370,
      "طهي": 3371,
      "طيلة": 3372,
      "طرح": 3373,
      "طويل": 3374,
      "ظن": 3375,
      "ظهر": 3376,
      "ظروف": 3377,
      "عال": 3378,
      "عذا": 3379,
      "عين": 3380,
      "عوا": 3381,
      "عيد": 3382,
      "عامل": 3383,
      "عينة": 3384,
      "عريض": 3385,
      "عوالق": 3386,
      "عينات": 3387,
      "غذا": 3388,
      "غدا": 3389,
      "غرف": 3390,
      "غبي": 3391,
      "غنية": 3392,
      "غرفة": 3393,
      "غطى": 3394,
      "فت": 3395,
      "فب": 3396,
      "فظ": 3397,
      "فخ": 3398,
      "فما": 3399,
      "فتا": 3400,
      "فاي": 3401,
      "فكان": 3402,
      "ففي": 3403,
      "فعن": 3404,
      "فبعد": 3405,
      "فربما": 3406,
      "فقرا": 3407,
      "فحين": 3408,
      "قض": 3409,
      "قل": 3410,
      "قب": 3411,
      "قان": 3412,
      "قيم": 3413,
      "قلة": 3414,
      "قرر": 3415,
      "قديمة": 3416,
      "كش": 3417,
      "كرا": 3418,
      "كرات": 3419,
      "كوكب": 3420,
      "كوني": 3421,
      "كهذا": 3422,
      "كوست": 3423,
      "كفاية": 3424,
      "لخ": 3425,
      "لط": 3426,
      "للك": 3427,
      "لوا": 3428,
      "ليق": 3429,
      "لوم": 3430,
      "ليع": 3431,
      "لتر": 3432,
      "لقر": 3433,
      "لقص": 3434,
      "لولت": 3435,
      "لبقية": 3436,
      "مم": 3437,
      "مذ": 3438,
      "ملك": 3439,
      "مكث": 3440,
      "مكون": 3441,
      "موج": 3442,
      "مود": 3443,
      "مرك": 3444,
      "مسب": 3445,
      "مجل": 3446,
      "مبدا": 3447,
      "محا": 3448,
      "ممت": 3449,
      "مطا": 3450,
      "موسيق": 3451,
      "مكس": 3452,
      "متاك": 3453,
      "مخلفات": 3454,
      "مكلفة": 3455,
      "موقع": 3456,
      "موارد": 3457,
      "ممكنة": 3458,
      "موعد": 3459,
      "مشكلات": 3460,
      "نز": 3461,
      "نم": 3462,
      "نس": 3463,
      "نها": 3464,
      "نجا": 3465,
      "نقط": 3466,
      "نمر": 3467,
      "نغير": 3468,
      "نرد": 3469,
      "نعيش": 3470,
      "نلت": 3471,
      "نفهم": 3472,
      "نواجه": 3473,
      "نملك": 3474,
      "نختار": 3475,
      "نادر": 3476,
      "نطبق": 3477,
      "نباتية": 3478,
      "نتحرك": 3479,
      "نثق": 3480,
      "نماذج": 3481,
      "نكره": 3482,
      "نطاق": 3483,
      "هما": 3484,
      "هوا": 3485,
      "هذين": 3486,
      "هندسة": 3487,
      "وخ": 3488,
      "وط": 3489,
      "ونا": 3490,
      "ويل": 3491,
      "وكم": 3492,
      "ويف": 3493,
      "وفعل": 3494,
      "وماذا": 3495,
      "وفهم": 3496,
      "وعو": 3497,
      "ونتج": 3498,
      "وشك": 3499,
      "وخيال": 3500,
      "وخلص": 3501,
      "وصلت": 3502,
      "وظل": 3503,
      "وياتي": 3504,
      "وخصوص": 3505,
      "وفلم": 3506,
      "يف": 3507,
      "يم": 3508,
      "يات": 3509,
      "يري": 3510,
      "يذه": 3511,
      "يصف": 3512,
      "يسب": 3513,
      "يمر": 3514,
      "يبد": 3515,
      "يرب": 3516,
      "يضع": 3517,
      "يرون": 3518,
      "يذهب": 3519,
      "يمو": 3520,
      "يغم": 3521,
      "يستخدم": 3522,
      "يظهر": 3523,
      "يذكر": 3524,
      "يناق": 3525,
      "يطلق": 3526,
      "ياردة": 3527,
      "ينتقل": 3528,
      "يرجعوا": 3529,
      "يهدف": 3530,
      "##هان": 3531,
      "##هري": 3532,
      "##هذه": 3533,
      "##هود": 3534,
      "##هته": 3535,
      "##هلة": 3536,
      "##هند": 3537,
      "##زن": 3538,
      "##زول": 3539,
      "##زمة": 3540,
      "##زفت": 3541,
      "##زاء": 3542,
      "##زلت": 3543,
      "##زراعة": 3544,
      "##اهر": 3545,
      "##اعو": 3546,
      "##فف": 3547,
      "##فن": 3548,
      "##فظ": 3549,
      "##فص": 3550,
      "##فنا": 3551,
      "##فات": 3552,
      "##فيد": 3553,
      "##فرض": 3554,
      "##فتح": 3555,
      "##فهوم": 3556,
      "##فونية": 3557,
      "##يذ": 3558,
      "##يها": 3559,
      "##ييا": 3560,
      "##يكر": 3561,
      "##ييات": 3562,
      "##دى": 3563,
      "##دات": 3564,
      "##درة": 3565,
      "##درك": 3566,
      "##دتي": 3567,
      "##دهر": 3568,
      "##دليل": 3569,
      "##تو": 3570,
      "##تج": 3571,
      "##تون": 3572,
      "##تاب": 3573,
      "##تمل": 3574,
      "##تحدث": 3575,
      "##تبع": 3576,
      "##تنع": 3577,
      "##تفل": 3578,
      "##تفع": 3579,
      "##عما": 3580,
      "##علك": 3581,
      "##عكس": 3582,
      "##عجب": 3583,
      "##عكاس": 3584,
      "##رور": 3585,
      "##رقة": 3586,
      "##ضة": 3587,
      "##ضال": 3588,
      "##ضان": 3589,
      "##ضات": 3590,
      "##ضوية": 3591,
      "##ضوح": 3592,
      "##ضادات": 3593,
      "##لز": 3594,
      "##لين": 3595,
      "##لبة": 3596,
      "##لفا": 3597,
      "##بخ": 3598,
      "##بها": 3599,
      "##بيل": 3600,
      "##بطة": 3601,
      "##نه": 3602,
      "##نف": 3603,
      "##نب": 3604,
      "##نبون": 3605,
      "##نظيم": 3606,
      "##نفيذ": 3607,
      "##وغ": 3608,
      "##وري": 3609,
      "##وهم": 3610,
      "##وقة": 3611,
      "##وعب": 3612,
      "##وصل": 3613,
      "##ويات": 3614,
      "##وتهم": 3615,
      "##وكس": 3616,
      "##قن": 3617,
      "##قها": 3618,
      "##قني": 3619,
      "##قتي": 3620,
      "##حه": 3621,
      "##حث": 3622,
      "##حيا": 3623,
      "##مون": 3624,
      "##مير": 3625,
      "##ميم": 3626,
      "##ممة": 3627,
      "##مراء": 3628,
      "##ذك": 3629,
      "##ذور": 3630,
      "##ذرون": 3631,
      "##شد": 3632,
      "##شاب": 3633,
      "##شبة": 3634,
      "##شوي": 3635,
      "##شهد": 3636,
      "##كز": 3637,
      "##كية": 3638,
      "##كول": 3639,
      "##كاد": 3640,
      "##كامل": 3641,
      "##جو": 3642,
      "##جول": 3643,
      "##جوا": 3644,
      "##جني": 3645,
      "##جتم": 3646,
      "##جحة": 3647,
      "##جبت": 3648,
      "##جراء": 3649,
      "##سع": 3650,
      "##سخ": 3651,
      "##سان": 3652,
      "##ساس": 3653,
      "##سالة": 3654,
      "##سلها": 3655,
      "##غن": 3656,
      "##غلين": 3657,
      "##ظري": 3658,
      "##ظمة": 3659,
      "##ظاهر": 3660,
      "##خات": 3661,
      "##خلا": 3662,
      "##ختر": 3663,
      "##خارج": 3664,
      "##خفض": 3665,
      "##صب": 3666,
      "##صيل": 3667,
      "##صبة": 3668,
      "##صرف": 3669,
      "##ثات": 3670,
      "##ثين": 3671,
      "##ثمر": 3672,
      "##ثارة": 3673,
      "##طر": 3674,
      "##طط": 3675,
      "##طبة": 3676,
      "##طبع": 3677,
      "##طفي": 3678,
      "##طعي": 3679,
      "الير": 3680,
      "الدما": 3681,
      "الجر": 3682,
      "الوجود": 3683,
      "الياف": 3684,
      "الوجه": 3685,
      "##ناة": 3686,
      "##ناخ": 3687,
      "##نادا": 3688,
      "##نامج": 3689,
      "##الج": 3690,
      "##الها": 3691,
      "##الات": 3692,
      "##الهم": 3693,
      "##البة": 3694,
      "##القة": 3695,
      "##العاب": 3696,
      "##اليج": 3697,
      "##الجة": 3698,
      "##انس": 3699,
      "انذا": 3700,
      "انحا": 3701,
      "انخر": 3702,
      "انجز": 3703,
      "اندر": 3704,
      "انقاذ": 3705,
      "انزل": 3706,
      "انشات": 3707,
      "انقذ": 3708,
      "انشاء": 3709,
      "منك": 3710,
      "منشاة": 3711,
      "منعطف": 3712,
      "فيت": 3713,
      "فين": 3714,
      "فيما": 3715,
      "##مام": 3716,
      "##ماط": 3717,
      "##مارين": 3718,
      "المب": 3719,
      "المول": 3720,
      "الموا": 3721,
      "الميل": 3722,
      "المنت": 3723,
      "المتم": 3724,
      "الميات": 3725,
      "المفا": 3726,
      "المبا": 3727,
      "الموس": 3728,
      "المكان": 3729,
      "المختل": 3730,
      "الموسيق": 3731,
      "الممي": 3732,
      "المحاولة": 3733,
      "المطل": 3734,
      "المطعم": 3735,
      "الموقف": 3736,
      "المهارات": 3737,
      "المجاعة": 3738,
      "المرور": 3739,
      "الاعل": 3740,
      "الايد": 3741,
      "الاعا": 3742,
      "الارق": 3743,
      "الابت": 3744,
      "الاجز": 3745,
      "الاراضي": 3746,
      "الاغذية": 3747,
      "الافضل": 3748,
      "الاخترا": 3749,
      "الامام": 3750,
      "##لكية": 3751,
      "##ينها": 3752,
      "##ياح": 3753,
      "##يارة": 3754,
      "##ياسي": 3755,
      "علامة": 3756,
      "##يره": 3757,
      "##يرته": 3758,
      "##ولد": 3759,
      "##ولتي": 3760,
      "##واك": 3761,
      "##واية": 3762,
      "##واجد": 3763,
      "التد": 3764,
      "التق": 3765,
      "التكل": 3766,
      "التعب": 3767,
      "التفا": 3768,
      "التعرف": 3769,
      "التمر": 3770,
      "التكيف": 3771,
      "التطور": 3772,
      "التربة": 3773,
      "التونا": 3774,
      "التقليل": 3775,
      "التقاط": 3776,
      "التعليم": 3777,
      "التفايل": 3778,
      "التغذية": 3779,
      "التلفا": 3780,
      "التطعي": 3781,
      "التمارين": 3782,
      "##ريات": 3783,
      "##ريون": 3784,
      "##ريكان": 3785,
      "##ستون": 3786,
      "##همية": 3787,
      "##راخ": 3788,
      "##رايد": 3789,
      "##راحل": 3790,
      "##رايب": 3791,
      "##امه": 3792,
      "##امس": 3793,
      "##امية": 3794,
      "##املة": 3795,
      "لاغ": 3796,
      "لاري": 3797,
      "لاست": 3798,
      "لاكثر": 3799,
      "لاقول": 3800,
      "لاعلى": 3801,
      "لاوليك": 3802,
      "لاطعام": 3803,
      "##قدرون": 3804,
      "للام": 3805,
      "للعب": 3806,
      "للعيش": 3807,
      "للتقدم": 3808,
      "للذين": 3809,
      "للابتكار": 3810,
      "للوفيات": 3811,
      "للخروج": 3812,
      "للحصول": 3813,
      "للزراعة": 3814,
      "##اربة": 3815,
      "##ارثة": 3816,
      "##ارتهم": 3817,
      "##ديم": 3818,
      "##ديين": 3819,
      "##ديهم": 3820,
      "بالر": 3821,
      "بالعلم": 3822,
      "بالكثير": 3823,
      "بالهر": 3824,
      "بالشكل": 3825,
      "بالليل": 3826,
      "بالعمل": 3827,
      "بالخيال": 3828,
      "بالتقدم": 3829,
      "بالتاثير": 3830,
      "بالحياة": 3831,
      "العوا": 3832,
      "العقل": 3833,
      "العزف": 3834,
      "العيش": 3835,
      "العبارة": 3836,
      "العطلات": 3837,
      "العبور": 3838,
      "العصي": 3839,
      "مايق": 3840,
      "ماهي": 3841,
      "والن": 3842,
      "والناس": 3843,
      "والتر": 3844,
      "والعلم": 3845,
      "والكثير": 3846,
      "والدر": 3847,
      "والبعض": 3848,
      "والفكرة": 3849,
      "##يقا": 3850,
      "##يقود": 3851,
      "##دادي": 3852,
      "معرف": 3853,
      "معينا": 3854,
      "معالجة": 3855,
      "##ابلة": 3856,
      "##ابعت": 3857,
      "##ورقني": 3858,
      "الحد": 3859,
      "الحرية": 3860,
      "الحركة": 3861,
      "الحواد": 3862,
      "الحطام": 3863,
      "الحقايق": 3864,
      "واو": 3865,
      "واناس": 3866,
      "واسم": 3867,
      "واجاب": 3868,
      "واضح": 3869,
      "واماكن": 3870,
      "وادرك": 3871,
      "##كركم": 3872,
      "##لاء": 3873,
      "##لاحظة": 3874,
      "السكر": 3875,
      "السيم": 3876,
      "السفل": 3877,
      "السعر": 3878,
      "السريع": 3879,
      "السينما": 3880,
      "كانيم": 3881,
      "الذهاب": 3882,
      "الانخفاض": 3883,
      "الانفاق": 3884,
      "البرك": 3885,
      "البناء": 3886,
      "الباق": 3887,
      "البقية": 3888,
      "البالغ": 3889,
      "الباعو": 3890,
      "##حدد": 3891,
      "هوس": 3892,
      "##فسر": 3893,
      "##فسنا": 3894,
      "اخرا": 3895,
      "##نتها": 3896,
      "##نتين": 3897,
      "القاي": 3898,
      "القسم": 3899,
      "القنوات": 3900,
      "القيود": 3901,
      "القطب": 3902,
      "القابلة": 3903,
      "نحارب": 3904,
      "اعاقة": 3905,
      "اعماق": 3906,
      "اعوام": 3907,
      "اعذرون": 3908,
      "##يدات": 3909,
      "##يدين": 3910,
      "الفا": 3911,
      "الفعل": 3912,
      "الفهم": 3913,
      "الفرد": 3914,
      "الفرص": 3915,
      "الفخاخ": 3916,
      "الطب": 3917,
      "الطرف": 3918,
      "الطبا": 3919,
      "الطريق": 3920,
      "الطفل": 3921,
      "لمح": 3922,
      "لميات": 3923,
      "لمستقبل": 3924,
      "لمجلة": 3925,
      "لمساعدة": 3926,
      "لمجتم": 3927,
      "##كمة": 3928,
      "اوه": 3929,
      "لاني": 3930,
      "لانك": 3931,
      "##تاز": 3932,
      "##تاث": 3933,
      "##يفا": 3934,
      "##عاية": 3935,
      "##ناسبة": 3936,
      "ولت": 3937,
      "ولعل": 3938,
      "ولدت": 3939,
      "##تركة": 3940,
      "##عبث": 3941,
      "##عبون": 3942,
      "##وقي": 3943,
      "##وقعة": 3944,
      "بعمل": 3945,
      "بعرض": 3946,
      "انهيار": 3947,
      "ايمي": 3948,
      "ايمان": 3949,
      "اسال": 3950,
      "يمكنها": 3951,
      "##ايك": 3952,
      "النهر": 3953,
      "النحو": 3954,
      "النظرة": 3955,
      "##بره": 3956,
      "الشم": 3957,
      "##علمه": 3958,
      "##ادعة": 3959,
      "##وجر": 3960,
      "##وجل": 3961,
      "ولكي": 3962,
      "##ستطع": 3963,
      "هيكل": 3964,
      "##يمه": 3965,
      "##يمير": 3966,
      "##قلم": 3967,
      "نفسك": 3968,
      "##باه": 3969,
      "##منة": 3970,
      "##خلي": 3971,
      "##خلق": 3972,
      "##جاوز": 3973,
      "##جاهات": 3974,
      "##وسع": 3975,
      "اليست": 3976,
      "اليهم": 3977,
      "اليونا": 3978,
      "سيت": 3979,
      "سييا": 3980,
      "##سبوع": 3981,
      "لنري": 3982,
      "لنذهب": 3983,
      "لنفسية": 3984,
      "لننظر": 3985,
      "لنجعل": 3986,
      "لنفرض": 3987,
      "##كانيات": 3988,
      "##ضاف": 3989,
      "##ضاع": 3990,
      "الجس": 3991,
      "الجدد": 3992,
      "وتش": 3993,
      "وتعلم": 3994,
      "وتعرف": 3995,
      "وتقوم": 3996,
      "وتحا": 3997,
      "وتبعا": 3998,
      "وتابعت": 3999,
      "##وعي": 4000,
      "##وعون": 4001,
      "##حكام": 4002,
      "باني": 4003,
      "الدولي": 4004,
      "الدهشة": 4005,
      "ليسوا": 4006,
      "##اسيس": 4007,
      "اقام": 4008,
      "اقنع": 4009,
      "اقرب": 4010,
      "##شاكل": 4011,
      "##شافة": 4012,
      "##شاهد": 4013,
      "الخط": 4014,
      "الخيار": 4015,
      "الخاص": 4016,
      "الخارج": 4017,
      "الخريج": 4018,
      "ارز": 4019,
      "ارت": 4020,
      "ارض": 4021,
      "ارغب": 4022,
      "اردنا": 4023,
      "ارباح": 4024,
      "اربعة": 4025,
      "ارمست": 4026,
      "##ثلة": 4027,
      "ستان": 4028,
      "ستصل": 4029,
      "ستعرف": 4030,
      "ستقوم": 4031,
      "ستعيش": 4032,
      "##بيز": 4033,
      "##بيية": 4034,
      "##ختبر": 4035,
      "الصيد": 4036,
      "الصورة": 4037,
      "الصغيرة": 4038,
      "الصباح": 4039,
      "الصناعية": 4040,
      "الواحد": 4041,
      "ينفذ": 4042,
      "باص": 4043,
      "باط": 4044,
      "باون": 4045,
      "باخذ": 4046,
      "باعت": 4047,
      "باعمال": 4048,
      "باطعام": 4049,
      "باكمل": 4050,
      "باقصى": 4051,
      "باحث": 4052,
      "باحكام": 4053,
      "##عينات": 4054,
      "ويح": 4055,
      "##رضية": 4056,
      "##ظرت": 4057,
      "حيوي": 4058,
      "##رقه": 4059,
      "الله": 4060,
      "الكت": 4061,
      "الكاسا": 4062,
      "الكفاء": 4063,
      "الكارثة": 4064,
      "الاله": 4065,
      "الواقعية": 4066,
      "فانتم": 4067,
      "متعد": 4068,
      "متحم": 4069,
      "متوسط": 4070,
      "متلف": 4071,
      "متعلق": 4072,
      "متفايل": 4073,
      "متدرب": 4074,
      "اخرين": 4075,
      "ساحر": 4076,
      "وانهم": 4077,
      "##سمكة": 4078,
      "تاكله": 4079,
      "##تحول": 4080,
      "##تحمس": 4081,
      "##تحسن": 4082,
      "الاسوا": 4083,
      "ونري": 4084,
      "ونقدم": 4085,
      "ونظرت": 4086,
      "##سيير": 4087,
      "الماء": 4088,
      "الماشية": 4089,
      "ملهم": 4090,
      "ملخص": 4091,
      "مليية": 4092,
      "وقمت": 4093,
      "الرج": 4094,
      "الروية": 4095,
      "الرياض": 4096,
      "الرغبة": 4097,
      "احصل": 4098,
      "احياء": 4099,
      "احسن": 4100,
      "احيانا": 4101,
      "امي": 4102,
      "امس": 4103,
      "املك": 4104,
      "امرا": 4105,
      "امضي": 4106,
      "امراض": 4107,
      "بينما": 4108,
      "بينهما": 4109,
      "شخصيات": 4110,
      "الغير": 4111,
      "الغريب": 4112,
      "الغريبة": 4113,
      "بدور": 4114,
      "بدراسة": 4115,
      "بدوام": 4116,
      "استع": 4117,
      "استدام": 4118,
      "استهلك": 4119,
      "استوعب": 4120,
      "استخلا": 4121,
      "استنادا": 4122,
      "كمان": 4123,
      "كمثال": 4124,
      "حيثما": 4125,
      "يعطي": 4126,
      "يعزف": 4127,
      "فعلي": 4128,
      "مستحيل": 4129,
      "تعال": 4130,
      "تعتبر": 4131,
      "تقبل": 4132,
      "حقيقيا": 4133,
      "عاطف": 4134,
      "عايلة": 4135,
      "عاجز": 4136,
      "عازف": 4137,
      "عاطفي": 4138,
      "يتوقع": 4139,
      "يتعلق": 4140,
      "يتضمن": 4141,
      "يتراجع": 4142,
      "اطلب": 4143,
      "اطلق": 4144,
      "اطرح": 4145,
      "اطلقت": 4146,
      "اطعمة": 4147,
      "ومت": 4148,
      "ومهم": 4149,
      "ومعي": 4150,
      "ومزرعة": 4151,
      "##ربية": 4152,
      "##ربعة": 4153,
      "##وبون": 4154,
      "اشخاص": 4155,
      "##ضيها": 4156,
      "##قبلة": 4157,
      "##جميع": 4158,
      "##جموعة": 4159,
      "لوبيز": 4160,
      "الوط": 4161,
      "المتجد": 4162,
      "المتضادات": 4163,
      "اتفهم": 4164,
      "اتجاه": 4165,
      "لتق": 4166,
      "لتعليم": 4167,
      "مختلفا": 4168,
      "يقم": 4169,
      "يقود": 4170,
      "يقضي": 4171,
      "##مكنا": 4172,
      "بتجارب": 4173,
      "يحصل": 4174,
      "يحوى": 4175,
      "يحقق": 4176,
      "##متع": 4177,
      "##متوسط": 4178,
      "بطرق": 4179,
      "تعلمت": 4180,
      "وبين": 4181,
      "وبالم": 4182,
      "وبهذا": 4183,
      "وبطريقة": 4184,
      "ومنذ": 4185,
      "##راتي": 4186,
      "الامريك": 4187,
      "الامصال": 4188,
      "الامريكيين": 4189,
      "الامكانيات": 4190,
      "الامثلة": 4191,
      "اصنع": 4192,
      "جميل": 4193,
      "جميلة": 4194,
      "للمفرد": 4195,
      "اكت": 4196,
      "حياتي": 4197,
      "##بقون": 4198,
      "الزمني": 4199,
      "الثمان": 4200,
      "قليلة": 4201,
      "##فكرين": 4202,
      "##خرية": 4203,
      "اجزاء": 4204,
      "اجدادي": 4205,
      "حدوث": 4206,
      "##تنافس": 4207,
      "نحتاجها": 4208,
      "بيت": 4209,
      "بيية": 4210,
      "بيتهوفين": 4211,
      "بنط": 4212,
      "فاذا": 4213,
      "مديرا": 4214,
      "مدرسة": 4215,
      "ورقة": 4216,
      "ورشة": 4217,
      "وحدة": 4218,
      "##ددت": 4219,
      "مفز": 4220,
      "مفتاح": 4221,
      "نتعلمه": 4222,
      "ولادتي": 4223,
      "تمويل": 4224,
      "##يهن": 4225,
      "##رونو": 4226,
      "##رونغ": 4227,
      "##جزء": 4228,
      "##جزات": 4229,
      "العلوم": 4230,
      "العلاقة": 4231,
      "انتج": 4232,
      "انتباه": 4233,
      "##اربات": 4234,
      "ادوات": 4235,
      "كتب": 4236,
      "ناكله": 4237,
      "ناحية": 4238,
      "ناجحة": 4239,
      "##فعنا": 4240,
      "##خذهم": 4241,
      "والمحاولة": 4242,
      "والمناخ": 4243,
      "عالمية": 4244,
      "نريده": 4245,
      "يكونوا": 4246,
      "الهواء": 4247,
      "الرايع": 4248,
      "الرابع": 4249,
      "الراحة": 4250,
      "الرابط": 4251,
      "الرايدة": 4252,
      "الرابطة": 4253,
      "تاثيرا": 4254,
      "بحوث": 4255,
      "بحوالي": 4256,
      "تتبع": 4257,
      "تتوقع": 4258,
      "جزيية": 4259,
      "عامين": 4260,
      "لناثانيل": 4261,
      "مجنونة": 4262,
      "مجالات": 4263,
      "مصطل": 4264,
      "مصادر": 4265,
      "مصممة": 4266,
      "##مونات": 4267,
      "البحار": 4268,
      "اثنان": 4269,
      "تنظيم": 4270,
      "تنجح": 4271,
      "تنقذ": 4272,
      "تصيب": 4273,
      "تصميم": 4274,
      "حلول": 4275,
      "فالف": 4276,
      "فالفكرة": 4277,
      "##طيط": 4278,
      "المنزل": 4279,
      "المنصر": 4280,
      "المنشاة": 4281,
      "##ولوجي": 4282,
      "للتو": 4283,
      "للتفكير": 4284,
      "للتصميم": 4285,
      "القصد": 4286,
      "اسميه": 4287,
      "استطع": 4288,
      "بمستقبل": 4289,
      "بمثال": 4290,
      "تفعله": 4291,
      "جعلتني": 4292,
      "وسط": 4293,
      "وسواء": 4294,
      "وسيقود": 4295,
      "بالمق": 4296,
      "بالمياه": 4297,
      "بالمستقبل": 4298,
      "العادة": 4299,
      "العايلية": 4300,
      "قادر": 4301,
      "لكلمة": 4302,
      "نووية": 4303,
      "المحيطات": 4304,
      "##ارعين": 4305,
      "##تاكدوا": 4306,
      "تطابق": 4307,
      "دايري": 4308,
      "فكروا": 4309,
      "مسار": 4310,
      "مسيرة": 4311,
      "مسابقة": 4312,
      "مسيرته": 4313,
      "مناق": 4314,
      "##عتكم": 4315,
      "المزراع": 4316,
      "المحتمل": 4317,
      "الاستع": 4318,
      "الاستثمار": 4319,
      "الجمال": 4320,
      "الجمهور": 4321,
      "الجمبري": 4322,
      "اذكر": 4323,
      "برهان": 4324,
      "تشخيص": 4325,
      "نظرية": 4326,
      "##رحلة": 4327,
      "##باتات": 4328,
      "##قولها": 4329,
      "الكمية": 4330,
      "التحض": 4331,
      "التحكم": 4332,
      "تغيرت": 4333,
      "سنقوم": 4334,
      "موه": 4335,
      "وضمن": 4336,
      "يشير": 4337,
      "يشبه": 4338,
      "يشتركون": 4339,
      "الصفات": 4340,
      "المجال": 4341,
      "الاطعمة": 4342,
      "التاكد": 4343,
      "الانسانية": 4344,
      "اختار": 4345,
      "الشخصي": 4346,
      "الشخصية": 4347,
      "الشخصيات": 4348,
      "تركت": 4349,
      "فضلكم": 4350,
      "فريقك": 4351,
      "قصير": 4352,
      "قصوى": 4353,
      "لحم": 4354,
      "محكم": 4355,
      "مشهد": 4356,
      "مشلول": 4357,
      "مشتركة": 4358,
      "مباشر": 4359,
      "هاو": 4360,
      "هايلة": 4361,
      "##قرر": 4362,
      "##جبين": 4363,
      "انفسهم": 4364,
      "الاحت": 4365,
      "يجعلنا": 4366,
      "نظامنا": 4367,
      "داخلها": 4368,
      "اغلب": 4369,
      "اغوص": 4370,
      "تخرج": 4371,
      "جلسات": 4372,
      "حالا": 4373,
      "حالاتهم": 4374,
      "ذاكرتنا": 4375,
      "سالتموني": 4376,
      "شبكات": 4377,
      "لستم": 4378,
      "مولدة": 4379,
      "للعالم": 4380,
      "للعطلات": 4381,
      "بالاطفال": 4382,
      "بالاختيار": 4383,
      "بالطاقة": 4384,
      "تحتاجون": 4385,
      "الدولية": 4386,
      "الدولارات": 4387,
      "الكبسولة": 4388,
      "الوهمية": 4389,
      "بشدة": 4390,
      "بشيء": 4391,
      "بشغف": 4392,
      "بامضاء": 4393,
      "توصل": 4394,
      "توضح": 4395,
      "توصلت": 4396,
      "توضيح": 4397,
      "حصلنا": 4398,
      "طريقنا": 4399,
      "عمري": 4400,
      "عملا": 4401,
      "عميقة": 4402,
      "قاموسا": 4403,
      "مضى": 4404,
      "مخيلة": 4405,
      "مخاطر": 4406,
      "نعاني": 4407,
      "نعترض": 4408,
      "يسال": 4409,
      "يسهمون": 4410,
      "##ذكرون": 4411,
      "القديم": 4412,
      "القديمة": 4413,
      "الاخبار": 4414,
      "للاست": 4415,
      "للاطفال": 4416,
      "الحالات": 4417,
      "الرجلين": 4418,
      "كتابة": 4419,
      "تسمى": 4420,
      "لعبو": 4421,
      "مذهول": 4422,
      "مذهلة": 4423,
      "مشاعر": 4424,
      "وينستون": 4425,
      "يدخل": 4426,
      "يستطيعون": 4427,
      "##فضول": 4428,
      "المقاي": 4429,
      "المصنوعة": 4430,
      "للنظام": 4431,
      "بالغثي": 4432,
      "واعظم": 4433,
      "السببية": 4434,
      "البرمجيات": 4435,
      "البرنامج": 4436,
      "وقالوا": 4437,
      "استخدمناها": 4438,
      "وبالنسبة": 4439,
      "وبالرغم": 4440,
      "بنفسها": 4441,
      "تفكروا": 4442,
      "تفكيري": 4443,
      "تفكيرنا": 4444,
      "زايف": 4445,
      "سوبر": 4446,
      "سمعت": 4447,
      "فعال": 4448,
      "فلن": 4449,
      "فلدينا": 4450,
      "قوله": 4451,
      "لشي": 4452,
      "لشخص": 4453,
      "لسعادة": 4454,
      "لسنوات": 4455,
      "لسوء": 4456,
      "وهمي": 4457,
      "ويقول": 4458,
      "يبنى": 4459,
      "يخبرنا": 4460,
      "##اطىء": 4461,
      "##فزات": 4462,
      "##يشوا": 4463,
      "##تقال": 4464,
      "##غطية": 4465,
      "##خراج": 4466,
      "منهج": 4467,
      "منطقية": 4468,
      "الاثارة": 4469,
      "##عادلة": 4470,
      "##عادتهم": 4471,
      "تحصلون": 4472,
      "افهمه": 4473,
      "باستخدام": 4474,
      "باستعمال": 4475,
      "باستثناء": 4476,
      "##سيطرة": 4477,
      "يتحدثون": 4478,
      "وجودنا": 4479,
      "اضواء": 4480,
      "بفتح": 4481,
      "بوضوح": 4482,
      "تفوق": 4483,
      "جدية": 4484,
      "جدول": 4485,
      "حديث": 4486,
      "حسبت": 4487,
      "حرقنا": 4488,
      "طبيعية": 4489,
      "فسوف": 4490,
      "كرهته": 4491,
      "كندا": 4492,
      "كنوع": 4493,
      "محددة": 4494,
      "مفاهيم": 4495,
      "ندعم": 4496,
      "نخسر": 4497,
      "وارى": 4498,
      "يستهلكها": 4499,
      "يبداون": 4500,
      "النادرة": 4501,
      "الاهتمام": 4502,
      "الاسباب": 4503,
      "الابتكارات": 4504,
      "للسعادة": 4505,
      "بالقيام": 4506,
      "والقوة": 4507,
      "معاناة": 4508,
      "اخبركم": 4509,
      "نحبهم": 4510,
      "الشبكة": 4511,
      "تحقيقها": 4512,
      "الصحفي": 4513,
      "الصحفية": 4514,
      "اصابعي": 4515,
      "المنطق": 4516,
      "ابيض": 4517,
      "ببناء": 4518,
      "بثاني": 4519,
      "بثبات": 4520,
      "براقة": 4521,
      "تحدثنا": 4522,
      "حبوب": 4523,
      "صديقي": 4524,
      "طفولتي": 4525,
      "غالبا": 4526,
      "قاعة": 4527,
      "قرابة": 4528,
      "لاتضع": 4529,
      "موادنا": 4530,
      "وثيقة": 4531,
      "وعليه": 4532,
      "يريدون": 4533,
      "يعيشون": 4534,
      "يملكه": 4535,
      "الدايرة": 4536,
      "انجازها": 4537,
      "الازدهار": 4538,
      "التسجيل": 4539,
      "التسعينات": 4540,
      "للاسف": 4541,
      "للاسماك": 4542,
      "بالكامل": 4543,
      "والعالم": 4544,
      "الحضور": 4545,
      "وايضا": 4546,
      "واقعا": 4547,
      "اعادته": 4548,
      "##رفاهية": 4549,
      "##برنامج": 4550,
      "اقتصاد": 4551,
      "اجتماعية": 4552,
      "ياكلون": 4553,
      "بامكاني": 4554,
      "بامكاننا": 4555,
      "اترككم": 4556,
      "بييي": 4557,
      "تستن": 4558,
      "تكرار": 4559,
      "حرارة": 4560,
      "حاولت": 4561,
      "خبير": 4562,
      "روسية": 4563,
      "روسيا": 4564,
      "رويته": 4565,
      "رويتها": 4566,
      "سعيد": 4567,
      "سعداء": 4568,
      "سارت": 4569,
      "سيعتقدون": 4570,
      "طوله": 4571,
      "فتحت": 4572,
      "فتحوا": 4573,
      "كارث": 4574,
      "مقدرتنا": 4575,
      "نسيج": 4576,
      "وزير": 4577,
      "وستكون": 4578,
      "يكشف": 4579,
      "##مرارية": 4580,
      "##صالح": 4581,
      "الرييسية": 4582,
      "الستينيات": 4583,
      "انتهى": 4584,
      "الموتمر": 4585,
      "المحددة": 4586,
      "المحدودة": 4587,
      "المفاعلات": 4588,
      "الاجتماعي": 4589,
      "الاجتماعية": 4590,
      "التخطيط": 4591,
      "التصوير": 4592,
      "التقييم": 4593,
      "للجنون": 4594,
      "بالضبط": 4595,
      "بالضغط": 4596,
      "العميقة": 4597,
      "البداية": 4598,
      "اعتدنا": 4599,
      "اعمال": 4600,
      "اساسية": 4601,
      "الجدري": 4602,
      "احداهما": 4603,
      "تقولوا": 4604,
      "اتخيلها": 4605,
      "يحتاجه": 4606,
      "اصدقايي": 4607,
      "ياخذون": 4608,
      "اذهان": 4609,
      "بضعة": 4610,
      "بارعون": 4611,
      "تغادر": 4612,
      "توقفت": 4613,
      "تايم": 4614,
      "توفير": 4615,
      "تجمع": 4616,
      "جرعات": 4617,
      "جامعات": 4618,
      "حضارتهم": 4619,
      "حققنا": 4620,
      "دوايي": 4621,
      "سهل": 4622,
      "شهرة": 4623,
      "شرحه": 4624,
      "صريحا": 4625,
      "ضعف": 4626,
      "طعمه": 4627,
      "غواصة": 4628,
      "قابلت": 4629,
      "قضيت": 4630,
      "لغتنا": 4631,
      "مراكز": 4632,
      "مشروع": 4633,
      "ننفق": 4634,
      "نتايج": 4635,
      "هاتين": 4636,
      "وصفه": 4637,
      "يفهمون": 4638,
      "##ايقية": 4639,
      "الناتجة": 4640,
      "المطاطات": 4641,
      "التعاسة": 4642,
      "عنديذ": 4643,
      "للبشرية": 4644,
      "ماكينة": 4645,
      "والغنية": 4646,
      "والافضل": 4647,
      "واضحا": 4648,
      "واخيرا": 4649,
      "السلطة": 4650,
      "السخيفة": 4651,
      "السريعة": 4652,
      "البنك": 4653,
      "البطاريات": 4654,
      "الفيديو": 4655,
      "اسلوب": 4656,
      "النفسييتين": 4657,
      "قدراتهم": 4658,
      "لنفسك": 4659,
      "لنلقى": 4660,
      "اقراص": 4661,
      "ستختارون": 4662,
      "ستحصلون": 4663,
      "باستطاعتكم": 4664,
      "مستقرة": 4665,
      "اطفال": 4666,
      "المتشككين": 4667,
      "بتطبيقها": 4668,
      "تجريبي": 4669,
      "تنفيذيا": 4670,
      "استطاعوا": 4671,
      "المحادثة": 4672,
      "الاعتراف": 4673,
      "التكنلوجيا": 4674,
      "تجربتي": 4675,
      "الايجابي": 4676,
      "ايقاف": 4677,
      "بتمويل": 4678,
      "بوفلو": 4679,
      "بشرحها": 4680,
      "بريكيمير": 4681,
      "تظنون": 4682,
      "تباين": 4683,
      "تقاسم": 4684,
      "تبعات": 4685,
      "تشرق": 4686,
      "تلاميذ": 4687,
      "جوبتا": 4688,
      "جهودا": 4689,
      "حياكة": 4690,
      "حلمي": 4691,
      "خربت": 4692,
      "خيارا": 4693,
      "دمرت": 4694,
      "رابطا": 4695,
      "رومانسية": 4696,
      "رسومية": 4697,
      "سطح": 4698,
      "سريعا": 4699,
      "سيلعبون": 4700,
      "صنعي": 4701,
      "طهيها": 4702,
      "عريضة": 4703,
      "غذاينا": 4704,
      "فتلك": 4705,
      "فبال": 4706,
      "فتاة": 4707,
      "فعندها": 4708,
      "قانون": 4709,
      "قررنا": 4710,
      "كشيء": 4711,
      "كوستو": 4712,
      "ليعيشوا": 4713,
      "لترى": 4714,
      "لقرن": 4715,
      "ممتاز": 4716,
      "مذنبون": 4717,
      "موديا": 4718,
      "محاض": 4719,
      "مكسور": 4720,
      "نسمة": 4721,
      "نلتزم": 4722,
      "هواه": 4723,
      "وطرق": 4724,
      "وعوالم": 4725,
      "وظلالا": 4726,
      "وخصوصا": 4727,
      "ياتون": 4728,
      "يذهبون": 4729,
      "يسبق": 4730,
      "يبدوا": 4731,
      "يموت": 4732,
      "يغمى": 4733,
      "يناقشوا": 4734,
      "##شويش": 4735,
      "اليرعات": 4736,
      "الدمار": 4737,
      "##اليجيف": 4738,
      "انحاء": 4739,
      "انخرط": 4740,
      "اندرسون": 4741,
      "انقذوا": 4742,
      "المولدة": 4743,
      "المتميزة": 4744,
      "المختلفة": 4745,
      "المميزة": 4746,
      "الايدز": 4747,
      "الاعاقة": 4748,
      "الارقام": 4749,
      "الاجزاء": 4750,
      "الاختراقات": 4751,
      "التكلن": 4752,
      "التعبير": 4753,
      "التمرين": 4754,
      "التلفاز": 4755,
      "التطعيمات": 4756,
      "مايقارب": 4757,
      "والدرس": 4758,
      "الحوادث": 4759,
      "السيمفونية": 4760,
      "السفلى": 4761,
      "السينمايي": 4762,
      "كانيمان": 4763,
      "الباقية": 4764,
      "البالغين": 4765,
      "الباعوض": 4766,
      "القايمة": 4767,
      "نحاربه": 4768,
      "اعذروني": 4769,
      "الطباعة": 4770,
      "لمجتمعنا": 4771,
      "اليوناني": 4772,
      "اقنعتهم": 4773,
      "ارمسترونغ": 4774,
      "باكملها": 4775,
      "الكاسافا": 4776,
      "الكفاءة": 4777,
      "متحمسا": 4778,
      "متفايلين": 4779,
      "استدامه": 4780,
      "استهلكت": 4781,
      "استوعبت": 4782,
      "استخلاص": 4783,
      "اطلبوا": 4784,
      "المتجددة": 4785,
      "الامريكية": 4786,
      "للمفردات": 4787,
      "مصطلح": 4788,
      "المنصرمة": 4789,
      "بالغثيان": 4790,
      "كرهتهن": 4791,
      "!!": 4792,
      ",..": 4793,
      "اظ": 4794,
      "اها": 4795,
      "اوا": 4796,
      "اعل": 4797,
      "ادا": 4798,
      "اور": 4799,
      "امكن": 4800,
      "اتر": 4801,
      "ابل": 4802,
      "اقط": 4803,
      "اكي": 4804,
      "اضع": 4805,
      "اولي": 4806,
      "اواجه": 4807,
      "اظهر": 4808,
      "اجاز": 4809,
      "اوافق": 4810,
      "ابلغ": 4811,
      "ابقى": 4812,
      "اداء": 4813,
      "اكره": 4814,
      "افسر": 4815,
      "ابره": 4816,
      "بذا": 4817,
      "بات": 4818,
      "بير": 4819,
      "بعل": 4820,
      "بار": 4821,
      "بدي": 4822,
      "بلا": 4823,
      "بحد": 4824,
      "بكون": 4825,
      "بناس": 4826,
      "باد": 4827,
      "بكثر": 4828,
      "بمن": 4829,
      "بحك": 4830,
      "بنات": 4831,
      "بحا": 4832,
      "بضع": 4833,
      "برت": 4834,
      "براء": 4835,
      "بفاعل": 4836,
      "بكيف": 4837,
      "بقب": 4838,
      "بيانات": 4839,
      "بترك": 4840,
      "بقية": 4841,
      "بترول": 4842,
      "بقاء": 4843,
      "ببحث": 4844,
      "بجعل": 4845,
      "بقليل": 4846,
      "ببعث": 4847,
      "بابا": 4848,
      "بصلة": 4849,
      "بتهوف": 4850,
      "بارجا": 4851,
      "بلاد": 4852,
      "ببقية": 4853,
      "بمتوسط": 4854,
      "برونو": 4855,
      "تث": 4856,
      "تان": 4857,
      "تعل": 4858,
      "ترا": 4859,
      "تام": 4860,
      "تار": 4861,
      "توم": 4862,
      "تمكن": 4863,
      "تنت": 4864,
      "تعا": 4865,
      "تبر": 4866,
      "تتم": 4867,
      "توس": 4868,
      "تقع": 4869,
      "تمر": 4870,
      "تنو": 4871,
      "توي": 4872,
      "تدم": 4873,
      "ترج": 4874,
      "تبق": 4875,
      "توث": 4876,
      "تعلو": 4877,
      "تذهب": 4878,
      "تفهم": 4879,
      "ترح": 4880,
      "تبعد": 4881,
      "تاتي": 4882,
      "تنتج": 4883,
      "تراه": 4884,
      "تومن": 4885,
      "تعبر": 4886,
      "توجب": 4887,
      "تلو": 4888,
      "تتقدم": 4889,
      "تهتم": 4890,
      "تعلق": 4891,
      "تطوير": 4892,
      "تغذية": 4893,
      "تثق": 4894,
      "تامة": 4895,
      "ترتفع": 4896,
      "تبقي": 4897,
      "تبقى": 4898,
      "تامين": 4899,
      "تنتقل": 4900,
      "تعبية": 4901,
      "تبرز": 4902,
      "تودوا": 4903,
      "ترجعوا": 4904,
      "تورقني": 4905,
      "تفسر": 4906,
      "توجل": 4907,
      "تستطع": 4908,
      "تخلي": 4909,
      "توعون": 4910,
      "تاسيس": 4911,
      "تمكنا": 4912,
      "تتنافس": 4913,
      "تتاكدوا": 4914,
      "تغطية": 4915,
      "ثقة": 4916,
      "ثمن": 4917,
      "ثقا": 4918,
      "ثورة": 4919,
      "ثاق": 4920,
      "ثورا": 4921,
      "ثرو": 4922,
      "جي": 4923,
      "جن": 4924,
      "جذ": 4925,
      "جس": 4926,
      "جنا": 4927,
      "جما": 4928,
      "جها": 4929,
      "جون": 4930,
      "جري": 4931,
      "جيل": 4932,
      "جسم": 4933,
      "جيس": 4934,
      "جولة": 4935,
      "جنة": 4936,
      "جرعة": 4937,
      "جنون": 4938,
      "جوني": 4939,
      "جواد": 4940,
      "جسر": 4941,
      "جراحة": 4942,
      "جذر": 4943,
      "جانب": 4944,
      "جريج": 4945,
      "جارية": 4946,
      "جلاد": 4947,
      "جهود": 4948,
      "جفف": 4949,
      "جوجل": 4950,
      "حم": 4951,
      "حك": 4952,
      "حية": 4953,
      "حبة": 4954,
      "حاد": 4955,
      "حوج": 4956,
      "حاس": 4957,
      "حفي": 4958,
      "حرج": 4959,
      "حرب": 4960,
      "حامل": 4961,
      "حرية": 4962,
      "حاف": 4963,
      "حضر": 4964,
      "حشرة": 4965,
      "حزين": 4966,
      "حسية": 4967,
      "حصول": 4968,
      "حلقت": 4969,
      "حماية": 4970,
      "حوار": 4971,
      "حوجه": 4972,
      "حصبة": 4973,
      "حكمة": 4974,
      "خد": 4975,
      "خص": 4976,
      "خام": 4977,
      "خلا": 4978,
      "خبر": 4979,
      "خوس": 4980,
      "خيار": 4981,
      "خرب": 4982,
      "خطو": 4983,
      "خفية": 4984,
      "خدمات": 4985,
      "خارقة": 4986,
      "خيط": 4987,
      "خشبة": 4988,
      "دل": 4989,
      "دن": 4990,
      "دو": 4991,
      "دما": 4992,
      "دام": 4993,
      "دوم": 4994,
      "دقة": 4995,
      "ديف": 4996,
      "دليل": 4997,
      "ديج": 4998,
      "ديلا": 4999,
      "دوالي": 5000,
      "دعوا": 5001,
      "دمج": 5002,
      "دورا": 5003,
      "دوام": 5004,
      "دراسات": 5005,
      "دخو": 5006,
      "دامي": 5007,
      "ذي": 5008,
      "ذو": 5009,
      "ذكي": 5010,
      "ذاه": 5011,
      "ذكري": 5012,
      "ذرو": 5013,
      "رد": 5014,
      "رغ": 5015,
      "ردة": 5016,
      "ردي": 5017,
      "روم": 5018,
      "ريي": 5019,
      "ركب": 5020,
      "رغم": 5021,
      "رقايق": 5022,
      "رحلات": 5023,
      "رهاب": 5024,
      "رسال": 5025,
      "رغما": 5026,
      "رغبة": 5027,
      "ردود": 5028,
      "رطبة": 5029,
      "زمني": 5030,
      "زراع": 5031,
      "زهري": 5032,
      "زيارة": 5033,
      "سل": 5034,
      "سان": 5035,
      "سين": 5036,
      "سام": 5037,
      "ساب": 5038,
      "سنت": 5039,
      "سالم": 5040,
      "ستا": 5041,
      "سيف": 5042,
      "ستر": 5043,
      "ستم": 5044,
      "سبا": 5045,
      "سكان": 5046,
      "سرق": 5047,
      "سيار": 5048,
      "سعر": 5049,
      "سرعة": 5050,
      "سارة": 5051,
      "سحر": 5052,
      "سرير": 5053,
      "سياف": 5054,
      "سياق": 5055,
      "سينما": 5056,
      "سياتي": 5057,
      "سيارة": 5058,
      "سخرية": 5059,
      "شح": 5060,
      "شم": 5061,
      "شان": 5062,
      "شها": 5063,
      "شير": 5064,
      "شري": 5065,
      "شرق": 5066,
      "شهر": 5067,
      "شاق": 5068,
      "شغب": 5069,
      "شديدة": 5070,
      "شعور": 5071,
      "شكله": 5072,
      "شارك": 5073,
      "شدني": 5074,
      "شاطىء": 5075,
      "صو": 5076,
      "صم": 5077,
      "صيا": 5078,
      "صار": 5079,
      "صعب": 5080,
      "صفة": 5081,
      "صحة": 5082,
      "صمت": 5083,
      "صلب": 5084,
      "صدر": 5085,
      "صوت": 5086,
      "صدق": 5087,
      "صباح": 5088,
      "صوتي": 5089,
      "صناعية": 5090,
      "صراع": 5091,
      "صراحة": 5092,
      "صادرة": 5093,
      "صراخ": 5094,
      "ضا": 5095,
      "ضد": 5096,
      "ضل": 5097,
      "ضخ": 5098,
      "ضال": 5099,
      "ضعة": 5100,
      "ضوي": 5101,
      "ضالة": 5102,
      "ضوء": 5103,
      "ضربة": 5104,
      "ضرر": 5105,
      "ضايق": 5106,
      "ضمير": 5107,
      "ضرايب": 5108,
      "طغ": 5109,
      "طنا": 5110,
      "طال": 5111,
      "طها": 5112,
      "طوا": 5113,
      "طرف": 5114,
      "طبا": 5115,
      "طغي": 5116,
      "طاق": 5117,
      "طبية": 5118,
      "طاقات": 5119,
      "طبعا": 5120,
      "طبخ": 5121,
      "ظنت": 5122,
      "ظرو": 5123,
      "عت": 5124,
      "عر": 5125,
      "عب": 5126,
      "عو": 5127,
      "عق": 5128,
      "عش": 5129,
      "عك": 5130,
      "عط": 5131,
      "عنا": 5132,
      "عقد": 5133,
      "عار": 5134,
      "عرف": 5135,
      "عشا": 5136,
      "عضل": 5137,
      "عيس": 5138,
      "عضي": 5139,
      "عكس": 5140,
      "عدت": 5141,
      "عقول": 5142,
      "عشرة": 5143,
      "عظام": 5144,
      "عيش": 5145,
      "عتق": 5146,
      "عيب": 5147,
      "عدنا": 5148,
      "عجي": 5149,
      "عصر": 5150,
      "عشاء": 5151,
      "عذر": 5152,
      "عشوا": 5153,
      "عصي": 5154,
      "عابرة": 5155,
      "عادية": 5156,
      "عزفت": 5157,
      "عضوية": 5158,
      "عديم": 5159,
      "غد": 5160,
      "غل": 5161,
      "غور": 5162,
      "غني": 5163,
      "غرب": 5164,
      "غاية": 5165,
      "غدت": 5166,
      "غنى": 5167,
      "غوص": 5168,
      "غالية": 5169,
      "غايات": 5170,
      "غروس": 5171,
      "غمست": 5172,
      "غياب": 5173,
      "غرقه": 5174,
      "فز": 5175,
      "فح": 5176,
      "فم": 5177,
      "فغ": 5178,
      "فث": 5179,
      "فط": 5180,
      "فية": 5181,
      "فات": 5182,
      "فاب": 5183,
      "فور": 5184,
      "فكل": 5185,
      "فلا": 5186,
      "فصل": 5187,
      "فمن": 5188,
      "فذلك": 5189,
      "فعرف": 5190,
      "فاني": 5191,
      "فرض": 5192,
      "فبد": 5193,
      "فمس": 5194,
      "فذكر": 5195,
      "فورا": 5196,
      "فعبر": 5197,
      "فحرك": 5198,
      "فظن": 5199,
      "فنان": 5200,
      "فدان": 5201,
      "فمز": 5202,
      "فرايس": 5203,
      "فقاطع": 5204,
      "فخاخ": 5205,
      "فوكس": 5206,
      "فراخ": 5207,
      "فجميع": 5208,
      "فمتوسط": 5209,
      "فقرر": 5210,
      "فبرنامج": 5211,
      "قي": 5212,
      "قم": 5213,
      "قوا": 5214,
      "قاس": 5215,
      "قسم": 5216,
      "قرات": 5217,
      "قبح": 5218,
      "قلب": 5219,
      "قنوات": 5220,
      "قارب": 5221,
      "قرية": 5222,
      "قلق": 5223,
      "قبط": 5224,
      "قضى": 5225,
      "قضية": 5226,
      "قريب": 5227,
      "قرن": 5228,
      "قريبة": 5229,
      "قياسي": 5230,
      "قفزات": 5231,
      "كي": 5232,
      "كس": 5233,
      "كص": 5234,
      "كث": 5235,
      "كط": 5236,
      "كذا": 5237,
      "كدا": 5238,
      "كلا": 5239,
      "كناس": 5240,
      "كسب": 5241,
      "كجل": 5242,
      "كاس": 5243,
      "كبد": 5244,
      "كرب": 5245,
      "كوب": 5246,
      "كطف": 5247,
      "كشف": 5248,
      "كونه": 5249,
      "كسر": 5250,
      "كومة": 5251,
      "كوقود": 5252,
      "كعملية": 5253,
      "كظل": 5254,
      "كونها": 5255,
      "كلاعب": 5256,
      "كهذه": 5257,
      "كدليل": 5258,
      "كجزء": 5259,
      "لز": 5260,
      "لر": 5261,
      "لص": 5262,
      "لال": 5263,
      "لون": 5264,
      "لين": 5265,
      "لير": 5266,
      "لام": 5267,
      "لنت": 5268,
      "لرف": 5269,
      "لتا": 5270,
      "لعلم": 5271,
      "لكان": 5272,
      "لوال": 5273,
      "لبي": 5274,
      "لتقد": 5275,
      "لكثير": 5276,
      "لسم": 5277,
      "لسبب": 5278,
      "لجم": 5279,
      "لسا": 5280,
      "لوقت": 5281,
      "لعام": 5282,
      "ليلة": 5283,
      "لرد": 5284,
      "لفهم": 5285,
      "لبط": 5286,
      "لبعض": 5287,
      "لترك": 5288,
      "لقرا": 5289,
      "لعامل": 5290,
      "للكم": 5291,
      "لولا": 5292,
      "لصنع": 5293,
      "لفلم": 5294,
      "لطيور": 5295,
      "لرايد": 5296,
      "لرحلة": 5297,
      "لصالح": 5298,
      "مي": 5299,
      "مان": 5300,
      "مية": 5301,
      "مات": 5302,
      "مين": 5303,
      "ميا": 5304,
      "معل": 5305,
      "مار": 5306,
      "مور": 5307,
      "ممكن": 5308,
      "موق": 5309,
      "محي": 5310,
      "موس": 5311,
      "مخص": 5312,
      "مجر": 5313,
      "مقط": 5314,
      "مقع": 5315,
      "ممر": 5316,
      "مبي": 5317,
      "متاج": 5318,
      "مسنا": 5319,
      "مته": 5320,
      "مبد": 5321,
      "مهر": 5322,
      "مبت": 5323,
      "مضل": 5324,
      "محن": 5325,
      "مضي": 5326,
      "محل": 5327,
      "مكت": 5328,
      "مهد": 5329,
      "ميه": 5330,
      "مجه": 5331,
      "موث": 5332,
      "محيط": 5333,
      "مكيف": 5334,
      "مطل": 5335,
      "مغيرة": 5336,
      "مطعم": 5337,
      "مجلة": 5338,
      "ميك": 5339,
      "مرجح": 5340,
      "مجرد": 5341,
      "متقدمة": 5342,
      "مساعد": 5343,
      "مارس": 5344,
      "مبتكر": 5345,
      "مملكة": 5346,
      "معلقة": 5347,
      "معلمين": 5348,
      "مقلق": 5349,
      "محنة": 5350,
      "مبيدات": 5351,
      "مقاطع": 5352,
      "متاث": 5353,
      "مضاع": 5354,
      "مختبر": 5355,
      "ممكنا": 5356,
      "مفكرين": 5357,
      "نب": 5358,
      "نغ": 5359,
      "نط": 5360,
      "نيا": 5361,
      "نوا": 5362,
      "نوم": 5363,
      "نتم": 5364,
      "نود": 5365,
      "نقل": 5366,
      "نقا": 5367,
      "نحدث": 5368,
      "نشا": 5369,
      "نفي": 5370,
      "نكرا": 5371,
      "نجه": 5372,
      "نقول": 5373,
      "ناتي": 5374,
      "نجد": 5375,
      "نذكر": 5376,
      "ننتهي": 5377,
      "نترك": 5378,
      "نطعم": 5379,
      "نقاء": 5380,
      "نبحث": 5381,
      "نجعل": 5382,
      "نومن": 5383,
      "نوقف": 5384,
      "نفذ": 5385,
      "نيو": 5386,
      "نقرا": 5387,
      "نبعث": 5388,
      "نتقدم": 5389,
      "نطلب": 5390,
      "نسال": 5391,
      "نقلب": 5392,
      "نبقى": 5393,
      "نادرة": 5394,
      "نوفر": 5395,
      "نفتح": 5396,
      "نضال": 5397,
      "نجوا": 5398,
      "نخلق": 5399,
      "نختبر": 5400,
      "نقرر": 5401,
      "هد": 5402,
      "هر": 5403,
      "هان": 5404,
      "هام": 5405,
      "هواء": 5406,
      "هيلا": 5407,
      "هدية": 5408,
      "هبوط": 5409,
      "هددت": 5410,
      "ود": 5411,
      "وو": 5412,
      "وش": 5413,
      "وك": 5414,
      "وذا": 5415,
      "ويا": 5416,
      "وام": 5417,
      "وذه": 5418,
      "ودا": 5419,
      "واب": 5420,
      "ويع": 5421,
      "ومل": 5422,
      "وتر": 5423,
      "وصل": 5424,
      "وبر": 5425,
      "وتم": 5426,
      "وود": 5427,
      "وحي": 5428,
      "وخل": 5429,
      "وقا": 5430,
      "وحدث": 5431,
      "وقع": 5432,
      "ومر": 5433,
      "وشر": 5434,
      "وعي": 5435,
      "ونع": 5436,
      "وسم": 5437,
      "وعادة": 5438,
      "ورج": 5439,
      "وجم": 5440,
      "وسا": 5441,
      "وحل": 5442,
      "وفكر": 5443,
      "وكت": 5444,
      "وعمل": 5445,
      "وخلف": 5446,
      "واتي": 5447,
      "وياكل": 5448,
      "وغام": 5449,
      "وطعم": 5450,
      "وحيث": 5451,
      "وبيو": 5452,
      "وصول": 5453,
      "وتاثير": 5454,
      "وعملية": 5455,
      "وشري": 5456,
      "وظيف": 5457,
      "وداخل": 5458,
      "وكثيف": 5459,
      "ووعي": 5460,
      "وفضول": 5461,
      "وبرنامج": 5462,
      "يه": 5463,
      "يط": 5464,
      "ينا": 5465,
      "يول": 5466,
      "يرا": 5467,
      "يكم": 5468,
      "يتر": 5469,
      "يبر": 5470,
      "يفا": 5471,
      "يمن": 5472,
      "يوس": 5473,
      "يخص": 5474,
      "يثير": 5475,
      "يبت": 5476,
      "يوي": 5477,
      "يسبب": 5478,
      "يسا": 5479,
      "يغير": 5480,
      "يختل": 5481,
      "يمت": 5482,
      "يلب": 5483,
      "يلق": 5484,
      "يعلو": 5485,
      "يحيط": 5486,
      "يمس": 5487,
      "يقدم": 5488,
      "يبعد": 5489,
      "يستقبل": 5490,
      "يختار": 5491,
      "يلعب": 5492,
      "يطعم": 5493,
      "يراه": 5494,
      "يعبر": 5495,
      "يهتم": 5496,
      "يطلب": 5497,
      "يوافق": 5498,
      "يساعد": 5499,
      "يظل": 5500,
      "يثق": 5501,
      "يبلغ": 5502,
      "يبرز": 5503,
      "يورقني": 5504,
      "يحدد": 5505,
      "يتاث": 5506,
      "يعبث": 5507,
      "يستطع": 5508,
      "يشاهد": 5509,
      "يتحسن": 5510,
      "يبقون": 5511,
      "##هن": 5512,
      "##هق": 5513,
      "##هرا": 5514,
      "##هيل": 5515,
      "##هدة": 5516,
      "##هلا": 5517,
      "##هشا": 5518,
      "##همات": 5519,
      "##هزة": 5520,
      "##هبوط": 5521,
      "##هضة": 5522,
      "##زز": 5523,
      "##زي": 5524,
      "##زها": 5525,
      "##زون": 5526,
      "##زلك": 5527,
      "##زيا": 5528,
      "##زير": 5529,
      "##زام": 5530,
      "##زيل": 5531,
      "##زيد": 5532,
      "##زوف": 5533,
      "##زفي": 5534,
      "##زلة": 5535,
      "##زانية": 5536,
      "##زيز": 5537,
      "##زرع": 5538,
      "##زراف": 5539,
      "##زدهار": 5540,
      "##اعة": 5541,
      "##ايد": 5542,
      "##اعب": 5543,
      "##اجا": 5544,
      "##اوف": 5545,
      "##افي": 5546,
      "##افة": 5547,
      "##اكي": 5548,
      "##اعد": 5549,
      "##اجه": 5550,
      "##اخذ": 5551,
      "##اذة": 5552,
      "##اسبوع": 5553,
      "##فى": 5554,
      "##فذا": 5555,
      "##فوا": 5556,
      "##فاي": 5557,
      "##فاد": 5558,
      "##فضا": 5559,
      "##فولة": 5560,
      "##فوعة": 5561,
      "##فجار": 5562,
      "##فرايس": 5563,
      "##فوري": 5564,
      "##يح": 5565,
      "##يغ": 5566,
      "##يى": 5567,
      "##يما": 5568,
      "##يير": 5569,
      "##يوم": 5570,
      "##ييم": 5571,
      "##يته": 5572,
      "##يحة": 5573,
      "##يسي": 5574,
      "##يمات": 5575,
      "##يتهم": 5576,
      "##يولوج": 5577,
      "##يثارة": 5578,
      "##يديين": 5579,
      "##دو": 5580,
      "##دون": 5581,
      "##دين": 5582,
      "##ديل": 5583,
      "##دخل": 5584,
      "##دفي": 5585,
      "##دته": 5586,
      "##دراء": 5587,
      "##ديلة": 5588,
      "##دفع": 5589,
      "##دعو": 5590,
      "##دورا": 5591,
      "##دجاج": 5592,
      "##دخول": 5593,
      "##تد": 5594,
      "##تري": 5595,
      "##تور": 5596,
      "##تبة": 5597,
      "##تمكن": 5598,
      "##ترف": 5599,
      "##تقل": 5600,
      "##توى": 5601,
      "##تالية": 5602,
      "##تقاء": 5603,
      "##تضى": 5604,
      "##تتان": 5605,
      "##تذكرون": 5606,
      "##تزام": 5607,
      "##عش": 5608,
      "##عط": 5609,
      "##عهم": 5610,
      "##عار": 5611,
      "##عدا": 5612,
      "##عني": 5613,
      "##عكم": 5614,
      "##عيم": 5615,
      "##عرك": 5616,
      "##عاني": 5617,
      "##عرض": 5618,
      "##عرق": 5619,
      "##عوب": 5620,
      "##عتما": 5621,
      "##عظم": 5622,
      "##عزف": 5623,
      "##عوني": 5624,
      "##عجلة": 5625,
      "##عجزة": 5626,
      "##عماق": 5627,
      "##عجني": 5628,
      "##عصب": 5629,
      "##عجزات": 5630,
      "##عزلة": 5631,
      "##ره": 5632,
      "##رم": 5633,
      "##رخ": 5634,
      "##رنا": 5635,
      "##رما": 5636,
      "##رضا": 5637,
      "##رتي": 5638,
      "##رته": 5639,
      "##رطة": 5640,
      "##ردد": 5641,
      "##رطان": 5642,
      "##ضت": 5643,
      "##ضب": 5644,
      "##ضوا": 5645,
      "##ضور": 5646,
      "##ضعة": 5647,
      "##ضيع": 5648,
      "##ضيف": 5649,
      "##ضتي": 5650,
      "##ضرت": 5651,
      "##ضمو": 5652,
      "##ضمين": 5653,
      "##ضخات": 5654,
      "##ضفاد": 5655,
      "##له": 5656,
      "##لن": 5657,
      "##لال": 5658,
      "##لية": 5659,
      "##لهم": 5660,
      "##لقة": 5661,
      "##لني": 5662,
      "##ليات": 5663,
      "##لحة": 5664,
      "##لوث": 5665,
      "##لينا": 5666,
      "##لونه": 5667,
      "##لحم": 5668,
      "##لسات": 5669,
      "##لحين": 5670,
      "##لعكم": 5671,
      "##بض": 5672,
      "##بنا": 5673,
      "##بول": 5674,
      "##بوا": 5675,
      "##بيق": 5676,
      "##بكون": 5677,
      "##بته": 5678,
      "##بوب": 5679,
      "##بطا": 5680,
      "##براء": 5681,
      "##بسطة": 5682,
      "##بهة": 5683,
      "##براعة": 5684,
      "##بابة": 5685,
      "##بسه": 5686,
      "##بساطة": 5687,
      "##بذور": 5688,
      "##نم": 5689,
      "##نس": 5690,
      "##نص": 5691,
      "##نكن": 5692,
      "##ندة": 5693,
      "##نجر": 5694,
      "##نقع": 5695,
      "##نغي": 5696,
      "##نرد": 5697,
      "##نستخدم": 5698,
      "##نجح": 5699,
      "##نفذ": 5700,
      "##نشاة": 5701,
      "##نظيف": 5702,
      "##نوعون": 5703,
      "##وض": 5704,
      "##وط": 5705,
      "##وول": 5706,
      "##ودا": 5707,
      "##وحد": 5708,
      "##ويد": 5709,
      "##وبا": 5710,
      "##واني": 5711,
      "##وهر": 5712,
      "##وتى": 5713,
      "##ونات": 5714,
      "##ومات": 5715,
      "##وولي": 5716,
      "##ويرا": 5717,
      "##وضى": 5718,
      "##وخرا": 5719,
      "##وظيف": 5720,
      "##وديو": 5721,
      "##وكول": 5722,
      "##قيا": 5723,
      "##قير": 5724,
      "##قام": 5725,
      "##قار": 5726,
      "##قرص": 5727,
      "##قبات": 5728,
      "##قامة": 5729,
      "##قلاء": 5730,
      "##قنتها": 5731,
      "##حب": 5732,
      "##حى": 5733,
      "##حدا": 5734,
      "##حني": 5735,
      "##حمة": 5736,
      "##حرق": 5737,
      "##حيلا": 5738,
      "##حضر": 5739,
      "##حترام": 5740,
      "##حطم": 5741,
      "##حفاظ": 5742,
      "##حباط": 5743,
      "##حتوى": 5744,
      "##مد": 5745,
      "##مع": 5746,
      "##مح": 5747,
      "##مري": 5748,
      "##ميل": 5749,
      "##ميات": 5750,
      "##مرة": 5751,
      "##موس": 5752,
      "##مثل": 5753,
      "##مسا": 5754,
      "##مينة": 5755,
      "##مجه": 5756,
      "##مونه": 5757,
      "##محات": 5758,
      "##مزا": 5759,
      "##معها": 5760,
      "##ذل": 5761,
      "##ذان": 5762,
      "##ذبا": 5763,
      "##ذبون": 5764,
      "##ذكرى": 5765,
      "##ذبية": 5766,
      "##ذهاب": 5767,
      "##ذوقي": 5768,
      "##شي": 5769,
      "##شق": 5770,
      "##شى": 5771,
      "##شال": 5772,
      "##شان": 5773,
      "##شون": 5774,
      "##شين": 5775,
      "##شيا": 5776,
      "##شير": 5777,
      "##شار": 5778,
      "##شوق": 5779,
      "##شفا": 5780,
      "##شخص": 5781,
      "##شته": 5782,
      "##شحة": 5783,
      "##شعر": 5784,
      "##شخاص": 5785,
      "##شبية": 5786,
      "##شجع": 5787,
      "##شارات": 5788,
      "##شكركم": 5789,
      "##شعش": 5790,
      "##كع": 5791,
      "##كو": 5792,
      "##كدا": 5793,
      "##كياء": 5794,
      "##كوب": 5795,
      "##كاف": 5796,
      "##كهة": 5797,
      "##كشف": 5798,
      "##كيميا": 5799,
      "##كترونية": 5800,
      "##كجو": 5801,
      "##كالها": 5802,
      "##كشفا": 5803,
      "##جين": 5804,
      "##جرا": 5805,
      "##جدة": 5806,
      "##جدا": 5807,
      "##جاد": 5808,
      "##جبا": 5809,
      "##جريد": 5810,
      "##جارة": 5811,
      "##جيه": 5812,
      "##جبات": 5813,
      "##جتمع": 5814,
      "##جيب": 5815,
      "##جوبة": 5816,
      "##جتون": 5817,
      "##جنب": 5818,
      "##سف": 5819,
      "##سل": 5820,
      "##سك": 5821,
      "##سها": 5822,
      "##سول": 5823,
      "##سوا": 5824,
      "##سام": 5825,
      "##سيل": 5826,
      "##سيد": 5827,
      "##سجل": 5828,
      "##سلة": 5829,
      "##سوب": 5830,
      "##سمات": 5831,
      "##سانية": 5832,
      "##سوء": 5833,
      "##سحر": 5834,
      "##سلف": 5835,
      "##سعين": 5836,
      "##سجيل": 5837,
      "##سلكية": 5838,
      "##غة": 5839,
      "##غر": 5840,
      "##غنا": 5841,
      "##غرق": 5842,
      "##غتنا": 5843,
      "##غبون": 5844,
      "##غمي": 5845,
      "##غمس": 5846,
      "##غلاق": 5847,
      "##غلقت": 5848,
      "##ظة": 5849,
      "##ظى": 5850,
      "##ظات": 5851,
      "##ظوا": 5852,
      "##ظار": 5853,
      "##ظور": 5854,
      "##ظماء": 5855,
      "##ظلام": 5856,
      "##ظهار": 5857,
      "##خة": 5858,
      "##خلك": 5859,
      "##خذه": 5860,
      "##خرف": 5861,
      "##خفي": 5862,
      "##خنة": 5863,
      "##خرت": 5864,
      "##خيلة": 5865,
      "##خمس": 5866,
      "##خدمات": 5867,
      "##خرفة": 5868,
      "##خابات": 5869,
      "##خطوة": 5870,
      "##خفضا": 5871,
      "##صا": 5872,
      "##صات": 5873,
      "##صري": 5874,
      "##صهم": 5875,
      "##صدي": 5876,
      "##صلا": 5877,
      "##صورة": 5878,
      "##صدمات": 5879,
      "##صارات": 5880,
      "##صهار": 5881,
      "##ثى": 5882,
      "##ثار": 5883,
      "##ثقة": 5884,
      "##ثكم": 5885,
      "##ثمن": 5886,
      "##ثبي": 5887,
      "##ثرت": 5888,
      "##ثقب": 5889,
      "##ثيلية": 5890,
      "##ثايقية": 5891,
      "##ءل": 5892,
      "##طس": 5893,
      "##طار": 5894,
      "##طعة": 5895,
      "##طرف": 5896,
      "##طاد": 5897,
      "##طيات": 5898,
      "##طحة": 5899,
      "##طريق": 5900,
      "##طرب": 5901,
      "##طالة": 5902,
      "##طيون": 5903,
      "##طيه": 5904,
      "##طالي": 5905,
      "##طانيا": 5906,
      "##طناعية": 5907,
      "##طيسية": 5908,
      "##طتو": 5909,
      "##طالبة": 5910,
      "الية": 5911,
      "الين": 5912,
      "الكث": 5913,
      "الوق": 5914,
      "الكثر": 5915,
      "اليم": 5916,
      "الوس": 5917,
      "الغي": 5918,
      "الولوج": 5919,
      "الورك": 5920,
      "الوسا": 5921,
      "الكثيف": 5922,
      "الخصوص": 5923,
      "الوفيات": 5924,
      "الخلق": 5925,
      "الظلام": 5926,
      "##ناع": 5927,
      "##نافس": 5928,
      "##نايية": 5929,
      "##نامية": 5930,
      "##ناطيسية": 5931,
      "##الف": 5932,
      "##الع": 5933,
      "##الو": 5934,
      "##الك": 5935,
      "##الني": 5936,
      "##البي": 5937,
      "##الوي": 5938,
      "##الوب": 5939,
      "##المات": 5940,
      "##الذي": 5941,
      "##اليه": 5942,
      "##الفورنيا": 5943,
      "##السون": 5944,
      "##الفريق": 5945,
      "##الحها": 5946,
      "##التزام": 5947,
      "##انه": 5948,
      "##انع": 5949,
      "##انك": 5950,
      "##انى": 5951,
      "##انها": 5952,
      "##انين": 5953,
      "##انتقال": 5954,
      "انيق": 5955,
      "انفا": 5956,
      "انريد": 5957,
      "انترنت": 5958,
      "انبعا": 5959,
      "انطلق": 5960,
      "انفاق": 5961,
      "انقلب": 5962,
      "انعطف": 5963,
      "انعكاس": 5964,
      "انسان": 5965,
      "انفجار": 5966,
      "انسانية": 5967,
      "مني": 5968,
      "منزل": 5969,
      "مندف": 5970,
      "منشات": 5971,
      "منخفض": 5972,
      "منزلك": 5973,
      "منفذا": 5974,
      "منعزلة": 5975,
      "منبسطة": 5976,
      "منحني": 5977,
      "منظار": 5978,
      "منخفضا": 5979,
      "فيل": 5980,
      "فينا": 5981,
      "فيات": 5982,
      "فيهم": 5983,
      "فيتا": 5984,
      "فيقول": 5985,
      "فيجب": 5986,
      "فيحصل": 5987,
      "فيروس": 5988,
      "فيوكس": 5989,
      "فيزيا": 5990,
      "##ماع": 5991,
      "##ماري": 5992,
      "##مارك": 5993,
      "##ماعية": 5994,
      "##ماطم": 5995,
      "##هاء": 5996,
      "##هارة": 5997,
      "##هابي": 5998,
      "##هانات": 5999,
      "##هامز": 6000,
      "##هادته": 6001,
      "##ذات": 6002,
      "##ذاكرة": 6003,
      "##اته": 6004,
      "##اتا": 6005,
      "##اتف": 6006,
      "##اتب": 6007,
      "##اتنا": 6008,
      "##اتفاق": 6009,
      "##ونين": 6010,
      "##ونني": 6011,
      "الملك": 6012,
      "المري": 6013,
      "المعل": 6014,
      "المهم": 6015,
      "المقد": 6016,
      "المذه": 6017,
      "المور": 6018,
      "الممكن": 6019,
      "المعا": 6020,
      "المناس": 6021,
      "المجا": 6022,
      "المخص": 6023,
      "المحدث": 6024,
      "المشر": 6025,
      "المبت": 6026,
      "الموقت": 6027,
      "المعدة": 6028,
      "المغم": 6029,
      "الملاب": 6030,
      "المواد": 6031,
      "المخلوق": 6032,
      "المجاز": 6033,
      "المسن": 6034,
      "المغيرة": 6035,
      "المفاض": 6036,
      "الموه": 6037,
      "المقطع": 6038,
      "المرجح": 6039,
      "المهيم": 6040,
      "المغامرة": 6041,
      "المعلقة": 6042,
      "المكرونة": 6043,
      "المعلمين": 6044,
      "الموعد": 6045,
      "المشكلات": 6046,
      "المبيدات": 6047,
      "المقاطع": 6048,
      "المهند": 6049,
      "الميكر": 6050,
      "المشهد": 6051,
      "المراحل": 6052,
      "المربعة": 6053,
      "المقبلة": 6054,
      "المفكرين": 6055,
      "المرحلة": 6056,
      "المسيطرة": 6057,
      "المضخات": 6058,
      "الاكل": 6059,
      "الامل": 6060,
      "الابا": 6061,
      "الامن": 6062,
      "الاعم": 6063,
      "الابد": 6064,
      "الاسم": 6065,
      "الاعلى": 6066,
      "الافق": 6067,
      "الاقر": 6068,
      "الايك": 6069,
      "الاورا": 6070,
      "الاقرا": 6071,
      "الافريق": 6072,
      "الايط": 6073,
      "الاماكن": 6074,
      "الاضاءة": 6075,
      "الاجابة": 6076,
      "الاقصى": 6077,
      "الافص": 6078,
      "الاغن": 6079,
      "الاهمية": 6080,
      "الاربعة": 6081,
      "الاكدا": 6082,
      "الاغنا": 6083,
      "##يني": 6084,
      "##ينس": 6085,
      "##ينكا": 6086,
      "##ينتون": 6087,
      "##ياج": 6088,
      "##ياين": 6089,
      "##ياضي": 6090,
      "##يايه": 6091,
      "##يابية": 6092,
      "##ياجات": 6093,
      "##ياطين": 6094,
      "علها": 6095,
      "علاق": 6096,
      "علمي": 6097,
      "علمية": 6098,
      "علاجا": 6099,
      "##يرز": 6100,
      "##يرد": 6101,
      "##يرية": 6102,
      "##يريا": 6103,
      "##يرشي": 6104,
      "##يرانك": 6105,
      "##ولوا": 6106,
      "##واح": 6107,
      "##واهم": 6108,
      "##وايد": 6109,
      "##وارق": 6110,
      "##وارب": 6111,
      "##وابق": 6112,
      "##واكب": 6113,
      "##وابط": 6114,
      "##واقص": 6115,
      "##وافز": 6116,
      "##وافر": 6117,
      "##واجدة": 6118,
      "##واصات": 6119,
      "التفس": 6120,
      "التمكن": 6121,
      "التاي": 6122,
      "التعلم": 6123,
      "التقل": 6124,
      "التجا": 6125,
      "التجر": 6126,
      "التقط": 6127,
      "التشا": 6128,
      "التهر": 6129,
      "التواء": 6130,
      "التفت": 6131,
      "التمي": 6132,
      "التخيل": 6133,
      "التقر": 6134,
      "التطل": 6135,
      "التذكر": 6136,
      "التالية": 6137,
      "التونة": 6138,
      "التفريق": 6139,
      "التمني": 6140,
      "التوافق": 6141,
      "التبري": 6142,
      "التمه": 6143,
      "التناقض": 6144,
      "التعق": 6145,
      "التواصل": 6146,
      "التامين": 6147,
      "التلاعب": 6148,
      "التكثيف": 6149,
      "التصميم": 6150,
      "التتاب": 6151,
      "التعجب": 6152,
      "التسيير": 6153,
      "التربية": 6154,
      "التغطية": 6155,
      "التشويش": 6156,
      "التعصب": 6157,
      "التردد": 6158,
      "التمسا": 6159,
      "التشال": 6160,
      "التجريد": 6161,
      "التنافس": 6162,
      "##ريش": 6163,
      "##ريفة": 6164,
      "##علها": 6165,
      "##علون": 6166,
      "##علين": 6167,
      "##علوا": 6168,
      "##علاقة": 6169,
      "##علماء": 6170,
      "##سته": 6171,
      "##ستيع": 6172,
      "##ستكشا": 6173,
      "##ستواك": 6174,
      "##سترونو": 6175,
      "##ستنقع": 6176,
      "##ستغرق": 6177,
      "##همهم": 6178,
      "##همتي": 6179,
      "##هملون": 6180,
      "##راد": 6181,
      "##راح": 6182,
      "##راون": 6183,
      "##رافا": 6184,
      "##رارات": 6185,
      "##راكب": 6186,
      "##رافية": 6187,
      "##راعات": 6188,
      "##رابعة": 6189,
      "##رايهم": 6190,
      "##راجات": 6191,
      "##رابطا": 6192,
      "##كني": 6193,
      "##كنة": 6194,
      "##كنلوج": 6195,
      "##امر": 6196,
      "##امح": 6197,
      "##امى": 6198,
      "##امون": 6199,
      "##املا": 6200,
      "##اميم": 6201,
      "##اموس": 6202,
      "##اموي": 6203,
      "##امسة": 6204,
      "##امنة": 6205,
      "##امينا": 6206,
      "لايف": 6207,
      "لاناس": 6208,
      "لاقل": 6209,
      "لافعل": 6210,
      "لاعادة": 6211,
      "لاحا": 6212,
      "لايج": 6213,
      "لاجم": 6214,
      "لاكت": 6215,
      "لاحص": 6216,
      "لاجد": 6217,
      "لاصبح": 6218,
      "لابتكار": 6219,
      "لابحث": 6220,
      "لاقرا": 6221,
      "لاكبر": 6222,
      "لاشياء": 6223,
      "لابرز": 6224,
      "لاخترا": 6225,
      "لاجراء": 6226,
      "لازير": 6227,
      "لابسه": 6228,
      "لاقامة": 6229,
      "لاشارات": 6230,
      "لاصلا": 6231,
      "لاطالة": 6232,
      "##قدة": 6233,
      "##قدرة": 6234,
      "##يلون": 6235,
      "##يلين": 6236,
      "##يلوج": 6237,
      "##يلمان": 6238,
      "عني": 6239,
      "عنق": 6240,
      "عننا": 6241,
      "عنهم": 6242,
      "عنكم": 6243,
      "عنفة": 6244,
      "عنوان": 6245,
      "...!": 6246,
      "للتا": 6247,
      "للتر": 6248,
      "للعلم": 6249,
      "للحي": 6250,
      "للشا": 6251,
      "للته": 6252,
      "للهر": 6253,
      "للوقت": 6254,
      "للالة": 6255,
      "للحل": 6256,
      "للخلف": 6257,
      "للتاك": 6258,
      "للقول": 6259,
      "للارج": 6260,
      "لللعب": 6261,
      "للحظة": 6262,
      "للحظات": 6263,
      "للدل": 6264,
      "للبحث": 6265,
      "للهو": 6266,
      "للفريق": 6267,
      "للتحرك": 6268,
      "للحياة": 6269,
      "للحرية": 6270,
      "للخط": 6271,
      "للداخل": 6272,
      "للطيور": 6273,
      "للخارج": 6274,
      "للبيية": 6275,
      "للجميع": 6276,
      "للرفاهية": 6277,
      "للصالح": 6278,
      "للحفاظ": 6279,
      "للذكرى": 6280,
      "للخمس": 6281,
      "##ارز": 6282,
      "##ارن": 6283,
      "##ارخ": 6284,
      "##اريا": 6285,
      "##ارعة": 6286,
      "##ارحة": 6287,
      "##ارسي": 6288,
      "##اركة": 6289,
      "##ارتها": 6290,
      "##ارعلى": 6291,
      "##ارضة": 6292,
      "##ارلز": 6293,
      "##ارنتها": 6294,
      "##ديه": 6295,
      "##ديء": 6296,
      "##ديات": 6297,
      "##ديثي": 6298,
      "بالما": 6299,
      "بالكل": 6300,
      "بالكم": 6301,
      "بالاي": 6302,
      "بالتم": 6303,
      "بالصف": 6304,
      "بالاس": 6305,
      "بالتي": 6306,
      "بالعم": 6307,
      "بالتح": 6308,
      "بالسبب": 6309,
      "بالوقت": 6310,
      "بالمك": 6311,
      "بالتما": 6312,
      "بالامل": 6313,
      "بالترا": 6314,
      "بالمو": 6315,
      "بالحص": 6316,
      "بالنظر": 6317,
      "باللعب": 6318,
      "بالقص": 6319,
      "بالتمام": 6320,
      "بالقاء": 6321,
      "بالورا": 6322,
      "بالاهتمام": 6323,
      "بالياف": 6324,
      "باللون": 6325,
      "بالنقل": 6326,
      "بالوان": 6327,
      "بالداخل": 6328,
      "بالابرة": 6329,
      "بالقلق": 6330,
      "بالطيور": 6331,
      "بالحصول": 6332,
      "بالدليل": 6333,
      "بالالعاب": 6334,
      "بالعبث": 6335,
      "بالسمكة": 6336,
      "بالجزء": 6337,
      "بالفضول": 6338,
      "بالسيطرة": 6339,
      "بالرفاهية": 6340,
      "بالزراف": 6341,
      "بالفرايس": 6342,
      "باليوم": 6343,
      "بالدخول": 6344,
      "بالعزف": 6345,
      "باللحم": 6346,
      "بالبراعة": 6347,
      "بالذهاب": 6348,
      "بالخرف": 6349,
      "بالصدمات": 6350,
      "بالانتقال": 6351,
      "بالذات": 6352,
      "بالارز": 6353,
      "العقا": 6354,
      "العرض": 6355,
      "العنو": 6356,
      "العرب": 6357,
      "العيون": 6358,
      "العظيم": 6359,
      "العظام": 6360,
      "العالية": 6361,
      "العجلة": 6362,
      "العادات": 6363,
      "العشاء": 6364,
      "العضوية": 6365,
      "العظمة": 6366,
      "العزيز": 6367,
      "العنص": 6368,
      "العقبات": 6369,
      "العظماء": 6370,
      "ماء": 6371,
      "ماية": 6372,
      "مايع": 6373,
      "مافي": 6374,
      "مايي": 6375,
      "ماوى": 6376,
      "ماكار": 6377,
      "ماهو": 6378,
      "مايك": 6379,
      "مازال": 6380,
      "ماكرونة": 6381,
      "مازلت": 6382,
      "ماعدا": 6383,
      "والون": 6384,
      "والدي": 6385,
      "والمل": 6386,
      "والاد": 6387,
      "والخل": 6388,
      "والرك": 6389,
      "والجر": 6390,
      "والنو": 6391,
      "والتح": 6392,
      "والشكل": 6393,
      "والعاب": 6394,
      "والحا": 6395,
      "والجم": 6396,
      "والوقت": 6397,
      "والطو": 6398,
      "والاص": 6399,
      "والجز": 6400,
      "والولوج": 6401,
      "والنظر": 6402,
      "والثال": 6403,
      "واللعب": 6404,
      "والقاء": 6405,
      "والسر": 6406,
      "والوقود": 6407,
      "والذين": 6408,
      "والتحرك": 6409,
      "والراحة": 6410,
      "والده": 6411,
      "والنها": 6412,
      "والطين": 6413,
      "والطريقة": 6414,
      "والياب": 6415,
      "والديك": 6416,
      "والابتكار": 6417,
      "واللاعب": 6418,
      "والخروج": 6419,
      "والهدف": 6420,
      "والذك": 6421,
      "والجوا": 6422,
      "والخارج": 6423,
      "والامية": 6424,
      "والوعي": 6425,
      "والبيية": 6426,
      "والسمكة": 6427,
      "والهبوط": 6428,
      "والفاي": 6429,
      "والدجاج": 6430,
      "والبذور": 6431,
      "والشخص": 6432,
      "والكيميا": 6433,
      "والجدا": 6434,
      "والسحر": 6435,
      "والخدمات": 6436,
      "والثقة": 6437,
      "والالتزام": 6438,
      "والذاكرة": 6439,
      "والعلماء": 6440,
      "والرابعة": 6441,
      "والامر": 6442,
      "##داه": 6443,
      "##دايد": 6444,
      "##دايية": 6445,
      "##داعه": 6446,
      "معك": 6447,
      "معاي": 6448,
      "معتم": 6449,
      "معاقة": 6450,
      "معتقد": 6451,
      "معرض": 6452,
      "معدم": 6453,
      "معيش": 6454,
      "معناه": 6455,
      "معتمد": 6456,
      "معدني": 6457,
      "معروف": 6458,
      "معتاد": 6459,
      "معزول": 6460,
      "معدات": 6461,
      "معزوف": 6462,
      "معتد": 6463,
      "معرضا": 6464,
      "معقدة": 6465,
      "معارضة": 6466,
      "##ابه": 6467,
      "##ابد": 6468,
      "##ابع": 6469,
      "##ابوا": 6470,
      "##ابلكم": 6471,
      "##ورناه": 6472,
      "الحل": 6473,
      "الحين": 6474,
      "الحسب": 6475,
      "الحشرية": 6476,
      "الحفر": 6477,
      "الحدود": 6478,
      "الحلول": 6479,
      "الحوار": 6480,
      "الحفاظ": 6481,
      "الحمير": 6482,
      "الحمراء": 6483,
      "الحكمة": 6484,
      "الحوافز": 6485,
      "##كلي": 6486,
      "##كلم": 6487,
      "##كليف": 6488,
      "##كلمها": 6489,
      "##ومي": 6490,
      "##ومون": 6491,
      "##ومانية": 6492,
      "واري": 6493,
      "واهم": 6494,
      "واكثر": 6495,
      "واود": 6496,
      "واقل": 6497,
      "واستطيع": 6498,
      "واخت": 6499,
      "واقوم": 6500,
      "وافكر": 6501,
      "واامل": 6502,
      "واجه": 6503,
      "واخذ": 6504,
      "واذهب": 6505,
      "واعدة": 6506,
      "واستخدم": 6507,
      "واجب": 6508,
      "واختار": 6509,
      "واعمال": 6510,
      "واجتما": 6511,
      "وافضل": 6512,
      "واظن": 6513,
      "واوها": 6514,
      "واشياء": 6515,
      "واكمل": 6516,
      "واثناء": 6517,
      "واقلق": 6518,
      "واجراء": 6519,
      "واسع": 6520,
      "واضاف": 6521,
      "واخراج": 6522,
      "واعادتهم": 6523,
      "وااخذ": 6524,
      "واشكركم": 6525,
      "واجوبة": 6526,
      "واسوء": 6527,
      "واغلقت": 6528,
      "وايرد": 6529,
      "##لاف": 6530,
      "##لاغ": 6531,
      "##لاث": 6532,
      "##لايي": 6533,
      "##لاثة": 6534,
      "##لاحظ": 6535,
      "##لاقي": 6536,
      "##لاحم": 6537,
      "##لافنا": 6538,
      "##لاحه": 6539,
      "##لاسف": 6540,
      "السن": 6541,
      "السير": 6542,
      "السيد": 6543,
      "السبا": 6544,
      "السجا": 6545,
      "السكان": 6546,
      "السبع": 6547,
      "السعي": 6548,
      "السلم": 6549,
      "السلب": 6550,
      "السارة": 6551,
      "الساق": 6552,
      "السياس": 6553,
      "السلام": 6554,
      "السيء": 6555,
      "السرير": 6556,
      "السلو": 6557,
      "السنين": 6558,
      "السوايل": 6559,
      "السياق": 6560,
      "السفر": 6561,
      "السياسي": 6562,
      "السمنة": 6563,
      "السبابة": 6564,
      "السويد": 6565,
      "السوابق": 6566,
      "كانسان": 6567,
      "الانين": 6568,
      "الانحد": 6569,
      "الانجاب": 6570,
      "الاندها": 6571,
      "الانثر": 6572,
      "الانهار": 6573,
      "الانفص": 6574,
      "الانحيا": 6575,
      "الانظمة": 6576,
      "الانماط": 6577,
      "الانتقال": 6578,
      "الانبوب": 6579,
      "الانصهار": 6580,
      "البث": 6581,
      "البول": 6582,
      "الباس": 6583,
      "الباء": 6584,
      "الباص": 6585,
      "البقاء": 6586,
      "البانيا": 6587,
      "البعيدة": 6588,
      "البصر": 6589,
      "الباح": 6590,
      "الباردة": 6591,
      "البلاد": 6592,
      "البساطة": 6593,
      "البوري": 6594,
      "البذور": 6595,
      "البارعين": 6596,
      "البديلة": 6597,
      "البطريق": 6598,
      "البارحة": 6599,
      "##حده": 6600,
      "##حدات": 6601,
      "##حدود": 6602,
      "هويتهم": 6603,
      "##يعا": 6604,
      "##فسهم": 6605,
      "##فسيات": 6606,
      "##فسينا": 6607,
      "كلنا": 6608,
      "كلية": 6609,
      "كلهم": 6610,
      "كلتي": 6611,
      "كلمت": 6612,
      "كليه": 6613,
      "كلارك": 6614,
      "كلامي": 6615,
      "كلامه": 6616,
      "كلينتون": 6617,
      "##مكنك": 6618,
      "##مكننا": 6619,
      "##مكنوا": 6620,
      "ليصبح": 6621,
      "ليتحدث": 6622,
      "ليمون": 6623,
      "ليتمكن": 6624,
      "ليثقب": 6625,
      "##نيات": 6626,
      "##نيتك": 6627,
      "##نيجي": 6628,
      "اخض": 6629,
      "اخيف": 6630,
      "اخمن": 6631,
      "اخيرة": 6632,
      "اخسر": 6633,
      "اخطط": 6634,
      "اخلاقي": 6635,
      "##نتاجه": 6636,
      "القى": 6637,
      "القيم": 6638,
      "القاس": 6639,
      "القمر": 6640,
      "القوى": 6641,
      "القطا": 6642,
      "القلب": 6643,
      "القاء": 6644,
      "القلق": 6645,
      "القفز": 6646,
      "القضية": 6647,
      "القريب": 6648,
      "القبعة": 6649,
      "القوة": 6650,
      "القوان": 6651,
      "القرار": 6652,
      "القفن": 6653,
      "القبيل": 6654,
      "القاعة": 6655,
      "القيثارة": 6656,
      "القبض": 6657,
      "القطعة": 6658,
      "القرارات": 6659,
      "القاموس": 6660,
      "نحل": 6661,
      "نحرك": 6662,
      "نحرق": 6663,
      "نحتف": 6664,
      "نحقق": 6665,
      "نحتفل": 6666,
      "اعي": 6667,
      "اعد": 6668,
      "اعمل": 6669,
      "اعيد": 6670,
      "اعتم": 6671,
      "اعود": 6672,
      "اعرج": 6673,
      "اعتما": 6674,
      "اعطا": 6675,
      "اعضاء": 6676,
      "اعظم": 6677,
      "اعاقات": 6678,
      "اعيش": 6679,
      "اعمار": 6680,
      "اعداد": 6681,
      "اعتاد": 6682,
      "اعطاء": 6683,
      "اعشاب": 6684,
      "##يدية": 6685,
      "##يدتها": 6686,
      "الفم": 6687,
      "الفخ": 6688,
      "الفاس": 6689,
      "الفحص": 6690,
      "الفكري": 6691,
      "الفترة": 6692,
      "الفنية": 6693,
      "الفرن": 6694,
      "الفكا": 6695,
      "الفرايس": 6696,
      "الفرقة": 6697,
      "الفلكية": 6698,
      "الفرضية": 6699,
      "الفوضى": 6700,
      "الفوارق": 6701,
      "الفارسي": 6702,
      "الطعم": 6703,
      "الطابق": 6704,
      "الطوبة": 6705,
      "الطلبة": 6706,
      "الطفولة": 6707,
      "الطماطم": 6708,
      "الطريفة": 6709,
      "شيز": 6710,
      "شييين": 6711,
      "لموق": 6712,
      "لمرك": 6713,
      "لمكان": 6714,
      "لمحة": 6715,
      "لمسا": 6716,
      "لميجيل": 6717,
      "لمواجه": 6718,
      "لملايين": 6719,
      "لمخلفات": 6720,
      "لموقع": 6721,
      "لمغام": 6722,
      "لممار": 6723,
      "لمواجهة": 6724,
      "لمعال": 6725,
      "لمفهوم": 6726,
      "لمدى": 6727,
      "لمراحل": 6728,
      "لمشاكل": 6729,
      "لمجموعة": 6730,
      "لمزرع": 6731,
      "لمعجزات": 6732,
      "لمنشاة": 6733,
      "لممثل": 6734,
      "لمستواك": 6735,
      "اوفي": 6736,
      "اوفق": 6737,
      "اوضح": 6738,
      "اوومن": 6739,
      "اوبرا": 6740,
      "اوقن": 6741,
      "اوسع": 6742,
      "اوضاع": 6743,
      "لانس": 6744,
      "لانكم": 6745,
      "لانتاج": 6746,
      "لاننظر": 6747,
      "لانحتاج": 6748,
      "لانعكاس": 6749,
      "لانفسنا": 6750,
      "لانفسهم": 6751,
      "##رفولد": 6752,
      "##تاجا": 6753,
      "##تاحا": 6754,
      "##يفون": 6755,
      "##يفورنيا": 6756,
      "##عاف": 6757,
      "##عاعات": 6758,
      "##عاقتي": 6759,
      "##عايير": 6760,
      "ولن": 6761,
      "ولها": 6762,
      "ولعب": 6763,
      "ولذلك": 6764,
      "ولعي": 6765,
      "ولنع": 6766,
      "وللم": 6767,
      "ولهذا": 6768,
      "ولدينا": 6769,
      "ولنقل": 6770,
      "ولديك": 6771,
      "ولنف": 6772,
      "ولديهم": 6773,
      "ولديه": 6774,
      "ولابد": 6775,
      "وللاسف": 6776,
      "##ترت": 6777,
      "##ترب": 6778,
      "##ترات": 6779,
      "##تروج": 6780,
      "##تروت": 6781,
      "##ترمونه": 6782,
      "وهل": 6783,
      "وهما": 6784,
      "وهلم": 6785,
      "وهدفي": 6786,
      "وهذان": 6787,
      "وهيرشي": 6788,
      "##وقفت": 6789,
      "##وقعوا": 6790,
      "بعقد": 6791,
      "بعيد": 6792,
      "بعقل": 6793,
      "##دماتها": 6794,
      "##قيقتكم": 6795,
      "انهما": 6796,
      "ايه": 6797,
      "ايدي": 6798,
      "ايدينا": 6799,
      "ايجاد": 6800,
      "ايطالي": 6801,
      "ايمكنك": 6802,
      "اسير": 6803,
      "اساي": 6804,
      "اسفل": 6805,
      "اسعد": 6806,
      "اسماء": 6807,
      "اسوء": 6808,
      "اسرع": 6809,
      "اسقاط": 6810,
      "اسامي": 6811,
      "اساعد": 6812,
      "اسعار": 6813,
      "اسحب": 6814,
      "اسسوا": 6815,
      "اسلافنا": 6816,
      "##ايه": 6817,
      "##ايها": 6818,
      "##ايهم": 6819,
      "##اييات": 6820,
      "##صلوا": 6821,
      "النقل": 6822,
      "النصف": 6823,
      "النقا": 6824,
      "النقط": 6825,
      "النشا": 6826,
      "النشر": 6827,
      "النسبة": 6828,
      "النقص": 6829,
      "النقية": 6830,
      "النزا": 6831,
      "النماذج": 6832,
      "النهار": 6833,
      "النجاة": 6834,
      "النطاق": 6835,
      "النسخ": 6836,
      "النباتات": 6837,
      "النهضة": 6838,
      "النكاف": 6839,
      "النواقص": 6840,
      "النفسيات": 6841,
      "##برج": 6842,
      "##برين": 6843,
      "##برني": 6844,
      "##تمى": 6845,
      "##تمرات": 6846,
      "##تمعات": 6847,
      "الشان": 6848,
      "الشاب": 6849,
      "الشعب": 6850,
      "الشاد": 6851,
      "الشهر": 6852,
      "الشرب": 6853,
      "الشامل": 6854,
      "الشاق": 6855,
      "الشلل": 6856,
      "الشيقة": 6857,
      "الشغف": 6858,
      "الشوارع": 6859,
      "الشهية": 6860,
      "الشىء": 6861,
      "الشاملة": 6862,
      "الشاطىء": 6863,
      "الشاذة": 6864,
      "الشرطة": 6865,
      "الشياطين": 6866,
      "الشدايد": 6867,
      "##علمة": 6868,
      "##ادل": 6869,
      "##ادوا": 6870,
      "##ادرون": 6871,
      "##ادعين": 6872,
      "##وجة": 6873,
      "##وجيات": 6874,
      "##وجيه": 6875,
      "##ياته": 6876,
      "لديكم": 6877,
      "لديهما": 6878,
      "##فاة": 6879,
      "##فاول": 6880,
      "##فاعي": 6881,
      "##فاهيم": 6882,
      "##فاجاة": 6883,
      "##فاداه": 6884,
      "هيوست": 6885,
      "هيمنة": 6886,
      "لكني": 6887,
      "لكنت": 6888,
      "##يمي": 6889,
      "##يمها": 6890,
      "##يمون": 6891,
      "##يمتها": 6892,
      "##يمترات": 6893,
      "##ودى": 6894,
      "##وداليجيف": 6895,
      "##قلنا": 6896,
      "##قلها": 6897,
      "نفسهم": 6898,
      "نفسيي": 6899,
      "##باك": 6900,
      "##باشرة": 6901,
      "##باعه": 6902,
      "##باخي": 6903,
      "##منى": 6904,
      "##منجتون": 6905,
      "##حيح": 6906,
      "##خلية": 6907,
      "##خلها": 6908,
      "##جاع": 6909,
      "##جاء": 6910,
      "##جاجة": 6911,
      "##وسي": 6912,
      "##وسية": 6913,
      "##وسسات": 6914,
      "##وسكوب": 6915,
      "##خصا": 6916,
      "##خصات": 6917,
      "##خصصة": 6918,
      "##صفية": 6919,
      "##صفحا": 6920,
      "اليك": 6921,
      "اليون": 6922,
      "انانية": 6923,
      "اناشد": 6924,
      "قدم": 6925,
      "قدرا": 6926,
      "قدرة": 6927,
      "قدمت": 6928,
      "قدرها": 6929,
      "قدرتي": 6930,
      "##ركته": 6931,
      "##قادي": 6932,
      "سيي": 6933,
      "سيما": 6934,
      "سيدي": 6935,
      "سيصل": 6936,
      "سيبدو": 6937,
      "سيذهب": 6938,
      "سيبات": 6939,
      "سيختار": 6940,
      "سيظهر": 6941,
      "سيغذ": 6942,
      "سيتركون": 6943,
      "سيبيل": 6944,
      "سيوصل": 6945,
      "سيقدرون": 6946,
      "سيوجر": 6947,
      "سيتحسن": 6948,
      "سيبقون": 6949,
      "سيستغرق": 6950,
      "سيهملون": 6951,
      "##جرين": 6952,
      "##جروا": 6953,
      "##سبيس": 6954,
      "##سبابة": 6955,
      "تحب": 6956,
      "تحس": 6957,
      "تحسب": 6958,
      "تحضر": 6959,
      "تحويل": 6960,
      "تحرر": 6961,
      "تحلو": 6962,
      "تحسين": 6963,
      "تحولت": 6964,
      "تحرقه": 6965,
      "لنصف": 6966,
      "لنعرف": 6967,
      "لنشر": 6968,
      "لنبدا": 6969,
      "لنفكر": 6970,
      "لنعمل": 6971,
      "لنفهم": 6972,
      "لنصبح": 6973,
      "لنباء": 6974,
      "لنحصل": 6975,
      "لنقم": 6976,
      "لنسال": 6977,
      "لنراجع": 6978,
      "لنحيا": 6979,
      "لنختر": 6980,
      "لنحرق": 6981,
      "##حدثنا": 6982,
      "##حدثكم": 6983,
      "##ضافة": 6984,
      "##قطاب": 6985,
      "##قطعة": 6986,
      "الجو": 6987,
      "الجبر": 6988,
      "الجنو": 6989,
      "الجسم": 6990,
      "الجوي": 6991,
      "الجديد": 6992,
      "الجلد": 6993,
      "الجنون": 6994,
      "الجديدة": 6995,
      "الجدل": 6996,
      "الجايزة": 6997,
      "الجانب": 6998,
      "الجوار": 6999,
      "الجارية": 7000,
      "الجهود": 7001,
      "الجرايد": 7002,
      "الجيولوج": 7003,
      "الجلسات": 7004,
      "الجبهة": 7005,
      "الجنس": 7006,
      "الجالسون": 7007,
      "الجماعية": 7008,
      "الجيني": 7009,
      "الجراح": 7010,
      "لذاك": 7011,
      "لذاكرتنا": 7012,
      "وتبد": 7013,
      "وتسم": 7014,
      "وتضع": 7015,
      "وتامل": 7016,
      "وتعمل": 7017,
      "وتعرفون": 7018,
      "وتذهب": 7019,
      "وتغم": 7020,
      "وتترك": 7021,
      "وتحصل": 7022,
      "وتعلمون": 7023,
      "وتطبيق": 7024,
      "وتعال": 7025,
      "وتنقل": 7026,
      "وتصنع": 7027,
      "وتفتح": 7028,
      "وتوصل": 7029,
      "وتكاد": 7030,
      "وتطبع": 7031,
      "وتحدد": 7032,
      "وتدفع": 7033,
      "وتعني": 7034,
      "وتلونه": 7035,
      "وتكشف": 7036,
      "وتصري": 7037,
      "وتمكننا": 7038,
      "وتوقفت": 7039,
      "وتحدثنا": 7040,
      "##وفيس": 7041,
      "افتح": 7042,
      "افترا": 7043,
      "افحص": 7044,
      "افكار": 7045,
      "افعال": 7046,
      "افتتان": 7047,
      "افراد": 7048,
      "بانك": 7049,
      "بانتاج": 7050,
      "بانسي": 7051,
      "بانفسنا": 7052,
      "باندورا": 7053,
      "##بعت": 7054,
      "##جلي": 7055,
      "الدقيق": 7056,
      "الدعم": 7057,
      "الدليل": 7058,
      "الدورة": 7059,
      "الدفت": 7060,
      "الدالة": 7061,
      "الدقيقة": 7062,
      "الدروس": 7063,
      "الدخول": 7064,
      "الدفاع": 7065,
      "الدرجات": 7066,
      "الدامس": 7067,
      "الدوجر": 7068,
      "الدراجات": 7069,
      "العالمي": 7070,
      "العالمية": 7071,
      "اقف": 7072,
      "اقرف": 7073,
      "اقسم": 7074,
      "اقابل": 7075,
      "اقتب": 7076,
      "اقتنع": 7077,
      "اقضيها": 7078,
      "اقناع": 7079,
      "كنتم": 7080,
      "كنتاكي": 7081,
      "كنتالوب": 7082,
      "##واليس": 7083,
      "##شاش": 7084,
      "##شاري": 7085,
      "##شافك": 7086,
      "الخبر": 7087,
      "الخطو": 7088,
      "الخطا": 7089,
      "الخفية": 7090,
      "الخوالي": 7091,
      "الخدمة": 7092,
      "الخريف": 7093,
      "الخامس": 7094,
      "الخبراء": 7095,
      "الخوض": 7096,
      "الخشبية": 7097,
      "الخامسة": 7098,
      "##قعية": 7099,
      "ارد": 7100,
      "ارمي": 7101,
      "ارقص": 7102,
      "ارتف": 7103,
      "ارجع": 7104,
      "ارثر": 7105,
      "اروقة": 7106,
      "ارجو": 7107,
      "ارقام": 7108,
      "ارهابي": 7109,
      "اريرز": 7110,
      "ارباعه": 7111,
      "ارجاع": 7112,
      "حوله": 7113,
      "حولي": 7114,
      "حولها": 7115,
      "##تيك": 7116,
      "##مروا": 7117,
      "##مرور": 7118,
      "ستين": 7119,
      "ستتنا": 7120,
      "ستذهب": 7121,
      "ستفهم": 7122,
      "ستستخدم": 7123,
      "ستنظر": 7124,
      "ستجد": 7125,
      "ستصبح": 7126,
      "ستنتهي": 7127,
      "ستطعم": 7128,
      "ستنتج": 7129,
      "ستومن": 7130,
      "ستتحرك": 7131,
      "ستقلب": 7132,
      "ستخفض": 7133,
      "ستنجح": 7134,
      "ستوول": 7135,
      "ستلاحظ": 7136,
      "##بيعة": 7137,
      "##بيتها": 7138,
      "الصيف": 7139,
      "الصناعة": 7140,
      "الصدمة": 7141,
      "الصراعات": 7142,
      "الصارخ": 7143,
      "الواعدة": 7144,
      "الواضح": 7145,
      "الواجبات": 7146,
      "وقدرة": 7147,
      "وقدرته": 7148,
      "ينشا": 7149,
      "ينوي": 7150,
      "ينجز": 7151,
      "ينظم": 7152,
      "ينمو": 7153,
      "ينقي": 7154,
      "ينزف": 7155,
      "ينعكس": 7156,
      "ينشان": 7157,
      "##فيذي": 7158,
      "##شرح": 7159,
      "##شرات": 7160,
      "##شروا": 7161,
      "##انيين": 7162,
      "باخ": 7163,
      "باكثر": 7164,
      "باقل": 7165,
      "باعادة": 7166,
      "باطفال": 7167,
      "باعلى": 7168,
      "بافضل": 7169,
      "باكا": 7170,
      "باختيار": 7171,
      "باذك": 7172,
      "باسبوع": 7173,
      "باخراج": 7174,
      "باهرا": 7175,
      "باغلاق": 7176,
      "باظهار": 7177,
      "باثار": 7178,
      "بارايهم": 7179,
      "باكلمها": 7180,
      "بهوب": 7181,
      "بهندسة": 7182,
      "ويب": 7183,
      "ويغير": 7184,
      "ويولي": 7185,
      "ويوما": 7186,
      "ويصبح": 7187,
      "ويتني": 7188,
      "ويطلب": 7189,
      "ويتعرفون": 7190,
      "ويحرك": 7191,
      "ويحتاج": 7192,
      "ويبقى": 7193,
      "ويخط": 7194,
      "ويتحدث": 7195,
      "ويقدرون": 7196,
      "ويتنافس": 7197,
      "ويوحد": 7198,
      "ويثمن": 7199,
      "ويجروا": 7200,
      "##ظرنا": 7201,
      "##ظرها": 7202,
      "##ظرات": 7203,
      "حيالها": 7204,
      "حيالهم": 7205,
      "حيواني": 7206,
      "##تهون": 7207,
      "##بدع": 7208,
      "##بدال": 7209,
      "##نعهم": 7210,
      "الليز": 7211,
      "اللذة": 7212,
      "اللالعاب": 7213,
      "الليديين": 7214,
      "اللمحات": 7215,
      "الليمون": 7216,
      "الكامل": 7217,
      "الكتف": 7218,
      "الكيميايية": 7219,
      "الكترونية": 7220,
      "الكاملة": 7221,
      "الكشافة": 7222,
      "الكافي": 7223,
      "الكاتب": 7224,
      "الكواكب": 7225,
      "الكامنة": 7226,
      "الكواليس": 7227,
      "الالية": 7228,
      "الاليك": 7229,
      "الالتقاء": 7230,
      "الالكترونية": 7231,
      "الالواح": 7232,
      "فانهم": 7233,
      "متن": 7234,
      "متسا": 7235,
      "متغير": 7236,
      "متشك": 7237,
      "متفاء": 7238,
      "متقطع": 7239,
      "متغيرات": 7240,
      "متصلة": 7241,
      "متنوعة": 7242,
      "متناقض": 7243,
      "متفرد": 7244,
      "متعلمين": 7245,
      "متتاب": 7246,
      "متكامل": 7247,
      "متالقة": 7248,
      "متواجد": 7249,
      "متوقعة": 7250,
      "متقبلة": 7251,
      "متتالية": 7252,
      "متذوقي": 7253,
      "متطرف": 7254,
      "مترابطا": 7255,
      "متاملا": 7256,
      "متلاحم": 7257,
      "متصفحا": 7258,
      "متقطعة": 7259,
      "الاشد": 7260,
      "الاشجار": 7261,
      "الاشعاعات": 7262,
      "اخرج": 7263,
      "اخرون": 7264,
      "ساقبل": 7265,
      "سايلة": 7266,
      "ساعد": 7267,
      "ساعات": 7268,
      "ساختار": 7269,
      "ساظهر": 7270,
      "ساريكم": 7271,
      "ساحق": 7272,
      "ساجني": 7273,
      "ساقولها": 7274,
      "ساحدثكم": 7275,
      "ساشرح": 7276,
      "مثلي": 7277,
      "مثلنا": 7278,
      "وانت": 7279,
      "وانك": 7280,
      "وانما": 7281,
      "وانكم": 7282,
      "وانتم": 7283,
      "وانظر": 7284,
      "وانقر": 7285,
      "وانطلق": 7286,
      "##نوه": 7287,
      "##نونا": 7288,
      "##نوبل": 7289,
      "##سمية": 7290,
      "##سمون": 7291,
      "##سموا": 7292,
      "##ياره": 7293,
      "تاثر": 7294,
      "تاخرت": 7295,
      "تاثرت": 7296,
      "##تحها": 7297,
      "##بتت": 7298,
      "##بتنا": 7299,
      "##بتين": 7300,
      "##ويه": 7301,
      "الاسود": 7302,
      "الاسماء": 7303,
      "الاسفن": 7304,
      "الاسبرين": 7305,
      "ونقوم": 7306,
      "ونسبة": 7307,
      "ونجاح": 7308,
      "وننظر": 7309,
      "ونلعب": 7310,
      "ونحصل": 7311,
      "ونحتاج": 7312,
      "ونقلب": 7313,
      "ونكاد": 7314,
      "وندعو": 7315,
      "ونشجع": 7316,
      "ونقلها": 7317,
      "##سيج": 7318,
      "##سيين": 7319,
      "##سيكية": 7320,
      "المادة": 7321,
      "الماسا": 7322,
      "المايية": 7323,
      "المايت": 7324,
      "الماخو": 7325,
      "الماكرونة": 7326,
      "المايكر": 7327,
      "مللا": 7328,
      "ملتص": 7329,
      "ملونه": 7330,
      "ملهمة": 7331,
      "ملحو": 7332,
      "ملونة": 7333,
      "ملموس": 7334,
      "ملامح": 7335,
      "وقام": 7336,
      "وقتا": 7337,
      "وقبل": 7338,
      "وقوى": 7339,
      "وقتنا": 7340,
      "وقريبا": 7341,
      "وقيود": 7342,
      "وقمنا": 7343,
      "وقادرة": 7344,
      "وقوارب": 7345,
      "وقارنتها": 7346,
      "وقيمتها": 7347,
      "وقسموا": 7348,
      "##ييون": 7349,
      "الربع": 7350,
      "الرسم": 7351,
      "الروب": 7352,
      "الرخي": 7353,
      "الرومان": 7354,
      "الرحلة": 7355,
      "الرسوم": 7356,
      "الرسالة": 7357,
      "الرطبة": 7358,
      "الرياح": 7359,
      "الرعاية": 7360,
      "الرتبة": 7361,
      "الرهانات": 7362,
      "الرياضي": 7363,
      "الروابط": 7364,
      "الرومانية": 7365,
      "بعضنا": 7366,
      "بعضكم": 7367,
      "احوال": 7368,
      "احتاج": 7369,
      "احترام": 7370,
      "احتض": 7371,
      "احضان": 7372,
      "احساس": 7373,
      "احضرت": 7374,
      "احثكم": 7375,
      "امم": 7376,
      "اموال": 7377,
      "امثل": 7378,
      "امريك": 7379,
      "امضى": 7380,
      "امريكان": 7381,
      "امضوا": 7382,
      "امنيتك": 7383,
      "بينغ": 7384,
      "بيننا": 7385,
      "شخصا": 7386,
      "شخصيا": 7387,
      "##ضلها": 7388,
      "##ضلين": 7389,
      "##ضليل": 7390,
      "الغرق": 7391,
      "الغرفة": 7392,
      "الغطاء": 7393,
      "الغربية": 7394,
      "الغنم": 7395,
      "الغنايية": 7396,
      "الغواصات": 7397,
      "الغلاف": 7398,
      "بدروس": 7399,
      "استقل": 7400,
      "استجاب": 7401,
      "استعمال": 7402,
      "استكشافية": 7403,
      "استثمار": 7404,
      "استمتع": 7405,
      "استمرارية": 7406,
      "استلهم": 7407,
      "استمري": 7408,
      "استماع": 7409,
      "استقطاب": 7410,
      "كمثل": 7411,
      "كميرا": 7412,
      "كمصنع": 7413,
      "كميرات": 7414,
      "كمبيوترات": 7415,
      "كمتحمس": 7416,
      "كماليه": 7417,
      "كموجة": 7418,
      "كمبدع": 7419,
      "ثمرة": 7420,
      "ثمانية": 7421,
      "يعود": 7422,
      "يعدد": 7423,
      "يعتمد": 7424,
      "يعطون": 7425,
      "يعطين": 7426,
      "يعودوا": 7427,
      "يعالج": 7428,
      "يعترف": 7429,
      "##كيبة": 7430,
      "فعلية": 7431,
      "فعلها": 7432,
      "فعلتم": 7433,
      "فعليك": 7434,
      "فعلوه": 7435,
      "مستخدم": 7436,
      "مستلق": 7437,
      "مستقب": 7438,
      "مستقلت": 7439,
      "مستدامة": 7440,
      "مستديمة": 7441,
      "مستغلين": 7442,
      "مستحيلا": 7443,
      "مستمرة": 7444,
      "مستكشفا": 7445,
      "مستواهم": 7446,
      "مستويه": 7447,
      "يجول": 7448,
      "يجعلك": 7449,
      "يجمعها": 7450,
      "تعض": 7451,
      "تعيد": 7452,
      "تعتقد": 7453,
      "تعاني": 7454,
      "تعامل": 7455,
      "تعقي": 7456,
      "تعنى": 7457,
      "تعريف": 7458,
      "تعتمد": 7459,
      "تعذب": 7460,
      "تعتقدون": 7461,
      "تعجبت": 7462,
      "تعشعش": 7463,
      "تقم": 7464,
      "تقيم": 7465,
      "تقود": 7466,
      "تقرر": 7467,
      "تقترح": 7468,
      "تقييم": 7469,
      "تقابلكم": 7470,
      "تقنيات": 7471,
      "تقنعهم": 7472,
      "حقيقيون": 7473,
      "عايقا": 7474,
      "عازفي": 7475,
      "يتعلم": 7476,
      "يتسبب": 7477,
      "يتلق": 7478,
      "يتنون": 7479,
      "يتقات": 7480,
      "يتوقف": 7481,
      "يتعلمون": 7482,
      "يتطلب": 7483,
      "يتوافق": 7484,
      "يتكاس": 7485,
      "يتذكرون": 7486,
      "يتعرض": 7487,
      "يتضور": 7488,
      "يتالف": 7489,
      "يتمكنوا": 7490,
      "اطر": 7491,
      "اطبق": 7492,
      "اطلاع": 7493,
      "اطنان": 7494,
      "اطراف": 7495,
      "اطبخ": 7496,
      "اطلعكم": 7497,
      "اطمح": 7498,
      "اطالع": 7499,
      "اطرافا": 7500,
      "كبسولة": 7501,
      "كبسول": 7502,
      "وموث": 7503,
      "ومياه": 7504,
      "ومواجه": 7505,
      "ومستقبل": 7506,
      "ومخلفات": 7507,
      "ومغام": 7508,
      "ومصم": 7509,
      "ومهارات": 7510,
      "ومغامرة": 7511,
      "وموثرات": 7512,
      "ومفيد": 7513,
      "ومفهوم": 7514,
      "ومشاكل": 7515,
      "ومتحمس": 7516,
      "وموخرا": 7517,
      "ومحطم": 7518,
      "ومالذي": 7519,
      "ومراكب": 7520,
      "ومحدود": 7521,
      "ومباشرة": 7522,
      "##ربى": 7523,
      "##وبية": 7524,
      "##وبولوجيا": 7525,
      "##حاه": 7526,
      "##حاث": 7527,
      "##حاصيل": 7528,
      "اليومية": 7529,
      "اشكر": 7530,
      "اشرف": 7531,
      "اشتق": 7532,
      "اشبه": 7533,
      "اشغف": 7534,
      "اشارك": 7535,
      "اشجار": 7536,
      "اشكركم": 7537,
      "اشكالها": 7538,
      "اشينكا": 7539,
      "اشيايه": 7540,
      "اشترت": 7541,
      "اشبعت": 7542,
      "هلمج": 7543,
      "##يجال": 7544,
      "##يجية": 7545,
      "##سايل": 7546,
      "##ساومة": 7547,
      "##ساءل": 7548,
      "لوهلة": 7549,
      "لوحده": 7550,
      "الوضع": 7551,
      "الوباء": 7552,
      "الوحدة": 7553,
      "الوثايقية": 7554,
      "الوحدات": 7555,
      "الوفاة": 7556,
      "المتدة": 7557,
      "المتعبة": 7558,
      "المتعاون": 7559,
      "المتوقع": 7560,
      "المتقطع": 7561,
      "المتصفح": 7562,
      "المتدني": 7563,
      "المتدرب": 7564,
      "المتواصل": 7565,
      "المتعلقة": 7566,
      "المتوفر": 7567,
      "المتكامل": 7568,
      "المتالقة": 7569,
      "المتوقعة": 7570,
      "المتنامية": 7571,
      "المتواجدة": 7572,
      "المتعلمة": 7573,
      "المتخصصة": 7574,
      "##وقتها": 7575,
      "اتصل": 7576,
      "اتعلم": 7577,
      "اتعرف": 7578,
      "اتذكر": 7579,
      "اتوقع": 7580,
      "اتضح": 7581,
      "اتصلت": 7582,
      "اتجول": 7583,
      "اتجاهات": 7584,
      "اتساءل": 7585,
      "لهجة": 7586,
      "لهدف": 7587,
      "##عرت": 7588,
      "##عروا": 7589,
      "للغذاء": 7590,
      "لتكون": 7591,
      "لتعلم": 7592,
      "لتستطيع": 7593,
      "لتشكل": 7594,
      "لتقليل": 7595,
      "لتساعد": 7596,
      "لتوفر": 7597,
      "لتتبع": 7598,
      "لتنفيذ": 7599,
      "لتضاف": 7600,
      "لتتاكدوا": 7601,
      "لتقولها": 7602,
      "لتجنب": 7603,
      "لتسجيل": 7604,
      "لتخفي": 7605,
      "لتثبي": 7606,
      "مختلفت": 7607,
      "يقف": 7608,
      "يقال": 7609,
      "يقين": 7610,
      "يقارب": 7611,
      "يقرر": 7612,
      "يقترب": 7613,
      "يقوقعوا": 7614,
      "##ضعون": 7615,
      "##ضعتها": 7616,
      "بتجربة": 7617,
      "بتقليل": 7618,
      "بتعليم": 7619,
      "بتعق": 7620,
      "بتوسع": 7621,
      "بتضمين": 7622,
      "بتنظيف": 7623,
      "بتوظيف": 7624,
      "بتسعين": 7625,
      "بتصدي": 7626,
      "بتاتا": 7627,
      "بتكليف": 7628,
      "بتوجيه": 7629,
      "بتسمية": 7630,
      "بسببها": 7631,
      "فقدنا": 7632,
      "فقدره": 7633,
      "نظم": 7634,
      "نظرك": 7635,
      "نظهر": 7636,
      "نظفنا": 7637,
      "نظيفا": 7638,
      "وجب": 7639,
      "وجولي": 7640,
      "وجدنا": 7641,
      "وجيزة": 7642,
      "وجوهر": 7643,
      "وجيرانك": 7644,
      "وجعلها": 7645,
      "وجيمي": 7646,
      "وكانه": 7647,
      "يحل": 7648,
      "يحس": 7649,
      "يحرك": 7650,
      "يحبون": 7651,
      "يحلق": 7652,
      "يحضر": 7653,
      "يحبط": 7654,
      "يحسن": 7655,
      "يحسون": 7656,
      "يحتض": 7657,
      "يحولون": 7658,
      "يحترق": 7659,
      "يحتفل": 7660,
      "يحظى": 7661,
      "##متها": 7662,
      "##متكم": 7663,
      "##طفنا": 7664,
      "##طفية": 7665,
      "بلغ": 7666,
      "بلون": 7667,
      "بلعبة": 7668,
      "بليو": 7669,
      "بلدان": 7670,
      "بلوغ": 7671,
      "بلانس": 7672,
      "بليغ": 7673,
      "بصنع": 7674,
      "بصرية": 7675,
      "بصوت": 7676,
      "بصراحة": 7677,
      "بطل": 7678,
      "بطون": 7679,
      "بطعم": 7680,
      "بطولة": 7681,
      "بطالة": 7682,
      "بطرح": 7683,
      "بطونها": 7684,
      "بطبيعة": 7685,
      "تعلمتها": 7686,
      "تعلمناه": 7687,
      "تعلموها": 7688,
      "وبلا": 7689,
      "وبفعل": 7690,
      "وبسبب": 7691,
      "وبقي": 7692,
      "وبيانات": 7693,
      "وبقية": 7694,
      "وبقدر": 7695,
      "وبهذه": 7696,
      "وببساطة": 7697,
      "وبخطوة": 7698,
      "وبصورة": 7699,
      "وبمرور": 7700,
      "ومنحها": 7701,
      "##رتها": 7702,
      "##راتيجية": 7703,
      "##ذيب": 7704,
      "##ذيبها": 7705,
      "الامد": 7706,
      "الامان": 7707,
      "الاموال": 7708,
      "الاميال": 7709,
      "الامبرا": 7710,
      "الامطار": 7711,
      "##وليين": 7712,
      "اصر": 7713,
      "اصعب": 7714,
      "اصبت": 7715,
      "اصغر": 7716,
      "اصالحها": 7717,
      "اصلاحه": 7718,
      "جمعية": 7719,
      "جمعوا": 7720,
      "جمعه": 7721,
      "جمعتم": 7722,
      "جمالهم": 7723,
      "##هيك": 7724,
      "##تمامي": 7725,
      "للمال": 7726,
      "للميات": 7727,
      "للمرة": 7728,
      "للمحيط": 7729,
      "للمفاعل": 7730,
      "للمواد": 7731,
      "للمهمة": 7732,
      "للمجاعة": 7733,
      "للمساعدة": 7734,
      "للمخط": 7735,
      "للمولد": 7736,
      "للمشاهد": 7737,
      "للمعادلة": 7738,
      "للمعاني": 7739,
      "للموتى": 7740,
      "للمحتوى": 7741,
      "للمجتمع": 7742,
      "للمحاصيل": 7743,
      "اكيد": 7744,
      "اكتب": 7745,
      "اكسيد": 7746,
      "تكونوا": 7747,
      "حياتها": 7748,
      "صنعه": 7749,
      "صنعت": 7750,
      "صنعها": 7751,
      "صنعوا": 7752,
      "عمله": 7753,
      "عملت": 7754,
      "عملنا": 7755,
      "عمليا": 7756,
      "عمليات": 7757,
      "الزيادة": 7758,
      "الزمان": 7759,
      "الزهرية": 7760,
      "الزهري": 7761,
      "الزايد": 7762,
      "الزوايد": 7763,
      "الزجاجة": 7764,
      "الثوم": 7765,
      "الثورة": 7766,
      "الثوب": 7767,
      "الثراء": 7768,
      "الثدى": 7769,
      "قليلون": 7770,
      "مالكول": 7771,
      "مالينس": 7772,
      "##عدات": 7773,
      "##خرين": 7774,
      "اجاب": 7775,
      "اجمل": 7776,
      "اجيد": 7777,
      "اجود": 7778,
      "اجبت": 7779,
      "اجهزة": 7780,
      "اجندة": 7781,
      "اجسام": 7782,
      "اجادوا": 7783,
      "حدى": 7784,
      "حدودا": 7785,
      "صحيحا": 7786,
      "المستمر": 7787,
      "المستشف": 7788,
      "المستحيل": 7789,
      "المستعدون": 7790,
      "المستديم": 7791,
      "المستعجلة": 7792,
      "المستنفذ": 7793,
      "واحضر": 7794,
      "واحسن": 7795,
      "واحترام": 7796,
      "واحتمال": 7797,
      "واحتض": 7798,
      "واحده": 7799,
      "نحتاجه": 7800,
      "بيدي": 7801,
      "بياني": 7802,
      "بيضاء": 7803,
      "بيانية": 7804,
      "بيكا": 7805,
      "بيولوجي": 7806,
      "بنى": 7807,
      "بنقل": 7808,
      "بنوع": 7809,
      "بنسبة": 7810,
      "بنجاح": 7811,
      "بنهاية": 7812,
      "بنحو": 7813,
      "بنضال": 7814,
      "بنظري": 7815,
      "بنسلف": 7816,
      "خلفي": 7817,
      "خلفية": 7818,
      "فاول": 7819,
      "فاصل": 7820,
      "فاذهب": 7821,
      "فاوما": 7822,
      "فاشل": 7823,
      "فاجبت": 7824,
      "فاشار": 7825,
      "فاجيب": 7826,
      "فايدتها": 7827,
      "مدراء": 7828,
      "مدونة": 7829,
      "مدهشة": 7830,
      "مدهشا": 7831,
      "مدفوعة": 7832,
      "ورغم": 7833,
      "ورياض": 7834,
      "ورواية": 7835,
      "ورمزا": 7836,
      "ورصهم": 7837,
      "وحين": 7838,
      "وحول": 7839,
      "وحصل": 7840,
      "وحبل": 7841,
      "وحبي": 7842,
      "وحتما": 7843,
      "وحمراء": 7844,
      "وحينها": 7845,
      "وحديثي": 7846,
      "##كتورا": 7847,
      "##كتفاء": 7848,
      "##كتياب": 7849,
      "اخذنا": 7850,
      "اخذها": 7851,
      "اخذين": 7852,
      "اخذتهم": 7853,
      "تجمل": 7854,
      "تجبر": 7855,
      "تجعد": 7856,
      "تجدد": 7857,
      "تجتمع": 7858,
      "تجده": 7859,
      "تجذب": 7860,
      "تجفف": 7861,
      "تجعلك": 7862,
      "ربطات": 7863,
      "ربطتو": 7864,
      "مفتاحا": 7865,
      "نتغير": 7866,
      "نتطور": 7867,
      "نتصفح": 7868,
      "نتجول": 7869,
      "نتظاهر": 7870,
      "نتختر": 7871,
      "نتصرف": 7872,
      "نتجاوز": 7873,
      "نتكلم": 7874,
      "نتفاداه": 7875,
      "ولاية": 7876,
      "ولادت": 7877,
      "ولاوليك": 7878,
      "تمثل": 7879,
      "تمشين": 7880,
      "تمثيلية": 7881,
      "لكالفورنيا": 7882,
      "مزيج": 7883,
      "مزيفة": 7884,
      "مزدهر": 7885,
      "مزخرفة": 7886,
      "##هدات": 7887,
      "##هدين": 7888,
      "##اصات": 7889,
      "##عملها": 7890,
      "##كسد": 7891,
      "العليا": 7892,
      "العليى": 7893,
      "اللازمة": 7894,
      "اللاسلكية": 7895,
      "انتوني": 7896,
      "انتخابات": 7897,
      "انتصارات": 7898,
      "انتهاء": 7899,
      "انتقلنا": 7900,
      "ادى": 7901,
      "ادخل": 7902,
      "ادمر": 7903,
      "ادعو": 7904,
      "ادنى": 7905,
      "ادوارد": 7906,
      "ادلف": 7907,
      "كتلة": 7908,
      "كتغيير": 7909,
      "كتجارب": 7910,
      "ناثان": 7911,
      "نافذ": 7912,
      "ناخذهم": 7913,
      "ناهيك": 7914,
      "##فعوا": 7915,
      "##وزيع": 7916,
      "##خذو": 7917,
      "##خذكم": 7918,
      "والمال": 7919,
      "والمثير": 7920,
      "والمشكلة": 7921,
      "والمحيط": 7922,
      "والمواد": 7923,
      "والمصم": 7924,
      "والمناق": 7925,
      "والمبيدات": 7926,
      "والمهند": 7927,
      "والمعما": 7928,
      "والمعادلة": 7929,
      "والمخيلة": 7930,
      "والمطالبة": 7931,
      "والمستنقع": 7932,
      "والمفاجاة": 7933,
      "والمعدات": 7934,
      "عالمي": 7935,
      "عالميا": 7936,
      "فهل": 7937,
      "مهمتك": 7938,
      "مهمتان": 7939,
      "نريدها": 7940,
      "##ردات": 7941,
      "##كبير": 7942,
      "##كبسولة": 7943,
      "الهث": 7944,
      "الهشة": 7945,
      "الهبوط": 7946,
      "الهالوي": 7947,
      "الهوسية": 7948,
      "الراي": 7949,
      "الراسي": 7950,
      "الراغب": 7951,
      "الرابعة": 7952,
      "عندك": 7953,
      "عندنا": 7954,
      "السمكية": 7955,
      "تاثيره": 7956,
      "تاثيرية": 7957,
      "بحق": 7958,
      "بحرف": 7959,
      "بحسب": 7960,
      "بحرق": 7961,
      "بحلة": 7962,
      "بحياة": 7963,
      "بحثي": 7964,
      "بحذر": 7965,
      "بحزمة": 7966,
      "بحفظ": 7967,
      "بحقن": 7968,
      "بحمد": 7969,
      "بحقيقتكم": 7970,
      "بحياته": 7971,
      "تتعلم": 7972,
      "تتحدث": 7973,
      "تتسبب": 7974,
      "تتخذ": 7975,
      "تتذكر": 7976,
      "تتطلب": 7977,
      "تتوافق": 7978,
      "تتضمن": 7979,
      "تتظاهر": 7980,
      "تتواجد": 7981,
      "تتجاوز": 7982,
      "تتدخل": 7983,
      "تتشوق": 7984,
      "تتوافر": 7985,
      "جزيا": 7986,
      "جزيي": 7987,
      "جزيء": 7988,
      "عامة": 7989,
      "عاملا": 7990,
      "لناخذ": 7991,
      "مجمل": 7992,
      "مجنون": 7993,
      "مجسمات": 7994,
      "مجانين": 7995,
      "مجنونا": 7996,
      "مصور": 7997,
      "مصورة": 7998,
      "مصحو": 7999,
      "مصنوعة": 8000,
      "مصراعي": 8001,
      "مصنوعون": 8002,
      "##مونا": 8003,
      "البحرية": 8004,
      "البحوث": 8005,
      "الشيخو": 8006,
      "جميعنا": 8007,
      "جميعكم": 8008,
      "اثري": 8009,
      "اثرا": 8010,
      "اثرت": 8011,
      "اثنين": 8012,
      "اثرها": 8013,
      "اثنتين": 8014,
      "اثبتت": 8015,
      "تنقية": 8016,
      "تنفذ": 8017,
      "تنبو": 8018,
      "تنضمو": 8019,
      "تنهدات": 8020,
      "تصور": 8021,
      "تصدم": 8022,
      "تصدر": 8023,
      "تصدق": 8024,
      "تصوير": 8025,
      "تصرخ": 8026,
      "تصويرا": 8027,
      "حلها": 8028,
      "حلوى": 8029,
      "فالذي": 8030,
      "فاللعب": 8031,
      "فالالية": 8032,
      "فالعكس": 8033,
      "فالتحول": 8034,
      "فالاسبوع": 8035,
      "فالريش": 8036,
      "فالعلاقة": 8037,
      "فالسبابة": 8038,
      "مقال": 8039,
      "مقتص": 8040,
      "مقربة": 8041,
      "مقابل": 8042,
      "مقالا": 8043,
      "مقمرا": 8044,
      "مقتنع": 8045,
      "مقاربات": 8046,
      "مقرم": 8047,
      "مقبول": 8048,
      "##افري": 8049,
      "##افقه": 8050,
      "##رصي": 8051,
      "##طيكم": 8052,
      "المنصة": 8053,
      "المنظم": 8054,
      "المنقول": 8055,
      "المنبعث": 8056,
      "المنظور": 8057,
      "##ولوجية": 8058,
      "##ولوجيات": 8059,
      "للتحد": 8060,
      "للتغيير": 8061,
      "للتكيف": 8062,
      "للتعاون": 8063,
      "للتخلص": 8064,
      "للتنفيذ": 8065,
      "للتسيير": 8066,
      "للتكنلوج": 8067,
      "للتفاول": 8068,
      "للتصفية": 8069,
      "للتكبير": 8070,
      "القصير": 8071,
      "القصوى": 8072,
      "القصيدة": 8073,
      "القصتين": 8074,
      "اسمع": 8075,
      "اسمها": 8076,
      "اسمهم": 8077,
      "اسمحلي": 8078,
      "اسمعها": 8079,
      "بمحاولة": 8080,
      "بمستطا": 8081,
      "بمزرعة": 8082,
      "بمواك": 8083,
      "بملاحظة": 8084,
      "بمجموعة": 8085,
      "بمهارة": 8086,
      "بمعايير": 8087,
      "تفعلها": 8088,
      "تفعلوا": 8089,
      "جعلنا": 8090,
      "جعلوا": 8091,
      "جعلتهم": 8092,
      "جعلتها": 8093,
      "جعلناها": 8094,
      "جيدين": 8095,
      "رايي": 8096,
      "راينا": 8097,
      "رايته": 8098,
      "رايتها": 8099,
      "رايناه": 8100,
      "وسهلة": 8101,
      "وسنستخدم": 8102,
      "وسالني": 8103,
      "ياكله": 8104,
      "ياخذه": 8105,
      "##زفين": 8106,
      "الارضية": 8107,
      "بالمثل": 8108,
      "بالمفاعل": 8109,
      "بالمواد": 8110,
      "بالملاحظة": 8111,
      "بالمناسبة": 8112,
      "بالمهمات": 8113,
      "بالمزيد": 8114,
      "بالمفاهيم": 8115,
      "بالموسسات": 8116,
      "بالمساومة": 8117,
      "العادي": 8118,
      "العاشبة": 8119,
      "العاديين": 8120,
      "العاطفية": 8121,
      "العازفين": 8122,
      "والتحدث": 8123,
      "والتفاعل": 8124,
      "والتكيف": 8125,
      "والتكلفة": 8126,
      "والتعاون": 8127,
      "والتلو": 8128,
      "والتخلص": 8129,
      "والتنظيم": 8130,
      "والتوسع": 8131,
      "والتجارة": 8132,
      "والتضليل": 8133,
      "والتوزيع": 8134,
      "عليهن": 8135,
      "اريدكم": 8136,
      "بكلمات": 8137,
      "فنفس": 8138,
      "فنستطيع": 8139,
      "قادوا": 8140,
      "قادرا": 8141,
      "قادرة": 8142,
      "نوبة": 8143,
      "نووي": 8144,
      "نوعها": 8145,
      "نوعين": 8146,
      "##اهما": 8147,
      "##لتكم": 8148,
      "##جابات": 8149,
      "##ماءالبي": 8150,
      "##ارعونه": 8151,
      "وهنالك": 8152,
      "تطور": 8153,
      "تطعيم": 8154,
      "تطبيق": 8155,
      "صفر": 8156,
      "صفراء": 8157,
      "صفوه": 8158,
      "فكره": 8159,
      "فكرك": 8160,
      "فكرية": 8161,
      "كالاتي": 8162,
      "كالابرة": 8163,
      "كالضفاد": 8164,
      "كالنرد": 8165,
      "كالقرص": 8166,
      "كالسجل": 8167,
      "كاليفورنيا": 8168,
      "كالكبسولة": 8169,
      "مروا": 8170,
      "مرور": 8171,
      "مرضا": 8172,
      "مروع": 8173,
      "مرحة": 8174,
      "مرورك": 8175,
      "مرتاح": 8176,
      "مرهق": 8177,
      "مرشحة": 8178,
      "مرخصا": 8179,
      "مسالة": 8180,
      "مسعى": 8181,
      "مسحو": 8182,
      "مسلحين": 8183,
      "مسطحة": 8184,
      "مسكنة": 8185,
      "منابر": 8186,
      "مناظرة": 8187,
      "مناظري": 8188,
      "منافسينا": 8189,
      "نصور": 8190,
      "نصنف": 8191,
      "نصيحة": 8192,
      "نصطاد": 8193,
      "وكلهم": 8194,
      "وكلاهما": 8195,
      "يومض": 8196,
      "يومها": 8197,
      "##فهموني": 8198,
      "##وتات": 8199,
      "##وتين": 8200,
      "##وتوكول": 8201,
      "##حصت": 8202,
      "##حصين": 8203,
      "المزارع": 8204,
      "المزارعين": 8205,
      "المحفز": 8206,
      "المحبو": 8207,
      "المحميات": 8208,
      "المحامون": 8209,
      "المشاريع": 8210,
      "الاستدامة": 8211,
      "الاستجابة": 8212,
      "الاستهلا": 8213,
      "الاستوديو": 8214,
      "الاستشاري": 8215,
      "الاستجابات": 8216,
      "الجميل": 8217,
      "الجميلة": 8218,
      "ويمكنكم": 8219,
      "اذكياء": 8220,
      "برودة": 8221,
      "بروح": 8222,
      "برغم": 8223,
      "بروتينات": 8224,
      "برمجيات": 8225,
      "برنكن": 8226,
      "برغمي": 8227,
      "برهامز": 8228,
      "برسايل": 8229,
      "برمتها": 8230,
      "بروتين": 8231,
      "بسعادة": 8232,
      "بسعر": 8233,
      "بسياق": 8234,
      "بسعادتهم": 8235,
      "بسمارك": 8236,
      "تشارك": 8237,
      "تشايك": 8238,
      "تشعرك": 8239,
      "تشارلز": 8240,
      "تمارين": 8241,
      "ذاته": 8242,
      "ذاتي": 8243,
      "ذاتية": 8244,
      "سببه": 8245,
      "ممارسة": 8246,
      "مكانها": 8247,
      "نعرفه": 8248,
      "نعرفها": 8249,
      "نظره": 8250,
      "نظروا": 8251,
      "نظرتم": 8252,
      "نظرتنا": 8253,
      "الكميات": 8254,
      "الكمبيوتر": 8255,
      "الكمبيوترات": 8256,
      "انماط": 8257,
      "التحديد": 8258,
      "التحسين": 8259,
      "##راضات": 8260,
      "لايحة": 8261,
      "احبه": 8262,
      "احبها": 8263,
      "يقولها": 8264,
      "مالوفا": 8265,
      "اهميته": 8266,
      "اقلل": 8267,
      "امرر": 8268,
      "تدون": 8269,
      "تدور": 8270,
      "تدمر": 8271,
      "تدفق": 8272,
      "تدعى": 8273,
      "تدفعنا": 8274,
      "تدفعوا": 8275,
      "تغيرا": 8276,
      "تغيرنا": 8277,
      "سنري": 8278,
      "سنصل": 8279,
      "سنفعل": 8280,
      "سنحل": 8281,
      "سنشهد": 8282,
      "فلمي": 8283,
      "موضع": 8284,
      "موضوع": 8285,
      "موكد": 8286,
      "موتمر": 8287,
      "مويدين": 8288,
      "موتمرات": 8289,
      "نشك": 8290,
      "نشات": 8291,
      "نشهد": 8292,
      "نشجع": 8293,
      "نشذب": 8294,
      "وورلد": 8295,
      "يشح": 8296,
      "يشار": 8297,
      "يشمل": 8298,
      "يشعلوا": 8299,
      "يشابه": 8300,
      "يشعروا": 8301,
      "##عناهم": 8302,
      "المعاني": 8303,
      "المعيار": 8304,
      "المعركة": 8305,
      "المعالج": 8306,
      "المعجزات": 8307,
      "المعجبين": 8308,
      "المعطيات": 8309,
      "المعماري": 8310,
      "المجري": 8311,
      "المجتمعات": 8312,
      "الاطلاع": 8313,
      "الاطراف": 8314,
      "الاطلن": 8315,
      "التاكسد": 8316,
      "الانسيابية": 8317,
      "اختفاء": 8318,
      "اختفى": 8319,
      "اسماكنا": 8320,
      "الاساسي": 8321,
      "حدثا": 8322,
      "حدثت": 8323,
      "ابداعنا": 8324,
      "ابداعهم": 8325,
      "تركه": 8326,
      "تركها": 8327,
      "تركيا": 8328,
      "دايمة": 8329,
      "راض": 8330,
      "راى": 8331,
      "رايد": 8332,
      "راوهم": 8333,
      "رجلي": 8334,
      "فضيع": 8335,
      "فضايي": 8336,
      "فضولا": 8337,
      "فضوليين": 8338,
      "قصيرة": 8339,
      "قصيدة": 8340,
      "قصاصة": 8341,
      "قصاصات": 8342,
      "لحالة": 8343,
      "لحسن": 8344,
      "لحماية": 8345,
      "محو": 8346,
      "محبي": 8347,
      "محطة": 8348,
      "محونا": 8349,
      "محمية": 8350,
      "محصلة": 8351,
      "محطم": 8352,
      "محسوب": 8353,
      "محتاجا": 8354,
      "مشترك": 8355,
      "مشوه": 8356,
      "مشهور": 8357,
      "مشغلين": 8358,
      "مشاركة": 8359,
      "هاما": 8360,
      "هايل": 8361,
      "ومازل": 8362,
      "ومازلت": 8363,
      "وضعه": 8364,
      "وضعت": 8365,
      "وضعوا": 8366,
      "وضعيف": 8367,
      "وضعتهم": 8368,
      "وضعناها": 8369,
      "##فقوني": 8370,
      "##تصاب": 8371,
      "##حرى": 8372,
      "الاحوال": 8373,
      "الاحياء": 8374,
      "الاحادية": 8375,
      "الاحساس": 8376,
      "الاحاسيس": 8377,
      "الاحفوري": 8378,
      "العاملة": 8379,
      "اعرفهم": 8380,
      "اعرفكم": 8381,
      "اسبانية": 8382,
      "يجعلها": 8383,
      "يجعلهم": 8384,
      "يجعلني": 8385,
      "نظامهم": 8386,
      "داخلية": 8387,
      "اغني": 8388,
      "اغنى": 8389,
      "اغنية": 8390,
      "اغلقت": 8391,
      "اغدو": 8392,
      "اغتصاب": 8393,
      "تسعة": 8394,
      "تسقط": 8395,
      "تسجل": 8396,
      "تسحق": 8397,
      "تسهيل": 8398,
      "تسيلون": 8399,
      "تخرب": 8400,
      "تخزين": 8401,
      "تخريب": 8402,
      "تخبرنا": 8403,
      "تخزن": 8404,
      "تخطر": 8405,
      "تخبره": 8406,
      "تخبرني": 8407,
      "تكنولوجيات": 8408,
      "تستطيعين": 8409,
      "تستطيعوا": 8410,
      "جلل": 8411,
      "جلبت": 8412,
      "جلسة": 8413,
      "جلعها": 8414,
      "حالنا": 8415,
      "حاليا": 8416,
      "حالته": 8417,
      "حالاته": 8418,
      "ذاك": 8419,
      "ذاكرة": 8420,
      "سالك": 8421,
      "سالنا": 8422,
      "سالبة": 8423,
      "سالونين": 8424,
      "مولد": 8425,
      "مولم": 8426,
      "مولود": 8427,
      "مولده": 8428,
      "مولدات": 8429,
      "مخلوقا": 8430,
      "##يتك": 8431,
      "##يتال": 8432,
      "##يتور": 8433,
      "##يناف": 8434,
      "##ويله": 8435,
      "##شفته": 8436,
      "للعقد": 8437,
      "للعديد": 8438,
      "للعزف": 8439,
      "للعطلة": 8440,
      "للعوالق": 8441,
      "للعقلاء": 8442,
      "بالاكل": 8443,
      "بالاهمية": 8444,
      "بالاحباط": 8445,
      "بالاضافة": 8446,
      "بالاكتياب": 8447,
      "بالاحرى": 8448,
      "بالتفكير": 8449,
      "بالتفاعل": 8450,
      "بالتجارب": 8451,
      "بالتعامل": 8452,
      "بالتفريق": 8453,
      "بالتفايل": 8454,
      "بالتعق": 8455,
      "بالتتبع": 8456,
      "بالتنظيم": 8457,
      "بالتشويش": 8458,
      "بالطريقة": 8459,
      "والاهم": 8460,
      "والاشك": 8461,
      "والازدهار": 8462,
      "والاعتما": 8463,
      "والاحترام": 8464,
      "والاشخاص": 8465,
      "والاستكشا": 8466,
      "والافاعي": 8467,
      "والاوبية": 8468,
      "والاكتفاء": 8469,
      "تحتاجها": 8470,
      "الكبير": 8471,
      "المستقبلية": 8472,
      "ابين": 8473,
      "ابطا": 8474,
      "ابعاد": 8475,
      "ابايي": 8476,
      "ابالغ": 8477,
      "بشخص": 8478,
      "بشانه": 8479,
      "بشهادته": 8480,
      "بامر": 8481,
      "بامرين": 8482,
      "بناءا": 8483,
      "تودي": 8484,
      "طريقه": 8485,
      "طريقها": 8486,
      "عميق": 8487,
      "عمقا": 8488,
      "عميقا": 8489,
      "فهمه": 8490,
      "فهمت": 8491,
      "فهمنا": 8492,
      "فهموا": 8493,
      "قويا": 8494,
      "قوتنا": 8495,
      "قوتهم": 8496,
      "قوتها": 8497,
      "قاموا": 8498,
      "قاموسي": 8499,
      "مهوسا": 8500,
      "مهتري": 8501,
      "مهياين": 8502,
      "مضغف": 8503,
      "مضادات": 8504,
      "مضخات": 8505,
      "مضطرب": 8506,
      "مخيف": 8507,
      "مخجل": 8508,
      "مخفية": 8509,
      "مخادعة": 8510,
      "مخطيون": 8511,
      "نعتقد": 8512,
      "نعثر": 8513,
      "نعتمد": 8514,
      "نعزز": 8515,
      "نعطيه": 8516,
      "يسعى": 8517,
      "يسلينا": 8518,
      "القدر": 8519,
      "القدامى": 8520,
      "المحنة": 8521,
      "الاعظم": 8522,
      "الاعشاب": 8523,
      "الاعشاش": 8524,
      "الاخير": 8525,
      "الاخطر": 8526,
      "##ياضات": 8527,
      "لاعبي": 8528,
      "لاعبين": 8529,
      "لاعبينا": 8530,
      "للافلام": 8531,
      "للاجابة": 8532,
      "للاثارة": 8533,
      "للاعماق": 8534,
      "للاخرين": 8535,
      "للقرية": 8536,
      "بالسوء": 8537,
      "بالسحر": 8538,
      "بالسكين": 8539,
      "بالسياسة": 8540,
      "بالسياق": 8541,
      "بالسرطان": 8542,
      "##ابلية": 8543,
      "##لاقها": 8544,
      "ولمساعدة": 8545,
      "كتابا": 8546,
      "كتابتي": 8547,
      "كتابتها": 8548,
      "امامي": 8549,
      "امامنا": 8550,
      "امامه": 8551,
      "اراه": 8552,
      "اراد": 8553,
      "اراها": 8554,
      "ارادة": 8555,
      "اراكم": 8556,
      "املي": 8557,
      "بداية": 8558,
      "بداخلك": 8559,
      "بداخلها": 8560,
      "تسمية": 8561,
      "تسميمه": 8562,
      "تغييرا": 8563,
      "تغييرها": 8564,
      "تغييرات": 8565,
      "حارا": 8566,
      "حادة": 8567,
      "حاصل": 8568,
      "حاضر": 8569,
      "حاجة": 8570,
      "سوالهم": 8571,
      "لعرض": 8572,
      "لعبت": 8573,
      "لعبوا": 8574,
      "لعبتنا": 8575,
      "مذهلا": 8576,
      "مشاهدة": 8577,
      "نصفنا": 8578,
      "نصفين": 8579,
      "نجاحاتي": 8580,
      "وينبغي": 8581,
      "وينطبق": 8582,
      "وينتج": 8583,
      "وينصرف": 8584,
      "وينتقل": 8585,
      "وينغمس": 8586,
      "يدوم": 8587,
      "يدفي": 8588,
      "يدفعنا": 8589,
      "يستطيعوا": 8590,
      "##فضها": 8591,
      "##تانيوم": 8592,
      "المقال": 8593,
      "المقالة": 8594,
      "المقارنة": 8595,
      "المقويات": 8596,
      "المقاربة": 8597,
      "المقاربات": 8598,
      "المخيلة": 8599,
      "المخاطر": 8600,
      "المخادعة": 8601,
      "المخاوف": 8602,
      "المخادعين": 8603,
      "المصحة": 8604,
      "المصاعب": 8605,
      "المصارعة": 8606,
      "للنصف": 8607,
      "للنجاح": 8608,
      "للنفسية": 8609,
      "للنهو": 8610,
      "للنماذج": 8611,
      "للنفسيي": 8612,
      "بالغوص": 8613,
      "بالغلبة": 8614,
      "بالغضب": 8615,
      "واعطى": 8616,
      "البروتوكول": 8617,
      "اسواق": 8618,
      "وانهياره": 8619,
      "استخدمه": 8620,
      "استخدموا": 8621,
      "مستقبلنا": 8622,
      "مستقبلهم": 8623,
      "مختلفان": 8624,
      "وبالنظر": 8625,
      "وبالتاكيد": 8626,
      "وبالطبع": 8627,
      "وبالاتفاق": 8628,
      "##بحثون": 8629,
      "بنفسه": 8630,
      "بنفسي": 8631,
      "بنفسك": 8632,
      "فكرتين": 8633,
      "اختياره": 8634,
      "اختيارنا": 8635,
      "اختيارهم": 8636,
      "اهتم": 8637,
      "اهتمام": 8638,
      "اهزها": 8639,
      "اهله": 8640,
      "اهتمامي": 8641,
      "تبني": 8642,
      "تبعا": 8643,
      "تبذل": 8644,
      "تواكب": 8645,
      "تواجد": 8646,
      "توازن": 8647,
      "توافقوني": 8648,
      "تقوموا": 8649,
      "تفكيره": 8650,
      "تفكيرك": 8651,
      "جيني": 8652,
      "جينيه": 8653,
      "جينكجو": 8654,
      "خطير": 8655,
      "ذهلت": 8656,
      "سمع": 8657,
      "سمكتي": 8658,
      "طبيبي": 8659,
      "عرضة": 8660,
      "عرضت": 8661,
      "فعالية": 8662,
      "فعالا": 8663,
      "فلديك": 8664,
      "فلديهم": 8665,
      "فلغتنا": 8666,
      "فوقه": 8667,
      "فوقي": 8668,
      "قالوا": 8669,
      "قولنا": 8670,
      "قولها": 8671,
      "قولون": 8672,
      "قولونه": 8673,
      "كاين": 8674,
      "كاخذ": 8675,
      "كاشياء": 8676,
      "كاعظم": 8677,
      "كاذبا": 8678,
      "كاسترونو": 8679,
      "كاعاقتي": 8680,
      "لشيي": 8681,
      "لشركة": 8682,
      "لشيء": 8683,
      "لسنة": 8684,
      "مرضى": 8685,
      "مرضية": 8686,
      "مرتبة": 8687,
      "مرتبط": 8688,
      "مرتبكون": 8689,
      "ويقرر": 8690,
      "ويقضون": 8691,
      "ويقولون": 8692,
      "ويقراون": 8693,
      "ويقومون": 8694,
      "يبنون": 8695,
      "يبطي": 8696,
      "يبنغي": 8697,
      "يبشروا": 8698,
      "يبنوه": 8699,
      "يخرج": 8700,
      "يخفض": 8701,
      "يخسر": 8702,
      "يخترق": 8703,
      "يخضعون": 8704,
      "يعرفها": 8705,
      "##هوة": 8706,
      "##صممون": 8707,
      "الذاتي": 8708,
      "الكلام": 8709,
      "انجلوس": 8710,
      "انجلترا": 8711,
      "انظروا": 8712,
      "منهجه": 8713,
      "منتشر": 8714,
      "منتشيا": 8715,
      "منتجين": 8716,
      "منطقة": 8717,
      "منطقيا": 8718,
      "الملف": 8719,
      "المليون": 8720,
      "الملهمة": 8721,
      "المليارات": 8722,
      "الملوثات": 8723,
      "الملحمة": 8724,
      "الملخصات": 8725,
      "المنافسة": 8726,
      "المناشير": 8727,
      "المناظرات": 8728,
      "المدرسية": 8729,
      "الاثر": 8730,
      "##راهن": 8731,
      "الحاسمة": 8732,
      "اليسار": 8733,
      "لنقلها": 8734,
      "باستمرا": 8735,
      "استخدامي": 8736,
      "يتحدثوا": 8737,
      "وجوده": 8738,
      "مفيدين": 8739,
      "مفهومان": 8740,
      "مفهومين": 8741,
      "مفهوميه": 8742,
      "مزارعها": 8743,
      "مزارعون": 8744,
      "نشعرهم": 8745,
      "القادمين": 8746,
      "اسبوعين": 8747,
      "اضيق": 8748,
      "اضحك": 8749,
      "اضغط": 8750,
      "اضعاف": 8751,
      "اضاعة": 8752,
      "اضافي": 8753,
      "اضافة": 8754,
      "بفكرة": 8755,
      "بفترة": 8756,
      "بفرصي": 8757,
      "بفحصين": 8758,
      "بوظيف": 8759,
      "تفرقة": 8760,
      "تفتحها": 8761,
      "تفضلها": 8762,
      "تفحصت": 8763,
      "تروي": 8764,
      "ترمي": 8765,
      "ترغب": 8766,
      "ترسلها": 8767,
      "تربيتها": 8768,
      "ترعرت": 8769,
      "تخيله": 8770,
      "تخيلوا": 8771,
      "تقدمها": 8772,
      "جادة": 8773,
      "جاوداليجيف": 8774,
      "جاهدين": 8775,
      "جدير": 8776,
      "جدوى": 8777,
      "حديقة": 8778,
      "طفلها": 8779,
      "طعامنا": 8780,
      "طعامكم": 8781,
      "عانت": 8782,
      "عانوا": 8783,
      "فرط": 8784,
      "فرجلي": 8785,
      "فسلة": 8786,
      "فوزي": 8787,
      "كرست": 8788,
      "كرماء": 8789,
      "كرنب": 8790,
      "كرسبيس": 8791,
      "كنكهة": 8792,
      "كنسيج": 8793,
      "لفظ": 8794,
      "لفكرة": 8795,
      "لفرضية": 8796,
      "لدين": 8797,
      "لدعم": 8798,
      "لماية": 8799,
      "لفعله": 8800,
      "محدود": 8801,
      "مفاجي": 8802,
      "معلوماتنا": 8803,
      "ندور": 8804,
      "ندخل": 8805,
      "ندرك": 8806,
      "ندفع": 8807,
      "نخجل": 8808,
      "نخرج": 8809,
      "نخطط": 8810,
      "نخفضها": 8811,
      "وعرض": 8812,
      "وعدم": 8813,
      "وعزفت": 8814,
      "وعقار": 8815,
      "وعظات": 8816,
      "وعانى": 8817,
      "واردت": 8818,
      "وارغب": 8819,
      "وارقص": 8820,
      "وارسال": 8821,
      "وبدات": 8822,
      "وبدون": 8823,
      "وسيصل": 8824,
      "وسيتج": 8825,
      "وسيتحول": 8826,
      "وسيشعر": 8827,
      "وسيودى": 8828,
      "وسيبحثون": 8829,
      "وبعده": 8830,
      "وبعدها": 8831,
      "وبعضها": 8832,
      "يستحيل": 8833,
      "يستفيد": 8834,
      "يستثمر": 8835,
      "يستمع": 8836,
      "النادر": 8837,
      "النامي": 8838,
      "النامية": 8839,
      "الناشية": 8840,
      "الهايل": 8841,
      "الرقص": 8842,
      "الرقمية": 8843,
      "انتمي": 8844,
      "المفهوم": 8845,
      "المفضلين": 8846,
      "المفردات": 8847,
      "المدى": 8848,
      "المدينة": 8849,
      "المعدات": 8850,
      "المعدينة": 8851,
      "الادلة": 8852,
      "الادلاء": 8853,
      "للسكان": 8854,
      "للسفينة": 8855,
      "للسيارات": 8856,
      "للسخرية": 8857,
      "بالقهر": 8858,
      "بالقرب": 8859,
      "بالقوى": 8860,
      "بالقهوة": 8861,
      "العقدين": 8862,
      "والرضا": 8863,
      "والربع": 8864,
      "والروح": 8865,
      "والرغبة": 8866,
      "والرومان": 8867,
      "والرياضات": 8868,
      "والقى": 8869,
      "والقفز": 8870,
      "والقيمة": 8871,
      "والقابلية": 8872,
      "اخترع": 8873,
      "اخترعت": 8874,
      "اخترعوا": 8875,
      "اخبره": 8876,
      "اخبرني": 8877,
      "اخبروني": 8878,
      "اخبرتك": 8879,
      "الفضايية": 8880,
      "لانقاذك": 8881,
      "النووية": 8882,
      "الشبكات": 8883,
      "##يمياويات": 8884,
      "الصحية": 8885,
      "الصحراء": 8886,
      "يعملوه": 8887,
      "اطعامها": 8888,
      "ومعتاد": 8889,
      "اصابع": 8890,
      "اصابعنا": 8891,
      "اصابعه": 8892,
      "اصبحت": 8893,
      "اصبحنا": 8894,
      "اصبحوا": 8895,
      "الثلاث": 8896,
      "الثلاجات": 8897,
      "الثلاثين": 8898,
      "المنطقي": 8899,
      "نصنعها": 8900,
      "نصنعنها": 8901,
      "اينما": 8902,
      "اتممت": 8903,
      "اجله": 8904,
      "اجلت": 8905,
      "ببراعة": 8906,
      "ببساطة": 8907,
      "ببالو": 8908,
      "بثقب": 8909,
      "بماية": 8910,
      "برايه": 8911,
      "براسه": 8912,
      "برامجه": 8913,
      "تكاد": 8914,
      "تكسب": 8915,
      "تكريس": 8916,
      "تكشف": 8917,
      "تكوين": 8918,
      "تلاشى": 8919,
      "تواجهنا": 8920,
      "تواجههن": 8921,
      "تجاهه": 8922,
      "تجاهك": 8923,
      "تجاهلها": 8924,
      "ثواني": 8925,
      "جنونا": 8926,
      "جلده": 8927,
      "حبذا": 8928,
      "خياله": 8929,
      "خيالي": 8930,
      "خيالنا": 8931,
      "خمسين": 8932,
      "دارسي": 8933,
      "دعمت": 8934,
      "دعمها": 8935,
      "دانيي": 8936,
      "رياضة": 8937,
      "رياضية": 8938,
      "رقمية": 8939,
      "سببا": 8940,
      "سببت": 8941,
      "صديق": 8942,
      "صديقة": 8943,
      "صديقتي": 8944,
      "ضمنها": 8945,
      "ضمنهم": 8946,
      "طفلا": 8947,
      "طفلة": 8948,
      "طفولي": 8949,
      "فالمحنة": 8950,
      "فالمسالة": 8951,
      "فالمدراء": 8952,
      "فالمقدرة": 8953,
      "فالمصممون": 8954,
      "قايد": 8955,
      "قايلا": 8956,
      "قايلين": 8957,
      "قطعنا": 8958,
      "قرار": 8959,
      "قرارا": 8960,
      "قابلية": 8961,
      "لاتطعم": 8962,
      "لاتعجب": 8963,
      "لاتلوث": 8964,
      "مكعبة": 8965,
      "مكونا": 8966,
      "مكالمات": 8967,
      "مكياج": 8968,
      "مثلا": 8969,
      "مثالي": 8970,
      "متميز": 8971,
      "متميزة": 8972,
      "نستهلك": 8973,
      "نستهلكها": 8974,
      "نستثمر": 8975,
      "نستحضر": 8976,
      "نستعملها": 8977,
      "نسمع": 8978,
      "نسمح": 8979,
      "نسميهم": 8980,
      "نسميها": 8981,
      "نسميهن": 8982,
      "نعمله": 8983,
      "نستخدمها": 8984,
      "وثقب": 8985,
      "وثايقية": 8986,
      "وثمينة": 8987,
      "وعليك": 8988,
      "وعليهم": 8989,
      "وعلماءالبي": 8990,
      "يعلمك": 8991,
      "يعلموا": 8992,
      "يريدوا": 8993,
      "يعيشوه": 8994,
      "يملكون": 8995,
      "يملكونه": 8996,
      "##منيتور": 8997,
      "##جيح": 8998,
      "##جيكم": 8999,
      "##خاذ": 9000,
      "##صرناها": 9001,
      "الدافع": 9002,
      "الداخلي": 9003,
      "الداخلية": 9004,
      "انجازه": 9005,
      "انجازاتنا": 9006,
      "انخفاضات": 9007,
      "المسك": 9008,
      "المسول": 9009,
      "المسالة": 9010,
      "المسرح": 9011,
      "المسارات": 9012,
      "المتاح": 9013,
      "المعرفي": 9014,
      "المعرفية": 9015,
      "المجمعة": 9016,
      "المجموعة": 9017,
      "المسايل": 9018,
      "المساعي": 9019,
      "المساحة": 9020,
      "المساوي": 9021,
      "المساعدة": 9022,
      "الاصعب": 9023,
      "الاصبع": 9024,
      "الاصعدة": 9025,
      "الاصطناعية": 9026,
      "الاصابع": 9027,
      "الابره": 9028,
      "التسكع": 9029,
      "لاحقة": 9030,
      "للطريقة": 9031,
      "للطريق": 9032,
      "للاسوا": 9033,
      "بالكاد": 9034,
      "بالكفاية": 9035,
      "بالكيمياويات": 9036,
      "والعديد": 9037,
      "والعكس": 9038,
      "والعوالق": 9039,
      "معدلات": 9040,
      "الحاسب": 9041,
      "الحكومات": 9042,
      "واقفا": 9043,
      "واقفة": 9044,
      "واقارن": 9045,
      "البييات": 9046,
      "البياني": 9047,
      "البيضاء": 9048,
      "البيولوجي": 9049,
      "البيتروت": 9050,
      "ليكونوا": 9051,
      "القولون": 9052,
      "القولونات": 9053,
      "اعطنا": 9054,
      "اعطوا": 9055,
      "اعطني": 9056,
      "اعطاني": 9057,
      "اعطايي": 9058,
      "اعادوا": 9059,
      "الفايز": 9060,
      "الفايزين": 9061,
      "ولاتستطيع": 9062,
      "ولاتعد": 9063,
      "ولاتنتج": 9064,
      "ولاتفهموني": 9065,
      "ولاتراهن": 9066,
      "الجزييات": 9067,
      "وتحول": 9068,
      "وتحرق": 9069,
      "وتحسها": 9070,
      "وتحديات": 9071,
      "وتحويله": 9072,
      "تاخذنا": 9073,
      "تاخذها": 9074,
      "الغالبية": 9075,
      "يعنيه": 9076,
      "يعتقدون": 9077,
      "يعتقدوا": 9078,
      "يحملها": 9079,
      "يحملون": 9080,
      "بطولته": 9081,
      "تجعلها": 9082,
      "تجاربنا": 9083,
      "فهنالك": 9084,
      "ياكلوا": 9085,
      "تطعمونها": 9086,
      "مجموعات": 9087,
      "مجموعين": 9088,
      "الافتراضات": 9089,
      "الفضولية": 9090,
      "ازمة": 9091,
      "ازالة": 9092,
      "ازددت": 9093,
      "ازعجني": 9094,
      "اقدر": 9095,
      "اتركها": 9096,
      "بقوا": 9097,
      "بقضاء": 9098,
      "بقوتهم": 9099,
      "بقربى": 9100,
      "باسم": 9101,
      "باسراف": 9102,
      "باسمها": 9103,
      "بييية": 9104,
      "بييتهم": 9105,
      "تستحق": 9106,
      "تستضيف": 9107,
      "تكرارا": 9108,
      "تكرارها": 9109,
      "حراس": 9110,
      "حرارتها": 9111,
      "حاولنا": 9112,
      "خبراء": 9113,
      "خبيرا": 9114,
      "خاصته": 9115,
      "خاصتنا": 9116,
      "خاصتكم": 9117,
      "سكيلمان": 9118,
      "سيعمل": 9119,
      "سيعبر": 9120,
      "سيمد": 9121,
      "سيمضي": 9122,
      "سيموت": 9123,
      "سيمضون": 9124,
      "سبقها": 9125,
      "سوءا": 9126,
      "شكلت": 9127,
      "شكلها": 9128,
      "طويلا": 9129,
      "طولها": 9130,
      "عدن": 9131,
      "عدوى": 9132,
      "عدلت": 9133,
      "عمرها": 9134,
      "عشرات": 9135,
      "عشرين": 9136,
      "كينج": 9137,
      "كارثة": 9138,
      "كارنيجي": 9139,
      "كاينا": 9140,
      "كاينات": 9141,
      "كافى": 9142,
      "كافية": 9143,
      "لقوتهم": 9144,
      "لذيذ": 9145,
      "مقدمة": 9146,
      "مقدارعلى": 9147,
      "ميلون": 9148,
      "ميلين": 9149,
      "ميلاد": 9150,
      "مخيلتي": 9151,
      "مريضه": 9152,
      "مريضين": 9153,
      "نيتروج": 9154,
      "نرغب": 9155,
      "نرسلها": 9156,
      "نرسل": 9157,
      "نرتمى": 9158,
      "نقيم": 9159,
      "نقمة": 9160,
      "نقفز": 9161,
      "نقضيها": 9162,
      "نسيت": 9163,
      "نسيء": 9164,
      "نضعها": 9165,
      "نكتب": 9166,
      "وزن": 9167,
      "وزيت": 9168,
      "وفوق": 9169,
      "وفحص": 9170,
      "وفاتي": 9171,
      "وفرنا": 9172,
      "واتعرفون": 9173,
      "واتعرق": 9174,
      "واتقنتها": 9175,
      "واتمنى": 9176,
      "ويريد": 9177,
      "ويريك": 9178,
      "ويرتفع": 9179,
      "ويرافقه": 9180,
      "وواحد": 9181,
      "وواحدة": 9182,
      "وواحدا": 9183,
      "وواقعية": 9184,
      "وستصل": 9185,
      "وستحتاج": 9186,
      "وراى": 9187,
      "ورايي": 9188,
      "ورايت": 9189,
      "ورايهم": 9190,
      "وعندها": 9191,
      "يره": 9192,
      "يروا": 9193,
      "يرغبون": 9194,
      "يرسمون": 9195,
      "يكمل": 9196,
      "يكذبون": 9197,
      "يصلها": 9198,
      "يفعله": 9199,
      "يفعلون": 9200,
      "يسمح": 9201,
      "##اديات": 9202,
      "##روريون": 9203,
      "##واته": 9204,
      "الاتجاهات": 9205,
      "الاتحاه": 9206,
      "الاتروريون": 9207,
      "الرييس": 9208,
      "الرييسي": 9209,
      "الستين": 9210,
      "الستراتيجية": 9211,
      "الخلفية": 9212,
      "انتهت": 9213,
      "انتهيت": 9214,
      "الموضوع": 9215,
      "المويدين": 9216,
      "المثلثات": 9217,
      "المرضى": 9218,
      "الابقاء": 9219,
      "الابعاد": 9220,
      "الابلاغ": 9221,
      "الابحاث": 9222,
      "الاصلح": 9223,
      "الابداعية": 9224,
      "الارتفاع": 9225,
      "الارتباط": 9226,
      "الارتياح": 9227,
      "الارتباك": 9228,
      "التنظيم": 9229,
      "التنبو": 9230,
      "التنزانية": 9231,
      "التنفيذي": 9232,
      "التخرج": 9233,
      "التخزين": 9234,
      "التصرف": 9235,
      "التصريف": 9236,
      "التقيت": 9237,
      "التقينا": 9238,
      "للجرار": 9239,
      "للجوعى": 9240,
      "العمق": 9241,
      "العمود": 9242,
      "والصين": 9243,
      "والصور": 9244,
      "والصراع": 9245,
      "والصعوب": 9246,
      "والانماط": 9247,
      "الحديث": 9248,
      "واستخدام": 9249,
      "واستمتع": 9250,
      "واستمرارية": 9251,
      "واستبدال": 9252,
      "واقعيون": 9253,
      "البعيد": 9254,
      "البداييون": 9255,
      "اختراق": 9256,
      "اعترف": 9257,
      "اعتقادي": 9258,
      "اعمق": 9259,
      "اعمدة": 9260,
      "اعطيت": 9261,
      "اعطيك": 9262,
      "اعطيتموني": 9263,
      "اعطيتكم": 9264,
      "الفندق": 9265,
      "ولوضع": 9266,
      "ولاننا": 9267,
      "ولانني": 9268,
      "اساسيا": 9269,
      "تحاولون": 9270,
      "الجدول": 9271,
      "الجدار": 9272,
      "وتقولون": 9273,
      "افريقي": 9274,
      "اقصها": 9275,
      "الاسفلت": 9276,
      "احداث": 9277,
      "احتماليه": 9278,
      "امكاننا": 9279,
      "امكانية": 9280,
      "امكانيات": 9281,
      "امكانيتك": 9282,
      "تقريرنا": 9283,
      "لتصدق": 9284,
      "لتصريف": 9285,
      "لتصاميم": 9286,
      "لتصحيح": 9287,
      "يقضونها": 9288,
      "بتغييرها": 9289,
      "يحتاجونه": 9290,
      "اصدقايك": 9291,
      "اصدقايه": 9292,
      "فاجابني": 9293,
      "العلامات": 9294,
      "فالسكين": 9295,
      "ثلاثية": 9296,
      "ثلاثماية": 9297,
      "نصدقهم": 9298,
      "التحديات": 9299,
      "تركيزها": 9300,
      "تسالوا": 9301,
      "ابواب": 9302,
      "الاسبوعين": 9303,
      "اذهلني": 9304,
      "ايدول": 9305,
      "ايدوس": 9306,
      "ايديلوج": 9307,
      "بضمان": 9308,
      "بجورن": 9309,
      "بجايزة": 9310,
      "بجانب": 9311,
      "بتحويل": 9312,
      "بتحسين": 9313,
      "بتحلية": 9314,
      "بارعين": 9315,
      "بوجودنا": 9316,
      "تزرع": 9317,
      "تزداد": 9318,
      "تزدهر": 9319,
      "تغرق": 9320,
      "توقعا": 9321,
      "تايمز": 9322,
      "توفي": 9323,
      "تعرفت": 9324,
      "تتحول": 9325,
      "تتحسن": 9326,
      "تتحقق": 9327,
      "تجميع": 9328,
      "تستخدمونه": 9329,
      "تقطعين": 9330,
      "تقطعينها": 9331,
      "جروح": 9332,
      "جوعا": 9333,
      "جوناس": 9334,
      "جوهرية": 9335,
      "جامعة": 9336,
      "جاهزين": 9337,
      "جاهزا": 9338,
      "جاهزون": 9339,
      "حضرت": 9340,
      "حقنه": 9341,
      "حقوقي": 9342,
      "حققتها": 9343,
      "درس": 9344,
      "درسنا": 9345,
      "درسا": 9346,
      "دوايية": 9347,
      "راسه": 9348,
      "راسلت": 9349,
      "رسمي": 9350,
      "رسمية": 9351,
      "سهلا": 9352,
      "سرطان": 9353,
      "شهيا": 9354,
      "شايع": 9355,
      "شاشة": 9356,
      "شاحنة": 9357,
      "شرحها": 9358,
      "صحفي": 9359,
      "صحفية": 9360,
      "صحيفة": 9361,
      "صريحين": 9362,
      "ضعفا": 9363,
      "طايرة": 9364,
      "طاولة": 9365,
      "طاهي": 9366,
      "طلبنا": 9367,
      "غواصا": 9368,
      "فسيكون": 9369,
      "فسيظهر": 9370,
      "فسيتذكرون": 9371,
      "فقالوا": 9372,
      "قابلة": 9373,
      "قايدا": 9374,
      "قايمة": 9375,
      "قايمتكم": 9376,
      "قضيناها": 9377,
      "قياسها": 9378,
      "كذبة": 9379,
      "كذكريات": 9380,
      "كذالك": 9381,
      "كاملة": 9382,
      "كامنة": 9383,
      "كاميرا": 9384,
      "كادت": 9385,
      "لبول": 9386,
      "لبناء": 9387,
      "لبضعة": 9388,
      "لغة": 9389,
      "لثاني": 9390,
      "لثمان": 9391,
      "لثلاث": 9392,
      "لحلول": 9393,
      "لجعلي": 9394,
      "لجعلها": 9395,
      "مبهم": 9396,
      "مبني": 9397,
      "مبنية": 9398,
      "مغرما": 9399,
      "مغلقة": 9400,
      "مغناطيسية": 9401,
      "مطار": 9402,
      "مطابق": 9403,
      "مطابقة": 9404,
      "مذاق": 9405,
      "مذاقه": 9406,
      "مذاقها": 9407,
      "مرادف": 9408,
      "مشرد": 9409,
      "مساء": 9410,
      "مساهمتي": 9411,
      "مساواته": 9412,
      "مثالية": 9413,
      "ننجز": 9414,
      "نكنسه": 9415,
      "نتاقلم": 9416,
      "نصلحها": 9417,
      "نهرع": 9418,
      "نجحت": 9419,
      "نموذجي": 9420,
      "هزه": 9421,
      "هزيمة": 9422,
      "هزمونا": 9423,
      "هاتفت": 9424,
      "هدفنا": 9425,
      "وصعب": 9426,
      "وصناعية": 9427,
      "وصورناه": 9428,
      "وهاهو": 9429,
      "ونتحدث": 9430,
      "ونتيجة": 9431,
      "ونتحرك": 9432,
      "وباخذهم": 9433,
      "وباعط": 9434,
      "وباستيع": 9435,
      "يودي": 9436,
      "يوكل": 9437,
      "يوصلوا": 9438,
      "يغشون": 9439,
      "يغثى": 9440,
[...]
