{
  "version": "1.0",
  "truncation": null,
  "padding": null,
  "added_tokens": [
    {
      "id": 0,
      "content": "<UNK>",
      "single_word": false,
      "lstrip": false,
      "rstrip": false,
      "normalized": false,
      "special": true
    },
    {
      "id": 1,
      "content": "<SEP>",
      "single_word": false,
      "lstrip": false,
      "rstrip": false,
      "normalized": false,
      "special": true
    },
    {
      "id": 2,
      "content": "<MASK>",
      "single_word": false,
      "lstrip": false,
      "rstrip": false,
      "normalized": false,
      "special": true
    },
    {
      "id": 3,
      "content": "<CLS>",
      "single_word": false,
      "lstrip": false,
      "rstrip": false,
      "normalized": false,
      "special": true
    },
    {
      "id": 4,
      "content": "<PAD>",
      "single_word": false,
      "lstrip": false,
      "rstrip": false,
      "normalized": false,
      "special": true
    }
  ],
  "normalizer": {
    "type": "Sequence",
    "normalizers": [
      {
        "type": "NFD"
      },
      {
        "type": "StripAccents"
      }
    ]
  },
  "pre_tokenizer": {
    "type": "Sequence",
    "pretokenizers": [
      {
        "type": "Whitespace"
      },
      {
        "type": "Digits",
        "individual_digits": true
      }
    ]
  },
  "post_processor": {
    "type": "TemplateProcessing",
    "single": [
      {
        "SpecialToken": {
          "id": "[CLS]",
          "type_id": 0
        }
      },
      {
        "Sequence": {
          "id": "A",
          "type_id": 0
        }
      },
      {
        "SpecialToken": {
          "id": "[SEP]",
          "type_id": 0
        }
      }
    ],
    "pair": [
      {
        "SpecialToken": {
          "id": "[CLS]",
          "type_id": 0
        }
      },
      {
        "Sequence": {
          "id": "A",
          "type_id": 0
        }
      },
      {
        "SpecialToken": {
          "id": "[SEP]",
          "type_id": 0
        }
      },
      {
        "Sequence": {
          "id": "B",
          "type_id": 1
        }
      },
      {
        "SpecialToken": {
          "id": "[SEP]",
          "type_id": 1
        }
      }
    ],
    "special_tokens": {
      "[CLS]": {
        "id": "[CLS]",
        "ids": [
          1
        ],
        "tokens": [
          "[CLS]"
        ]
      },
      "[SEP]": {
        "id": "[SEP]",
        "ids": [
          2
        ],
        "tokens": [
          "[SEP]"
        ]
      }
    }
  },
  "decoder": {
    "type": "WordPiece",
    "prefix": "##",
    "cleanup": true
  },
  "model": {
    "type": "WordPiece",
    "unk_token": "<UNK>",
    "continuing_subword_prefix": "##",
    "max_input_chars_per_word": 100,
    "vocab": {
      "<UNK>": 0,
      "<SEP>": 1,
      "<MASK>": 2,
      "<CLS>": 3,
      "<PAD>": 4,
      "!": 5,
      "'": 6,
      ",": 7,
      ".": 8,
      "0": 9,
      "1": 10,
      "2": 11,
      "3": 12,
      "4": 13,
      "5": 14,
      "6": 15,
      "7": 16,
      "8": 17,
      "9": 18,
      ":": 19,
      "?": 20,
      "A": 21,
      "B": 22,
      "C": 23,
      "D": 24,
      "E": 25,
      "F": 26,
      "G": 27,
      "H": 28,
      "I": 29,
      "J": 30,
      "K": 31,
      "L": 32,
      "M": 33,
      "N": 34,
      "O": 35,
      "P": 36,
      "Q": 37,
      "R": 38,
      "S": 39,
      "T": 40,
      "U": 41,
      "V": 42,
      "W": 43,
      "X": 44,
      "Y": 45,
      "Z": 46,
      "_": 47,
      "a": 48,
      "b": 49,
      "c": 50,
      "d": 51,
      "e": 52,
      "f": 53,
      "g": 54,
      "h": 55,
      "i": 56,
      "j": 57,
      "k": 58,
      "l": 59,
      "m": 60,
      "n": 61,
      "o": 62,
      "p": 63,
      "q": 64,
      "r": 65,
      "s": 66,
      "t": 67,
      "u": 68,
      "v": 69,
      "w": 70,
      "x": 71,
      "y": 72,
      "z": 73,
      "¿": 74,
      "##c": 75,
      "##h": 76,
      "##o": 77,
      "##l": 78,
      "##g": 79,
      "##i": 80,
      "##r": 81,
      "##u": 82,
      "##f": 83,
      "##n": 84,
      "##a": 85,
      "##s": 86,
      "##e": 87,
      "##d": 88,
      "##b": 89,
      "##k": 90,
      "##v": 91,
      "##w": 92,
      "##p": 93,
      "##t": 94,
      "##W": 95,
      "##F": 96,
      "##A": 97,
      "##m": 98,
      "##y": 99,
      "##x": 100,
      "##V": 101,
      "##q": 102,
      "##D": 103,
      "##L": 104,
      "##z": 105,
      "##G": 106,
      "##j": 107,
      "##H": 108,
      "##S": 109,
      "##K": 110,
      "##C": 111,
      "##O": 112,
      "##N": 113,
      "##M": 114,
      "##R": 115,
      "##E": 116,
      "##Z": 117,
      "##B": 118,
      "##U": 119,
      "##I": 120,
      "##P": 121,
      "##Y": 122,
      "##X": 123,
      "##T": 124,
      "##Q": 125,
      "##J": 126,
      "##'": 127,
      "##.": 128,
      "##he": 129,
      "the": 130,
      "##er": 131,
      "##in": 132,
      "##on": 133,
      "##ed": 134,
      "##nd": 135,
      "##or": 136,
      "##at": 137,
      "##es": 138,
      "##ar": 139,
      "##en": 140,
      "of": 141,
      "##an": 142,
      "##al": 143,
      "in": 144,
      "##ing": 145,
      "##it": 146,
      "##as": 147,
      "##is": 148,
      "and": 149,
      "to": 150,
      "##ic": 151,
      "##ou": 152,
      "##ion": 153,
      "##re": 154,
      "##om": 155,
      "##il": 156,
      "##el": 157,
      "th": 158,
      "##ec": 159,
      "##ent": 160,
      "##st": 161,
      "##am": 162,
      "##et": 163,
      "##ro": 164,
      "##ad": 165,
      "##ac": 166,
      "was": 167,
      "##ur": 168,
      "##ol": 169,
      "on": 170,
      "The": 171,
      "##le": 172,
      "##ly": 173,
      "##ir": 174,
      "for": 175,
      "##id": 176,
      "##ter": 177,
      "##iv": 178,
      "##ig": 179,
      "##ot": 180,
      "as": 181,
      "##ut": 182,
      "##ow": 183,
      "##im": 184,
      "##ith": 185,
      "##ay": 186,
      "st": 187,
      "##em": 188,
      "##ation": 189,
      "with": 190,
      "be": 191,
      "that": 192,
      "##ers": 193,
      "re": 194,
      "wh": 195,
      "##ts": 196,
      "##us": 197,
      "by": 198,
      "##ch": 199,
      "##ce": 200,
      "al": 201,
      "##ver": 202,
      "is": 203,
      "at": 204,
      "con": 205,
      "##ul": 206,
      "##os": 207,
      "##and": 208,
      "##ain": 209,
      "an": 210,
      "##her": 211,
      "fr": 212,
      "##ag": 213,
      "##av": 214,
      "##um": 215,
      "##est": 216,
      "##th": 217,
      "his": 218,
      "##od": 219,
      "##ess": 220,
      "he": 221,
      "##ct": 222,
      "from": 223,
      "##ri": 224,
      "com": 225,
      "##un": 226,
      "##ap": 227,
      "pro": 228,
      "##op": 229,
      "##ere": 230,
      "##ill": 231,
      "##ew": 232,
      "##ist": 233,
      "su": 234,
      "##igh": 235,
      "In": 236,
      "##ear": 237,
      "##ies": 238,
      "##ect": 239,
      "##ber": 240,
      "##ld": 241,
      "##ard": 242,
      "de": 243,
      "##if": 244,
      "##all": 245,
      "were": 246,
      "##ich": 247,
      "##ak": 248,
      "##oc": 249,
      "##ate": 250,
      "##ab": 251,
      "##pp": 252,
      "it": 253,
      "se": 254,
      "ex": 255,
      "##ong": 256,
      "##art": 257,
      "##ud": 258,
      "##ort": 259,
      "ch": 260,
      "or": 261,
      "##gh": 262,
      "##ated": 263,
      "sh": 264,
      "pl": 265,
      "##ity": 266,
      "##se": 267,
      "##ive": 268,
      "##ame": 269,
      "##ore": 270,
      "##ant": 271,
      "had": 272,
      "##our": 273,
      "##ack": 274,
      "St": 275,
      "##rou": 276,
      "##ip": 277,
      "which": 278,
      "##ast": 279,
      "##ge": 280,
      "##ov": 281,
      "##ian": 282,
      "pr": 283,
      "are": 284,
      "##ment": 285,
      "##ell": 286,
      "##ial": 287,
      "not": 288,
      "##ost": 289,
      "sp": 290,
      "##nt": 291,
      "tr": 292,
      "##qu": 293,
      "##ia": 294,
      "##ord": 295,
      "##ust": 296,
      "##ary": 297,
      "##pt": 298,
      "##ther": 299,
      "##ine": 300,
      "le": 301,
      "##rit": 302,
      "##ical": 303,
      "##ave": 304,
      "rec": 305,
      "Ch": 306,
      "##ight": 307,
      "##pl": 308,
      "##ie": 309,
      "##out": 310,
      "##cc": 311,
      "inc": 312,
      "##fter": 313,
      "##ould": 314,
      "but": 315,
      "fir": 316,
      "##ish": 317,
      "##ous": 318,
      "##ions": 319,
      "##ff": 320,
      "int": 321,
      "ar": 322,
      "cont": 323,
      "whe": 324,
      "##so": 325,
      "##ure": 326,
      "her": 327,
      "##og": 328,
      "##ue": 329,
      "first": 330,
      "cl": 331,
      "##ub": 332,
      "##wo": 333,
      "##per": 334,
      "its": 335,
      "##ass": 336,
      "their": 337,
      "##ign": 338,
      "##ok": 339,
      "##ork": 340,
      "##orm": 341,
      "res": 342,
      "##ru": 343,
      "##oll": 344,
      "##ra": 345,
      "##ome": 346,
      "##ater": 347,
      "en": 348,
      "also": 349,
      "ad": 350,
      "ab": 351,
      "##ond": 352,
      "##age": 353,
      "He": 354,
      "##ide": 355,
      "##ry": 356,
      "##mer": 357,
      "##hed": 358,
      "##ire": 359,
      "rel": 360,
      "##ans": 361,
      "per": 362,
      "##ime": 363,
      "un": 364,
      "Th": 365,
      "sc": 366,
      "one": 367,
      "have": 368,
      "##du": 369,
      "##end": 370,
      "##ally": 371,
      "##ence": 372,
      "##own": 373,
      "##ound": 374,
      "##ile": 375,
      "##ance": 376,
      "two": 377,
      "##ition": 378,
      "##ough": 379,
      "who": 380,
      "##iz": 381,
      "##ree": 382,
      "##uring": 383,
      "been": 384,
      "Al": 385,
      "bec": 386,
      "has": 387,
      "ag": 388,
      "##ely": 389,
      "app": 390,
      "##pr": 391,
      "all": 392,
      "dis": 393,
      "##act": 394,
      "ser": 395,
      "this": 396,
      "##lud": 397,
      "##ory": 398,
      "##ey": 399,
      "##ice": 400,
      "year": 401,
      "##ations": 402,
      "##ember": 403,
      "##ach": 404,
      "off": 405,
      "after": 406,
      "##ark": 407,
      "part": 408,
      "comp": 409,
      "It": 410,
      "des": 411,
      "play": 412,
      "over": 413,
      "##ace": 414,
      "##land": 415,
      "out": 416,
      "they": 417,
      "att": 418,
      "##ade": 419,
      "##eas": 420,
      "##ik": 421,
      "other": 422,
      "##ib": 423,
      "man": 424,
      "##ric": 425,
      "##ult": 426,
      "##ens": 427,
      "im": 428,
      "##over": 429,
      "includ": 430,
      "##ail": 431,
      "##ced": 432,
      "##ee": 433,
      "##urn": 434,
      "##wn": 435,
      "would": 436,
      "us": 437,
      "up": 438,
      "##ind": 439,
      "##ang": 440,
      "time": 441,
      "into": 442,
      "##man": 443,
      "pre": 444,
      "##ount": 445,
      "##ward": 446,
      "##oin": 447,
      "him": 448,
      "##ite": 449,
      "##oy": 450,
      "On": 451,
      "Un": 452,
      "##ates": 453,
      "she": 454,
      "##een": 455,
      "ev": 456,
      "##ilm": 457,
      "##able": 458,
      "ne": 459,
      "##ited": 460,
      "##nder": 461,
      "##amp": 462,
      "##ng": 463,
      "##ied": 464,
      "##ction": 465,
      "comm": 466,
      "##ors": 467,
      "inter": 468,
      "##ose": 469,
      "##ents": 470,
      "##ons": 471,
      "##rough": 472,
      "##les": 473,
      "##ood": 474,
      "##ces": 475,
      "more": 476,
      "work": 477,
      "Ar": 478,
      "##aw": 479,
      "##old": 480,
      "##ock": 481,
      "Fr": 482,
      "##form": 483,
      "##ings": 484,
      "##one": 485,
      "##vel": 486,
      "##ick": 487,
      "##etw": 488,
      "##ild": 489,
      "new": 490,
      "##eat": 491,
      "sec": 492,
      "##ft": 493,
      "when": 494,
      "##inal": 495,
      "film": 496,
      "cons": 497,
      "##fer": 498,
      "##ious": 499,
      "##way": 500,
      "##ake": 501,
      "Mar": 502,
      "##iss": 503,
      "##aus": 504,
      "##att": 505,
      "##reat": 506,
      "##round": 507,
      "##rop": 508,
      "rem": 509,
      "##gan": 510,
      "te": 511,
      "##ict": 512,
      "##rib": 513,
      "##ved": 514,
      "##ob": 515,
      "##ss": 516,
      "dec": 517,
      "car": 518,
      "during": 519,
      "##ual": 520,
      "##orth": 521,
      "again": 522,
      "##port": 523,
      "##ubl": 524,
      "most": 525,
      "fl": 526,
      "game": 527,
      "##eld": 528,
      "char": 529,
      "##oth": 530,
      "them": 531,
      "##hip": 532,
      "only": 533,
      "##ason": 534,
      "##ix": 535,
      "ear": 536,
      "Re": 537,
      "##etween": 538,
      "##ollow": 539,
      "than": 540,
      "##ered": 541,
      "##ever": 542,
      "##ational": 543,
      "New": 544,
      "about": 545,
      "produ": 546,
      "ret": 547,
      "cent": 548,
      "##tern": 549,
      "kn": 550,
      "##ug": 551,
      "song": 552,
      "can": 553,
      "##fore": 554,
      "##outh": 555,
      "between": 556,
      "later": 557,
      "##ted": 558,
      "under": 559,
      "##orn": 560,
      "##ters": 561,
      "three": 562,
      "##hn": 563,
      "##ank": 564,
      "##ook": 565,
      "##iew": 566,
      "##aid": 567,
      "##ph": 568,
      "##ath": 569,
      "through": 570,
      "##ve": 571,
      "##orld": 572,
      "num": 573,
      "releas": 574,
      "acc": 575,
      "##eb": 576,
      "while": 577,
      "end": 578,
      "##meric": 579,
      "Americ": 580,
      "act": 581,
      "##ral": 582,
      "pos": 583,
      "sub": 584,
      "so": 585,
      "ass": 586,
      "##ular": 587,
      "where": 588,
      "bu": 589,
      "##te": 590,
      "day": 591,
      "reg": 592,
      "form": 593,
      "second": 594,
      "Com": 595,
      "##ener": 596,
      "##oun": 597,
      "Se": 598,
      "##ision": 599,
      "made": 600,
      "##ames": 601,
      "##ived": 602,
      "record": 603,
      "def": 604,
      "ac": 605,
      "##red": 606,
      "##bum": 607,
      "four": 608,
      "##als": 609,
      "follow": 610,
      "##ton": 611,
      "##ating": 612,
      "season": 613,
      "pe": 614,
      "##ool": 615,
      "am": 616,
      "bas": 617,
      "ep": 618,
      "some": 619,
      "##son": 620,
      "such": 621,
      "mon": 622,
      "ind": 623,
      "mov": 624,
      "##ished": 625,
      "before": 626,
      "##ained": 627,
      "##hes": 628,
      "mus": 629,
      "Le": 630,
      "As": 631,
      "there": 632,
      "writ": 633,
      "##ics": 634,
      "Jo": 635,
      "spec": 636,
      "##ode": 637,
      "##io": 638,
      "##ike": 639,
      "sy": 640,
      "years": 641,
      "team": 642,
      "At": 643,
      "Sh": 644,
      "This": 645,
      "##ont": 646,
      "lar": 647,
      "gr": 648,
      "##ning": 649,
      "album": 650,
      "Sp": 651,
      "##ected": 652,
      "Pr": 653,
      "##gr": 654,
      "##ily": 655,
      "##owever": 656,
      "el": 657,
      "bl": 658,
      "used": 659,
      "supp": 660,
      "call": 661,
      "sur": 662,
      "##ific": 663,
      "##ery": 664,
      "me": 665,
      "##hen": 666,
      "high": 667,
      "##ury": 668,
      "publ": 669,
      "##ection": 670,
      "being": 671,
      "epis": 672,
      "##anc": 673,
      "then": 674,
      "##aj": 675,
      "##air": 676,
      "An": 677,
      "inv": 678,
      "##velop": 679,
      "loc": 680,
      "do": 681,
      "##ll": 682,
      "br": 683,
      "against": 684,
      "##other": 685,
      "##ement": 686,
      "qu": 687,
      "##ife": 688,
      "##au": 689,
      "##ten": 690,
      "pres": 691,
      "##ower": 692,
      "##ep": 693,
      "number": 694,
      "After": 695,
      "charac": 696,
      "sever": 697,
      "co": 698,
      "add": 699,
      "show": 700,
      "##ane": 701,
      "set": 702,
      "##ince": 703,
      "we": 704,
      "Brit": 705,
      "became": 706,
      "air": 707,
      "rece": 708,
      "##ause": 709,
      "perform": 710,
      "no": 711,
      "lead": 712,
      "including": 713,
      "sing": 714,
      "##ron": 715,
      "##ines": 716,
      "United": 717,
      "found": 718,
      "##erm": 719,
      "well": 720,
      "Sc": 721,
      "##ale": 722,
      "back": 723,
      "##ised": 724,
      "##ise": 725,
      "both": 726,
      "pol": 727,
      "cap": 728,
      "series": 729,
      "str": 730,
      "##are": 731,
      "##ier": 732,
      "rev": 733,
      "##ober": 734,
      "##uc": 735,
      "##pen": 736,
      "##its": 737,
      "Br": 738,
      "Wh": 739,
      "##ures": 740,
      "##itt": 741,
      "appear": 742,
      "She": 743,
      "war": 744,
      "##fl": 745,
      "##ivers": 746,
      "main": 747,
      "min": 748,
      "##iet": 749,
      "##overn": 750,
      "##ole": 751,
      "dr": 752,
      "##oad": 753,
      "did": 754,
      "##ann": 755,
      "##olog": 756,
      "##az": 757,
      "##led": 758,
      "go": 759,
      "War": 760,
      "##roup": 761,
      "develop": 762,
      "met": 763,
      "##elf": 764,
      "##ities": 765,
      "long": 766,
      "Eng": 767,
      "##ert": 768,
      "##ev": 769,
      "##any": 770,
      "##ross": 771,
      "em": 772,
      "mill": 773,
      "##ird": 774,
      "##ful": 775,
      "John": 776,
      "ship": 777,
      "mat": 778,
      "episode": 779,
      "##ley": 780,
      "##ield": 781,
      "dire": 782,
      "ext": 783,
      "said": 784,
      "cre": 785,
      "stud": 786,
      "Cl": 787,
      "##uch": 788,
      "many": 789,
      "bro": 790,
      "##ative": 791,
      "could": 792,
      "##ash": 793,
      "orig": 794,
      "contin": 795,
      "several": 796,
      "American": 797,
      "##iver": 798,
      "Ind": 799,
      "##though": 800,
      "##ase": 801,
      "dif": 802,
      "##ather": 803,
      "pop": 804,
      "inst": 805,
      "##ah": 806,
      "##eng": 807,
      "##ouse": 808,
      "##emb": 809,
      "known": 810,
      "##oot": 811,
      "##sp": 812,
      "Aust": 813,
      "##der": 814,
      "##ins": 815,
      "##ually": 816,
      "conc": 817,
      "par": 818,
      "feat": 819,
      "##up": 820,
      "##iam": 821,
      "##ident": 822,
      "##erson": 823,
      "ob": 824,
      "##ks": 825,
      "sm": 826,
      "##ued": 827,
      "return": 828,
      "began": 829,
      "any": 830,
      "design": 831,
      "prov": 832,
      "##row": 833,
      "unt": 834,
      "##hy": 835,
      "near": 836,
      "compl": 837,
      "desc": 838,
      "sign": 839,
      "Bl": 840,
      "##chool": 841,
      "##ism": 842,
      "##ople": 843,
      "est": 844,
      "##ange": 845,
      "##aking": 846,
      "trans": 847,
      "exp": 848,
      "##ccess": 849,
      "##my": 850,
      "##ty": 851,
      "run": 852,
      "##ern": 853,
      "early": 854,
      "##ets": 855,
      "art": 856,
      "##ized": 857,
      "dist": 858,
      "##enn": 859,
      "music": 860,
      "own": 861,
      "you": 862,
      "##ided": 863,
      "released": 864,
      "until": 865,
      "called": 866,
      "eff": 867,
      "US": 868,
      "##imes": 869,
      "Con": 870,
      "##ull": 871,
      "bel": 872,
      "##ists": 873,
      "##els": 874,
      "resp": 875,
      "pass": 876,
      "##ured": 877,
      "For": 878,
      "##une": 879,
      "##stem": 880,
      "##ars": 881,
      "fin": 882,
      "May": 883,
      "##ially": 884,
      "##xt": 885,
      "##ution": 886,
      "prev": 887,
      "disc": 888,
      "crit": 889,
      "col": 890,
      "sl": 891,
      "##osed": 892,
      "gener": 893,
      "Tr": 894,
      "along": 895,
      "##ium": 896,
      "direct": 897,
      "Car": 898,
      "Ger": 899,
      "million": 900,
      "British": 901,
      "##ax": 902,
      "group": 903,
      "offic": 904,
      "##ven": 905,
      "fam": 906,
      "##rap": 907,
      "##ession": 908,
      "##ajor": 909,
      "these": 910,
      "mod": 911,
      "may": 912,
      "imp": 913,
      "##und": 914,
      "Ad": 915,
      "open": 916,
      "mil": 917,
      "land": 918,
      "poin": 919,
      "##ains": 920,
      "hist": 921,
      "sim": 922,
      "count": 923,
      "Aug": 924,
      "##ently": 925,
      "govern": 926,
      "##ments": 927,
      "Sept": 928,
      "success": 929,
      "September": 930,
      "August": 931,
      "gu": 932,
      "##amed": 933,
      "oper": 934,
      "World": 935,
      "attack": 936,
      "##ible": 937,
      "States": 938,
      "down": 939,
      "use": 940,
      "same": 941,
      "batt": 942,
      "##wards": 943,
      "All": 944,
      "describ": 945,
      "people": 946,
      "##aced": 947,
      "character": 948,
      "because": 949,
      "##yp": 950,
      "##aining": 951,
      "serv": 952,
      "##por": 953,
      "##gg": 954,
      "##cept": 955,
      "like": 956,
      "##ired": 957,
      "arr": 958,
      "fe": 959,
      "Ju": 960,
      "Is": 961,
      "##ended": 962,
      "Col": 963,
      "Pl": 964,
      "around": 965,
      "dep": 966,
      "km": 967,
      "##ner": 968,
      "though": 969,
      "##aving": 970,
      "win": 971,
      "##ues": 972,
      "Austral": 973,
      "const": 974,
      "took": 975,
      "occ": 976,
      "##erv": 977,
      "##ting": 978,
      "Oct": 979,
      "German": 980,
      "ann": 981,
      "Gr": 982,
      "##ruct": 983,
      "id": 984,
      "Nov": 985,
      "wee": 986,
      "north": 987,
      "following": 988,
      "##ove": 989,
      "six": 990,
      "However": 991,
      "Pro": 992,
      "system": 993,
      "##uss": 994,
      "adv": 995,
      "final": 996,
      "class": 997,
      "received": 998,
      "head": 999,
      "October": 1000,
      "##ives": 1001,
      "##ects": 1002,
      "prom": 1003,
      "consid": 1004,
      "##ility": 1005,
      "complet": 1006,
      "support": 1007,
      "##ically": 1008,
      "Dec": 1009,
      "##ene": 1010,
      "state": 1011,
      "ever": 1012,
      "##ink": 1013,
      "var": 1014,
      "each": 1015,
      "##ison": 1016,
      "##raft": 1017,
      "five": 1018,
      "##ret": 1019,
      "build": 1020,
      "aut": 1021,
      "century": 1022,
      "York": 1023,
      "area": 1024,
      "They": 1025,
      "small": 1026,
      "##ately": 1027,
      "will": 1028,
      "##oss": 1029,
      "##ina": 1030,
      "North": 1031,
      "bo": 1032,
      "partic": 1033,
      "##res": 1034,
      "##iving": 1035,
      "##ored": 1036,
      "##get": 1037,
      "start": 1038,
      "By": 1039,
      "##ians": 1040,
      "June": 1041,
      "city": 1042,
      "##ject": 1043,
      "mar": 1044,
      "life": 1045,
      "##cl": 1046,
      "##ording": 1047,
      "Jan": 1048,
      "Chr": 1049,
      "Har": 1050,
      "##gin": 1051,
      "contro": 1052,
      "##sc": 1053,
      "major": 1054,
      "public": 1055,
      "King": 1056,
      "##ission": 1057,
      "July": 1058,
      "band": 1059,
      "vers": 1060,
      "November": 1061,
      "##med": 1062,
      "coll": 1063,
      "##omet": 1064,
      "##urch": 1065,
      "Comm": 1066,
      "Can": 1067,
      "##ble": 1068,
      "##inc": 1069,
      "Will": 1070,
      "De": 1071,
      "##ute": 1072,
      "ent": 1073,
      "since": 1074,
      "world": 1075,
      "med": 1076,
      "single": 1077,
      "Me": 1078,
      "rest": 1079,
      "Apr": 1080,
      "April": 1081,
      "Mc": 1082,
      "det": 1083,
      "##uary": 1084,
      "##lish": 1085,
      "March": 1086,
      "just": 1087,
      "result": 1088,
      "red": 1089,
      "##enc": 1090,
      "##ke": 1091,
      "Ed": 1092,
      "##ural": 1093,
      "##hest": 1094,
      "##ried": 1095,
      "##aim": 1096,
      "##ively": 1097,
      "differ": 1098,
      "##ilt": 1099,
      "hel": 1100,
      "##ants": 1101,
      "allow": 1102,
      "Be": 1103,
      "turn": 1104,
      "Or": 1105,
      "last": 1106,
      "##idge": 1107,
      "left": 1108,
      "##ague": 1109,
      "large": 1110,
      "line": 1111,
      "South": 1112,
      "##ales": 1113,
      "south": 1114,
      "Ge": 1115,
      "##ified": 1116,
      "Bro": 1117,
      "During": 1118,
      "##par": 1119,
      "##avy": 1120,
      "book": 1121,
      "school": 1122,
      "December": 1123,
      "Ph": 1124,
      "third": 1125,
      "incre": 1126,
      "care": 1127,
      "##ined": 1128,
      "month": 1129,
      "due": 1130,
      "appro": 1131,
      "played": 1132,
      "##..": 1133,
      "much": 1134,
      "event": 1135,
      "if": 1136,
      "another": 1137,
      "##ench": 1138,
      "January": 1139,
      "##rote": 1140,
      "included": 1141,
      "##ention": 1142,
      "what": 1143,
      "##ient": 1144,
      "##by": 1145,
      "##ograp": 1146,
      "II": 1147,
      "based": 1148,
      "place": 1149,
      "##aged": 1150,
      "ph": 1151,
      "##ped": 1152,
      "##ony": 1153,
      "##apan": 1154,
      "government": 1155,
      "##side": 1156,
      "Eu": 1157,
      "expl": 1158,
      "person": 1159,
      "##ling": 1160,
      "Fl": 1161,
      "bre": 1162,
      "cr": 1163,
      "wrote": 1164,
      "When": 1165,
      "track": 1166,
      "camp": 1167,
      "tit": 1168,
      "old": 1169,
      "##alf": 1170,
      "death": 1171,
      "name": 1172,
      "##ott": 1173,
      "##ages": 1174,
      "prot": 1175,
      "Japan": 1176,
      "report": 1177,
      "short": 1178,
      "...": 1179,
      "##ience": 1180,
      "won": 1181,
      "child": 1182,
      "##ption": 1183,
      "larg": 1184,
      "kill": 1185,
      "##ideo": 1186,
      "power": 1187,
      "story": 1188,
      "##ody": 1189,
      "review": 1190,
      "##oman": 1191,
      "##ital": 1192,
      "vis": 1193,
      "##ats": 1194,
      "home": 1195,
      "led": 1196,
      "##ps": 1197,
      "gun": 1198,
      "requ": 1199,
      "described": 1200,
      "cour": 1201,
      "previous": 1202,
      "##ides": 1203,
      "El": 1204,
      "progr": 1205,
      "family": 1206,
      "eng": 1207,
      "way": 1208,
      "##tain": 1209,
      "##urr": 1210,
      "##urther": 1211,
      "named": 1212,
      "Mus": 1213,
      "now": 1214,
      "conv": 1215,
      "del": 1216,
      "dem": 1217,
      "Gu": 1218,
      "##ister": 1219,
      "rep": 1220,
      "men": 1221,
      "##iven": 1222,
      "even": 1223,
      "##ilar": 1224,
      "##embers": 1225,
      "##omin": 1226,
      "make": 1227,
      "##reen": 1228,
      "##oute": 1229,
      "port": 1230,
      "##ress": 1231,
      "##iversity": 1232,
      "attem": 1233,
      "##aff": 1234,
      "##ested": 1235,
      "##iod": 1236,
      "##ivision": 1237,
      "##ior": 1238,
      "repl": 1239,
      "##itions": 1240,
      "opp": 1241,
      "leg": 1242,
      "games": 1243,
      "##ached": 1244,
      "command": 1245,
      "term": 1246,
      "hand": 1247,
      "##ival": 1248,
      "##ne": 1249,
      "poss": 1250,
      "dam": 1251,
      "##ox": 1252,
      "belie": 1253,
      "very": 1254,
      "And": 1255,
      "His": 1256,
      "those": 1257,
      "best": 1258,
      "Par": 1259,
      "##ged": 1260,
      "Feb": 1261,
      "Europ": 1262,
      "##ract": 1263,
      "po": 1264,
      "ele": 1265,
      "##mp": 1266,
      "organ": 1267,
      "Febru": 1268,
      "February": 1269,
      "iss": 1270,
      "still": 1271,
      "##ren": 1272,
      "top": 1273,
      "next": 1274,
      "species": 1275,
      "Christ": 1276,
      "sk": 1277,
      "##ences": 1278,
      "view": 1279,
      "ed": 1280,
      "There": 1281,
      "National": 1282,
      "##aken": 1283,
      "##ances": 1284,
      "##akes": 1285,
      "##oci": 1286,
      "original": 1287,
      "Man": 1288,
      "##oyal": 1289,
      "spe": 1290,
      "Bar": 1291,
      "water": 1292,
      "##hor": 1293,
      "join": 1294,
      "addition": 1295,
      "##ness": 1296,
      "infl": 1297,
      "Europe": 1298,
      "list": 1299,
      "Am": 1300,
      "##ature": 1301,
      "within": 1302,
      "period": 1303,
      "##rew": 1304,
      "members": 1305,
      "ref": 1306,
      "##ented": 1307,
      "built": 1308,
      "##yl": 1309,
      "French": 1310,
      "mark": 1311,
      "held": 1312,
      "deb": 1313,
      "exper": 1314,
      "##ched": 1315,
      "although": 1316,
      "match": 1317,
      "late": 1318,
      "former": 1319,
      "##augh": 1320,
      "Char": 1321,
      "release": 1322,
      "##oon": 1323,
      "great": 1324,
      "##sh": 1325,
      "dest": 1326,
      "sold": 1327,
      "av": 1328,
      "##ney": 1329,
      "##ared": 1330,
      "conf": 1331,
      "##ech": 1332,
      "video": 1333,
      "caus": 1334,
      "storm": 1335,
      "West": 1336,
      "##ropical": 1337,
      "##ipp": 1338,
      "##ights": 1339,
      "##ards": 1340,
      "##omb": 1341,
      "tri": 1342,
      "##af": 1343,
      "init": 1344,
      "role": 1345,
      "William": 1346,
      "came": 1347,
      "estab": 1348,
      "tw": 1349,
      "days": 1350,
      "mid": 1351,
      "##ulation": 1352,
      "Air": 1353,
      "##ple": 1354,
      "##uted": 1355,
      "##ham": 1356,
      "polit": 1357,
      "stand": 1358,
      "real": 1359,
      "Her": 1360,
      "my": 1361,
      "however": 1362,
      "##itary": 1363,
      "##eal": 1364,
      "Min": 1365,
      "##aster": 1366,
      "prop": 1367,
      "##ices": 1368,
      "##line": 1369,
      "##ased": 1370,
      "wind": 1371,
      "few": 1372,
      "##atic": 1373,
      "town": 1374,
      "##ung": 1375,
      "Geor": 1376,
      "side": 1377,
      "##ball": 1378,
      "tel": 1379,
      "continued": 1380,
      "post": 1381,
      "equ": 1382,
      "often": 1383,
      "##eter": 1384,
      "Des": 1385,
      "Ear": 1386,
      "local": 1387,
      "repr": 1388,
      "##ator": 1389,
      "##ays": 1390,
      "among": 1391,
      "##ruction": 1392,
      "similar": 1393,
      "Mich": 1394,
      "sw": 1395,
      "No": 1396,
      "##ead": 1397,
      "hum": 1398,
      "claim": 1399,
      "##estern": 1400,
      "##omen": 1401,
      "##urs": 1402,
      "##pite": 1403,
      "##alk": 1404,
      "##elt": 1405,
      "##ying": 1406,
      "England": 1407,
      "##ese": 1408,
      "##reet": 1409,
      "##read": 1410,
      "##ology": 1411,
      "##ops": 1412,
      "further": 1413,
      "different": 1414,
      "##ense": 1415,
      "beh": 1416,
      "Rec": 1417,
      "##ler": 1418,
      "typ": 1419,
      "sent": 1420,
      "##hel": 1421,
      "##ests": 1422,
      "level": 1423,
      "fre": 1424,
      "Dav": 1425,
      "considered": 1426,
      "take": 1427,
      "law": 1428,
      "One": 1429,
      "tot": 1430,
      "##app": 1431,
      "##orts": 1432,
      "career": 1433,
      "week": 1434,
      "##gy": 1435,
      "production": 1436,
      "##press": 1437,
      "##lex": 1438,
      "cover": 1439,
      "half": 1440,
      "Park": 1441,
      "ant": 1442,
      "##ves": 1443,
      "##ampions": 1444,
      "City": 1445,
      "Ang": 1446,
      "having": 1447,
      "Acc": 1448,
      "Te": 1449,
      "##arm": 1450,
      "##con": 1451,
      "##na": 1452,
      "English": 1453,
      "east": 1454,
      "road": 1455,
      "cor": 1456,
      "mag": 1457,
      "moved": 1458,
      "west": 1459,
      "##ittle": 1460,
      "enter": 1461,
      "every": 1462,
      "without": 1463,
      "Although": 1464,
      "##rodu": 1465,
      "Cent": 1466,
      "Cal": 1467,
      "position": 1468,
      "plan": 1469,
      "##ones": 1470,
      "player": 1471,
      "history": 1472,
      "become": 1473,
      "arm": 1474,
      "version": 1475,
      "Count": 1476,
      "see": 1477,
      "##ford": 1478,
      "##ondon": 1479,
      "##oard": 1480,
      "elect": 1481,
      "influ": 1482,
      "##eg": 1483,
      "##ize": 1484,
      "##eder": 1485,
      "Batt": 1486,
      "star": 1487,
      "London": 1488,
      "Su": 1489,
      "house": 1490,
      "commun": 1491,
      "sound": 1492,
      "##yle": 1493,
      "##atter": 1494,
      "invol": 1495,
      "strong": 1496,
      "sugg": 1497,
      "cast": 1498,
      "club": 1499,
      "tem": 1500,
      "##self": 1501,
      "Sw": 1502,
      "attempt": 1503,
      "##uck": 1504,
      "written": 1505,
      "With": 1506,
      "You": 1507,
      "##ai": 1508,
      "stat": 1509,
      "##etter": 1510,
      "less": 1511,
      "River": 1512,
      "announ": 1513,
      "##iqu": 1514,
      "foot": 1515,
      "##ington": 1516,
      "##irc": 1517,
      "order": 1518,
      "##ape": 1519,
      "##ising": 1520,
      "##isc": 1521,
      "refer": 1522,
      "##ck": 1523,
      "##iety": 1524,
      "##ald": 1525,
      "##craft": 1526,
      "aff": 1527,
      "Canad": 1528,
      "prof": 1529,
      "##sequ": 1530,
      "low": 1531,
      "point": 1532,
      "given": 1533,
      "produc": 1534,
      "rad": 1535,
      "##aul": 1536,
      "Gener": 1537,
      "trad": 1538,
      "hig": 1539,
      "University": 1540,
      "want": 1541,
      "##me": 1542,
      "gave": 1543,
      "Pol": 1544,
      "pat": 1545,
      "##iend": 1546,
      "never": 1547,
      "While": 1548,
      "##ailed": 1549,
      "chang": 1550,
      "returned": 1551,
      "##aly": 1552,
      "##ories": 1553,
      "comb": 1554,
      "Dr": 1555,
      "repres": 1556,
      "soc": 1557,
      "total": 1558,
      "vict": 1559,
      "##ett": 1560,
      "##urric": 1561,
      "##ches": 1562,
      "##ots": 1563,
      "High": 1564,
      "fact": 1565,
      "##roy": 1566,
      "##aun": 1567,
      "good": 1568,
      "##amb": 1569,
      "En": 1570,
      "capt": 1571,
      "control": 1572,
      "##ae": 1573,
      "fire": 1574,
      "country": 1575,
      "company": 1576,
      "went": 1577,
      "##int": 1578,
      "##ges": 1579,
      "friend": 1580,
      "##ours": 1581,
      "import": 1582,
      "published": 1583,
      "Ab": 1584,
      "Sm": 1585,
      "produced": 1586,
      "##ably": 1587,
      "##aying": 1588,
      "find": 1589,
      "##evision": 1590,
      "reported": 1591,
      "sol": 1592,
      "origin": 1593,
      "young": 1594,
      "Ex": 1595,
      "lost": 1596,
      "##aign": 1597,
      "stated": 1598,
      "common": 1599,
      "program": 1600,
      "ord": 1601,
      "Co": 1602,
      "particular": 1603,
      "##aur": 1604,
      "Sy": 1605,
      "adm": 1606,
      "##echn": 1607,
      "##ency": 1608,
      "include": 1609,
      "According": 1610,
      "##aised": 1611,
      "##hing": 1612,
      "##vers": 1613,
      "compet": 1614,
      "##eth": 1615,
      "forces": 1616,
      "recorded": 1617,
      "##iter": 1618,
      "##ief": 1619,
      "building": 1620,
      "press": 1621,
      "##ama": 1622,
      "bus": 1623,
      "need": 1624,
      "nort": 1625,
      "ships": 1626,
      "##raw": 1627,
      "##cess": 1628,
      "should": 1629,
      "using": 1630,
      "##used": 1631,
      "gl": 1632,
      "##ration": 1633,
      "##iment": 1634,
      "eight": 1635,
      "performance": 1636,
      "##iness": 1637,
      "##ploy": 1638,
      "service": 1639,
      "##ength": 1640,
      "These": 1641,
      "popular": 1642,
      "##osp": 1643,
      "times": 1644,
      "father": 1645,
      "making": 1646,
      "ten": 1647,
      "##ned": 1648,
      "aircraft": 1649,
      "##ef": 1650,
      "military": 1651,
      "ro": 1652,
      "Australia": 1653,
      "himself": 1654,
      "fun": 1655,
      "##atch": 1656,
      "author": 1657,
      "##lear": 1658,
      "##ampionship": 1659,
      "Sec": 1660,
      "right": 1661,
      "##earch": 1662,
      "anim": 1663,
      "Ass": 1664,
      "Jack": 1665,
      "lim": 1666,
      "##let": 1667,
      "songs": 1668,
      "somet": 1669,
      "##outher": 1670,
      "read": 1671,
      "##ither": 1672,
      "##ensive": 1673,
      "surv": 1674,
      "Pres": 1675,
      "critic": 1676,
      "development": 1677,
      "##ords": 1678,
      "General": 1679,
      "Af": 1680,
      "how": 1681,
      "##quad": 1682,
      "Cor": 1683,
      "inf": 1684,
      "##itive": 1685,
      "State": 1686,
      "cross": 1687,
      "##outhern": 1688,
      "ve": 1689,
      "James": 1690,
      "ft": 1691,
      "ground": 1692,
      "##acy": 1693,
      "We": 1694,
      "ins": 1695,
      "light": 1696,
      "remained": 1697,
      "##astern": 1698,
      "Gl": 1699,
      "Army": 1700,
      "gen": 1701,
      "national": 1702,
      "characters": 1703,
      "##ional": 1704,
      "ter": 1705,
      "suff": 1706,
      "get": 1707,
      "months": 1708,
      "present": 1709,
      "died": 1710,
      "bar": 1711,
      "##ublic": 1712,
      "developed": 1713,
      "sum": 1714,
      "title": 1715,
      "##ument": 1716,
      "force": 1717,
      "##ille": 1718,
      "##ream": 1719,
      "campaign": 1720,
      "##ries": 1721,
      "##fic": 1722,
      "##ering": 1723,
      "League": 1724,
      "##urricane": 1725,
      "##utes": 1726,
      "##ael": 1727,
      "##alt": 1728,
      "field": 1729,
      "children": 1730,
      "introdu": 1731,
      "trav": 1732,
      "tour": 1733,
      "##itted": 1734,
      "##isted": 1735,
      "signific": 1736,
      "##lands": 1737,
      "across": 1738,
      "##field": 1739,
      "son": 1740,
      "##eep": 1741,
      "##hern": 1742,
      "Mor": 1743,
      "away": 1744,
      "Division": 1745,
      "relations": 1746,
      "histor": 1747,
      "official": 1748,
      "##dom": 1749,
      "##ope": 1750,
      "fav": 1751,
      "felt": 1752,
      "Comp": 1753,
      "effect": 1754,
      "##yn": 1755,
      "America": 1756,
      "##lege": 1757,
      "che": 1758,
      "##rick": 1759,
      "fac": 1760,
      "noted": 1761,
      "Sim": 1762,
      "reached": 1763,
      "Russ": 1764,
      "announced": 1765,
      "intern": 1766,
      "promot": 1767,
      "Mad": 1768,
      "Japanese": 1769,
      "County": 1770,
      "destroy": 1771,
      "battle": 1772,
      "areas": 1773,
      "created": 1774,
      "Road": 1775,
      "television": 1776,
      "##ows": 1777,
      "sit": 1778,
      "Em": 1779,
      "Reg": 1780,
      "station": 1781,
      "successful": 1782,
      "Mon": 1783,
      "val": 1784,
      "rock": 1785,
      "##imately": 1786,
      "super": 1787,
      "Street": 1788,
      "various": 1789,
      "political": 1790,
      "seen": 1791,
      "followed": 1792,
      "##ements": 1793,
      "too": 1794,
      "##iber": 1795,
      "##ization": 1796,
      "##iting": 1797,
      "front": 1798,
      "enc": 1799,
      "##duc": 1800,
      "rank": 1801,
      "aver": 1802,
      "East": 1803,
      "served": 1804,
      "performed": 1805,
      "##most": 1806,
      "Rober": 1807,
      "cult": 1808,
      "players": 1809,
      "cond": 1810,
      "prim": 1811,
      "full": 1812,
      "George": 1813,
      "##ination": 1814,
      "decl": 1815,
      "##view": 1816,
      "begin": 1817,
      "black": 1818,
      "##elling": 1819,
      "put": 1820,
      "mm": 1821,
      "Phil": 1822,
      "cy": 1823,
      "earl": 1824,
      "Per": 1825,
      "obs": 1826,
      "##reg": 1827,
      "Ser": 1828,
      "##olution": 1829,
      "cost": 1830,
      "##abor": 1831,
      "To": 1832,
      "div": 1833,
      "##idence": 1834,
      "style": 1835,
      "non": 1836,
      "vol": 1837,
      "look": 1838,
      "sel": 1839,
      "Hen": 1840,
      "circ": 1841,
      "killed": 1842,
      "seven": 1843,
      "aud": 1844,
      "##vent": 1845,
      "night": 1846,
      "tropical": 1847,
      "help": 1848,
      "##ana": 1849,
      "##urg": 1850,
      "##lished": 1851,
      "coun": 1852,
      "throughout": 1853,
      "##play": 1854,
      "Bill": 1855,
      "taken": 1856,
      "able": 1857,
      "agre": 1858,
      "##ecut": 1859,
      "little": 1860,
      "significant": 1861,
      "becom": 1862,
      "age": 1863,
      "fem": 1864,
      "meet": 1865,
      "ident": 1866,
      "Sch": 1867,
      "##ways": 1868,
      "Thom": 1869,
      "##ius": 1870,
      "Australian": 1871,
      "techn": 1872,
      "special": 1873,
      "##irl": 1874,
      "struct": 1875,
      "##oice": 1876,
      "writing": 1877,
      "##aval": 1878,
      "cop": 1879,
      "##leet": 1880,
      "thought": 1881,
      "broad": 1882,
      "established": 1883,
      "##enced": 1884,
      "body": 1885,
      "appeared": 1886,
      "David": 1887,
      "process": 1888,
      "entire": 1889,
      "does": 1890,
      "ball": 1891,
      "##rict": 1892,
      "miles": 1893,
      "##epend": 1894,
      "tro": 1895,
      "Rich": 1896,
      "points": 1897,
      "##ought": 1898,
      "award": 1899,
      "route": 1900,
      "##odes": 1901,
      "impro": 1902,
      "member": 1903,
      "Med": 1904,
      "##ivil": 1905,
      "##umb": 1906,
      "##ask": 1907,
      "range": 1908,
      "activ": 1909,
      "##blem": 1910,
      "##iers": 1911,
      "women": 1912,
      "started": 1913,
      "caused": 1914,
      "Qu": 1915,
      "decided": 1916,
      "##hys": 1917,
      "Afric": 1918,
      "features": 1919,
      "##aves": 1920,
      "pain": 1921,
      "general": 1922,
      "My": 1923,
      "##idd": 1924,
      "tre": 1925,
      "##day": 1926,
      "##ators": 1927,
      "Part": 1928,
      "##ament": 1929,
      "eventually": 1930,
      "##iec": 1931,
      "##cil": 1932,
      "##ground": 1933,
      "##cent": 1934,
      "Royal": 1935,
      "arch": 1936,
      "##conom": 1937,
      "##emy": 1938,
      "##ogn": 1939,
      "##eated": 1940,
      "race": 1941,
      "Ne": 1942,
      "##itar": 1943,
      "coast": 1944,
      "##here": 1945,
      "Act": 1946,
      "##omm": 1947,
      "Hist": 1948,
      "feet": 1949,
      "grow": 1950,
      "manag": 1951,
      "added": 1952,
      "stri": 1953,
      "cut": 1954,
      "##bert": 1955,
      "toget": 1956,
      "##alth": 1957,
      "together": 1958,
      "hold": 1959,
      "House": 1960,
      "formed": 1961,
      "##ivid": 1962,
      "located": 1963,
      "nov": 1964,
      "once": 1965,
      "white": 1966,
      "##arr": 1967,
      "##ample": 1968,
      "##reek": 1969,
      "arg": 1970,
      "modern": 1971,
      "fight": 1972,
      "conn": 1973,
      "pri": 1974,
      "curr": 1975,
      "##off": 1976,
      "##hic": 1977,
      "Black": 1978,
      "##men": 1979,
      "##ush": 1980,
      "instead": 1981,
      "##head": 1982,
      "round": 1983,
      "##rought": 1984,
      "esc": 1985,
      "##aces": 1986,
      "##ades": 1987,
      "cert": 1988,
      "Hol": 1989,
      "Intern": 1990,
      "mix": 1991,
      "important": 1992,
      "crew": 1993,
      "saw": 1994,
      "##less": 1995,
      "action": 1996,
      "completed": 1997,
      "##uk": 1998,
      "Indian": 1999,
      "Cr": 2000,
      "playing": 2001,
      "##ani": 2002,
      "Other": 2003,
      "##ells": 2004,
      "##pression": 2005,
      "hon": 2006,
      "inj": 2007,
      "population": 2008,
      "##ara": 2009,
      "insp": 2010,
      "mot": 2011,
      "mater": 2012,
      "ask": 2013,
      "Michael": 2014,
      "stage": 2015,
      "voc": 2016,
      "##aps": 2017,
      "guns": 2018,
      "rather": 2019,
      "behind": 2020,
      "cas": 2021,
      "opened": 2022,
      "##ata": 2023,
      "others": 2024,
      "fall": 2025,
      "##ceed": 2026,
      "brother": 2027,
      "lik": 2028,
      "##igned": 2029,
      "comment": 2030,
      "ste": 2031,
      "born": 2032,
      "##wood": 2033,
      "site": 2034,
      "##stit": 2035,
      "##ger": 2036,
      "fif": 2037,
      "works": 2038,
      "heavy": 2039,
      "bomb": 2040,
      "live": 2041,
      "loss": 2042,
      "France": 2043,
      "worked": 2044,
      "##ficult": 2045,
      "hit": 2046,
      "miss": 2047,
      "School": 2048,
      "pred": 2049,
      "discover": 2050,
      "subsequ": 2051,
      "qual": 2052,
      "##lin": 2053,
      "lack": 2054,
      "##medi": 2055,
      "close": 2056,
      "problem": 2057,
      "party": 2058,
      "difficult": 2059,
      "construction": 2060,
      "##iol": 2061,
      "Some": 2062,
      "Nor": 2063,
      "Wash": 2064,
      "##anch": 2065,
      "##ending": 2066,
      "host": 2067,
      "##istic": 2068,
      "##ster": 2069,
      "##ring": 2070,
      "weeks": 2071,
      "relationship": 2072,
      "reb": 2073,
      "project": 2074,
      "Pe": 2075,
      "originally": 2076,
      "far": 2077,
      "##yr": 2078,
      "separ": 2079,
      "associ": 2080,
      "Fir": 2081,
      "San": 2082,
      "upon": 2083,
      "pract": 2084,
      "mer": 2085,
      "##uel": 2086,
      "appoin": 2087,
      "leading": 2088,
      "peak": 2089,
      "vill": 2090,
      "Henry": 2091,
      "almost": 2092,
      "Port": 2093,
      "damage": 2094,
      "##ica": 2095,
      "##duct": 2096,
      "Robert": 2097,
      "##ming": 2098,
      "##unk": 2099,
      "mi": 2100,
      "fourth": 2101,
      "chart": 2102,
      "sett": 2103,
      "scored": 2104,
      "##osition": 2105,
      "inform": 2106,
      "reve": 2107,
      "provided": 2108,
      "##ividual": 2109,
      "case": 2110,
      "Music": 2111,
      "Best": 2112,
      "clos": 2113,
      "Rep": 2114,
      "engine": 2115,
      "invest": 2116,
      "Vir": 2117,
      "dev": 2118,
      "creat": 2119,
      "Paul": 2120,
      "Red": 2121,
      "scene": 2122,
      "##oring": 2123,
      "##board": 2124,
      "human": 2125,
      "##oid": 2126,
      "##angu": 2127,
      "##ological": 2128,
      "brought": 2129,
      "Battle": 2130,
      "##aut": 2131,
      "free": 2132,
      "fell": 2133,
      "featured": 2134,
      "king": 2135,
      "least": 2136,
      "##ential": 2137,
      "vot": 2138,
      "mother": 2139,
      "laun": 2140,
      "allowed": 2141,
      "working": 2142,
      "President": 2143,
      "##lement": 2144,
      "##ula": 2145,
      "##ened": 2146,
      "towards": 2147,
      "Cap": 2148,
      "Cour": 2149,
      "average": 2150,
      "region": 2151,
      "wanted": 2152,
      "mult": 2153,
      "troops": 2154,
      "Mil": 2155,
      "indust": 2156,
      "tradition": 2157,
      "business": 2158,
      "Washington": 2159,
      "##ript": 2160,
      "placed": 2161,
      "##ino": 2162,
      "##azine": 2163,
      "Que": 2164,
      "##ky": 2165,
      "quick": 2166,
      "either": 2167,
      "Ag": 2168,
      "redu": 2169,
      "respect": 2170,
      "critics": 2171,
      "office": 2172,
      "Bel": 2173,
      "avail": 2174,
      "Res": 2175,
      "##cast": 2176,
      "reach": 2177,
      "runs": 2178,
      "##enes": 2179,
      "example": 2180,
      "##antic": 2181,
      "Angel": 2182,
      "material": 2183,
      "recogn": 2184,
      "econom": 2185,
      "wife": 2186,
      "estim": 2187,
      "sour": 2188,
      "neg": 2189,
      "##chie": 2190,
      "army": 2191,
      "foc": 2192,
      "##ule": 2193,
      "Hall": 2194,
      "Despite": 2195,
      "dou": 2196,
      "##iction": 2197,
      "##rey": 2198,
      "Follow": 2199,
      "sex": 2200,
      "##quadron": 2201,
      "Hill": 2202,
      "##urb": 2203,
      "interest": 2204,
      "joined": 2205,
      "mass": 2206,
      "##oms": 2207,
      "rail": 2208,
      "generally": 2209,
      "##omp": 2210,
      "##iff": 2211,
      "##of": 2212,
      "proper": 2213,
      "accept": 2214,
      "Mal": 2215,
      "individual": 2216,
      "bill": 2217,
      "##lt": 2218,
      "##ourn": 2219,
      "represent": 2220,
      "events": 2221,
      "Ham": 2222,
      "believed": 2223,
      "Game": 2224,
      "particip": 2225,
      "##itch": 2226,
      "fig": 2227,
      "Following": 2228,
      "First": 2229,
      "Cup": 2230,
      "wid": 2231,
      "Cro": 2232,
      "Mary": 2233,
      "##oor": 2234,
      "##spec": 2235,
      "Don": 2236,
      "##emor": 2237,
      "know": 2238,
      "rul": 2239,
      "Bo": 2240,
      "mph": 2241,
      "replaced": 2242,
      "Great": 2243,
      "victory": 2244,
      "mount": 2245,
      "##ena": 2246,
      "##artment": 2247,
      "designed": 2248,
      "##rated": 2249,
      "Lou": 2250,
      "island": 2251,
      "##asing": 2252,
      "soon": 2253,
      "nomin": 2254,
      "##ving": 2255,
      "##erous": 2256,
      "exc": 2257,
      "Two": 2258,
      "hours": 2259,
      "fund": 2260,
      "employ": 2261,
      "##ification": 2262,
      "involved": 2263,
      "European": 2264,
      "##xic": 2265,
      "president": 2266,
      "ren": 2267,
      "##aper": 2268,
      "Championship": 2269,
      "surf": 2270,
      "stru": 2271,
      "finished": 2272,
      "Ant": 2273,
      "##merc": 2274,
      "##asion": 2275,
      "ide": 2276,
      "##fall": 2277,
      "##west": 2278,
      "##inist": 2279,
      "dro": 2280,
      "##ship": 2281,
      "Mart": 2282,
      "break": 2283,
      "##ago": 2284,
      "Play": 2285,
      "hor": 2286,
      "court": 2287,
      "shot": 2288,
      "saying": 2289,
      "##inn": 2290,
      "Je": 2291,
      "Star": 2292,
      "Roman": 2293,
      "unc": 2294,
      "threat": 2295,
      "opening": 2296,
      "##ander": 2297,
      "regular": 2298,
      "Route": 2299,
      "Ir": 2300,
      "Met": 2301,
      "Ste": 2302,
      "director": 2303,
      "ill": 2304,
      "length": 2305,
      "hom": 2306,
      "Mac": 2307,
      "Scott": 2308,
      "largest": 2309,
      "##BC": 2310,
      "contrib": 2311,
      "highway": 2312,
      "occur": 2313,
      "##antry": 2314,
      "possible": 2315,
      "southern": 2316,
      "##ecutive": 2317,
      "##ishing": 2318,
      "minutes": 2319,
      "hy": 2320,
      "remov": 2321,
      "Ber": 2322,
      "Sl": 2323,
      "##go": 2324,
      "highest": 2325,
      "earlier": 2326,
      "test": 2327,
      "initially": 2328,
      "Rock": 2329,
      "personal": 2330,
      "available": 2331,
      "Atl": 2332,
      "Sing": 2333,
      "##anned": 2334,
      "##icated": 2335,
      "particularly": 2336,
      "percent": 2337,
      "hard": 2338,
      "training": 2339,
      "sequ": 2340,
      "##hers": 2341,
      "Republic": 2342,
      "forced": 2343,
      "exist": 2344,
      "Navy": 2345,
      "##hib": 2346,
      "must": 2347,
      "Wil": 2348,
      "grad": 2349,
      "conduct": 2350,
      "Val": 2351,
      "Charles": 2352,
      "##pts": 2353,
      "Kingdom": 2354,
      "Mag": 2355,
      "wall": 2356,
      "##for": 2357,
      "##ography": 2358,
      "##ude": 2359,
      "##ems": 2360,
      "##iding": 2361,
      "##uit": 2362,
      "##anish": 2363,
      "park": 2364,
      "McC": 2365,
      "But": 2366,
      "##to": 2367,
      "Off": 2368,
      "##uff": 2369,
      "respons": 2370,
      "From": 2371,
      "Ac": 2372,
      "##ateg": 2373,
      "ended": 2374,
      "##co": 2375,
      "quar": 2376,
      "##now": 2377,
      "##rest": 2378,
      "##ios": 2379,
      "turned": 2380,
      "Thomas": 2381,
      "International": 2382,
      "##ayed": 2383,
      "##ises": 2384,
      "studio": 2385,
      "##uture": 2386,
      "social": 2387,
      "##mb": 2388,
      "Pal": 2389,
      "##ki": 2390,
      "contract": 2391,
      "##rian": 2392,
      "goal": 2393,
      "change": 2394,
      "##iforn": 2395,
      "Church": 2396,
      "##heast": 2397,
      "##ocr": 2398,
      "langu": 2399,
      "praised": 2400,
      "passed": 2401,
      "northern": 2402,
      "priv": 2403,
      "piec": 2404,
      "increased": 2405,
      "##atural": 2406,
      "Virgin": 2407,
      "hurricane": 2408,
      "regard": 2409,
      "educ": 2410,
      "Brown": 2411,
      "##iation": 2412,
      "##asy": 2413,
      "central": 2414,
      "##ville": 2415,
      "White": 2416,
      "##itor": 2417,
      "phys": 2418,
      "##bor": 2419,
      "relig": 2420,
      "novel": 2421,
      "##ze": 2422,
      "units": 2423,
      "Canada": 2424,
      "appearance": 2425,
      "speed": 2426,
      "##anks": 2427,
      "Californ": 2428,
      "##ership": 2429,
      "past": 2430,
      "##ections": 2431,
      "##rem": 2432,
      "stop": 2433,
      "immedi": 2434,
      "Bay": 2435,
      "church": 2436,
      "ordered": 2437,
      "##ston": 2438,
      "disp": 2439,
      "Smith": 2440,
      "##aker": 2441,
      "meas": 2442,
      "##aughter": 2443,
      "##ilities": 2444,
      "prob": 2445,
      "Mer": 2446,
      "##sel": 2447,
      "treat": 2448,
      "##ference": 2449,
      "taking": 2450,
      "Richard": 2451,
      "Sam": 2452,
      "##ctor": 2453,
      "Sen": 2454,
      "##apt": 2455,
      "##ittee": 2456,
      "##ique": 2457,
      "move": 2458,
      "independ": 2459,
      "signed": 2460,
      "##anding": 2461,
      "Alex": 2462,
      "love": 2463,
      "##oul": 2464,
      "achie": 2465,
      "##agon": 2466,
      "California": 2467,
      "better": 2468,
      "##pped": 2469,
      "##den": 2470,
      "##oph": 2471,
      "##etwork": 2472,
      "pers": 2473,
      "Union": 2474,
      "##itz": 2475,
      "##pper": 2476,
      "##amer": 2477,
      "winds": 2478,
      "Mill": 2479,
      "God": 2480,
      "Govern": 2481,
      "##ecess": 2482,
      "##arily": 2483,
      "lear": 2484,
      "Island": 2485,
      "wat": 2486,
      "enough": 2487,
      "inn": 2488,
      "Court": 2489,
      "commerc": 2490,
      "positive": 2491,
      "Flor": 2492,
      "##nel": 2493,
      "##hem": 2494,
      "##ears": 2495,
      "hous": 2496,
      "according": 2497,
      "spent": 2498,
      "##ume": 2499,
      "above": 2500,
      "going": 2501,
      "pot": 2502,
      "Mo": 2503,
      "Vict": 2504,
      "outside": 2505,
      "defeat": 2506,
      "reveal": 2507,
      "##essional": 2508,
      "clear": 2509,
      "films": 2510,
      "##ams": 2511,
      "##uation": 2512,
      "ap": 2513,
      "Award": 2514,
      "told": 2515,
      "##ida": 2516,
      "feel": 2517,
      "Cong": 2518,
      "football": 2519,
      "previously": 2520,
      "##elled": 2521,
      "##uter": 2522,
      "states": 2523,
      "pur": 2524,
      "mean": 2525,
      "ey": 2526,
      "nine": 2527,
      "quest": 2528,
      "Associ": 2529,
      "Company": 2530,
      "##berg": 2531,
      "recording": 2532,
      "##alion": 2533,
      "Art": 2534,
      "##usion": 2535,
      "##ands": 2536,
      "##atin": 2537,
      "failed": 2538,
      "ur": 2539,
      "##val": 2540,
      "assist": 2541,
      "contr": 2542,
      "required": 2543,
      "come": 2544,
      "##osing": 2545,
      "##het": 2546,
      "Germany": 2547,
      "elements": 2548,
      "Mount": 2549,
      "##quare": 2550,
      "##mar": 2551,
      "viol": 2552,
      "##isl": 2553,
      "Mark": 2554,
      "cru": 2555,
      "Stud": 2556,
      "lower": 2557,
      "##edy": 2558,
      "India": 2559,
      "reviews": 2560,
      "interview": 2561,
      "parts": 2562,
      "Gold": 2563,
      "phot": 2564,
      "sil": 2565,
      "Peter": 2566,
      "itself": 2567,
      "base": 2568,
      "Christian": 2569,
      "directed": 2570,
      "NY": 2571,
      "##eck": 2572,
      "express": 2573,
      "##ibility": 2574,
      "despite": 2575,
      "Tom": 2576,
      "rain": 2577,
      "cred": 2578,
      "That": 2579,
      "debut": 2580,
      "cycl": 2581,
      "##oke": 2582,
      "Pat": 2583,
      "abs": 2584,
      "##ids": 2585,
      "Times": 2586,
      "##ready": 2587,
      "##erved": 2588,
      "##jects": 2589,
      "ly": 2590,
      "beginning": 2591,
      "groups": 2592,
      "Up": 2593,
      "##ability": 2594,
      "keep": 2595,
      "##onna": 2596,
      "College": 2597,
      "section": 2598,
      "##aint": 2599,
      "Cast": 2600,
      "lines": 2601,
      "##ris": 2602,
      "UK": 2603,
      "Sov": 2604,
      "poor": 2605,
      "##hester": 2606,
      "whose": 2607,
      "rap": 2608,
      "##airs": 2609,
      "##nes": 2610,
      "claimed": 2611,
      "transfer": 2612,
      "cou": 2613,
      "Western": 2614,
      "op": 2615,
      "international": 2616,
      "asked": 2617,
      "Dem": 2618,
      "bi": 2619,
      "##ex": 2620,
      "screen": 2621,
      "give": 2622,
      "##onse": 2623,
      "##rief": 2624,
      "Mexic": 2625,
      "Soviet": 2626,
      "key": 2627,
      "Frank": 2628,
      "##igan": 2629,
      "Im": 2630,
      "fort": 2631,
      "additional": 2632,
      "La": 2633,
      "Film": 2634,
      "future": 2635,
      "##ania": 2636,
      "beg": 2637,
      "Hot": 2638,
      "whom": 2639,
      "league": 2640,
      "##oo": 2641,
      "gold": 2642,
      "emb": 2643,
      "Awards": 2644,
      "don": 2645,
      "##oles": 2646,
      "##gar": 2647,
      "travel": 2648,
      "nd": 2649,
      "##ully": 2650,
      "introduced": 2651,
      "Grand": 2652,
      "prem": 2653,
      "##urt": 2654,
      "evidence": 2655,
      "##ites": 2656,
      "quickly": 2657,
      "##ma": 2658,
      "idea": 2659,
      "center": 2660,
      "##vir": 2661,
      "##onst": 2662,
      "sea": 2663,
      "already": 2664,
      "Day": 2665,
      "cal": 2666,
      "Force": 2667,
      "##ump": 2668,
      "bridge": 2669,
      "Soc": 2670,
      "##atory": 2671,
      "frequ": 2672,
      "##usp": 2673,
      "Most": 2674,
      "occup": 2675,
      "election": 2676,
      "##unt": 2677,
      "pil": 2678,
      "except": 2679,
      "##eum": 2680,
      "Coun": 2681,
      "deal": 2682,
      "arrived": 2683,
      "block": 2684,
      "bur": 2685,
      "##anded": 2686,
      "##ores": 2687,
      "western": 2688,
      "civil": 2689,
      "Britain": 2690,
      "Rob": 2691,
      "Do": 2692,
      "##specially": 2693,
      "usually": 2694,
      "##back": 2695,
      "musical": 2696,
      "score": 2697,
      "radio": 2698,
      "##aring": 2699,
      "##ift": 2700,
      "##asons": 2701,
      "##ults": 2702,
      "appl": 2703,
      "##liam": 2704,
      "##be": 2705,
      "Pac": 2706,
      "money": 2707,
      "Du": 2708,
      "##lying": 2709,
      "sometimes": 2710,
      "female": 2711,
      "decision": 2712,
      "response": 2713,
      "Mont": 2714,
      "food": 2715,
      "study": 2716,
      "magazine": 2717,
      "Later": 2718,
      "Victor": 2719,
      "especially": 2720,
      "access": 2721,
      "issue": 2722,
      "prepar": 2723,
      "lab": 2724,
      "flood": 2725,
      "Franc": 2726,
      "##liament": 2727,
      "liter": 2728,
      "surface": 2729,
      "carried": 2730,
      "might": 2731,
      "estimated": 2732,
      "guitar": 2733,
      "Ev": 2734,
      "community": 2735,
      "##ective": 2736,
      "Chic": 2737,
      "shows": 2738,
      "Ben": 2739,
      "remain": 2740,
      "defeated": 2741,
      "eastern": 2742,
      "think": 2743,
      "remaining": 2744,
      "##aries": 2745,
      "minor": 2746,
      "Early": 2747,
      "determ": 2748,
      "Super": 2749,
      "wood": 2750,
      "approx": 2751,
      "larger": 2752,
      "lo": 2753,
      "tar": 2754,
      "##ulf": 2755,
      "becoming": 2756,
      "##ha": 2757,
      "Over": 2758,
      "Virginia": 2759,
      "slow": 2760,
      "construct": 2761,
      "complete": 2762,
      "##ror": 2763,
      "police": 2764,
      "##asc": 2765,
      "Cont": 2766,
      "##gen": 2767,
      "##irth": 2768,
      "##porary": 2769,
      "der": 2770,
      "teams": 2771,
      "##erve": 2772,
      "entered": 2773,
      "media": 2774,
      "suggested": 2775,
      "pressure": 2776,
      "Los": 2777,
      "latter": 2778,
      "pen": 2779,
      "##NA": 2780,
      "Just": 2781,
      "commercial": 2782,
      "doc": 2783,
      "lyric": 2784,
      "investig": 2785,
      "surround": 2786,
      "consider": 2787,
      "##sy": 2788,
      "##inent": 2789,
      "market": 2790,
      "brief": 2791,
      "concern": 2792,
      "Second": 2793,
      "students": 2794,
      "##irt": 2795,
      "##bs": 2796,
      "prison": 2797,
      "##ederal": 2798,
      "If": 2799,
      "acqu": 2800,
      "discuss": 2801,
      "appointed": 2802,
      "##alled": 2803,
      "effects": 2804,
      "Jackson": 2805,
      "Tex": 2806,
      "prior": 2807,
      "##enth": 2808,
      "certain": 2809,
      "sat": 2810,
      "##acing": 2811,
      "##igg": 2812,
      "hop": 2813,
      "summer": 2814,
      "##change": 2815,
      "##incip": 2816,
      "episodes": 2817,
      "river": 2818,
      "staff": 2819,
      "emer": 2820,
      "den": 2821,
      "##ecting": 2822,
      "size": 2823,
      "##anced": 2824,
      "Oly": 2825,
      "Louis": 2826,
      "destroyed": 2827,
      "##ridge": 2828,
      "changes": 2829,
      "##ulated": 2830,
      "commission": 2831,
      "scenes": 2832,
      "winning": 2833,
      "##imate": 2834,
      "limited": 2835,
      "fleet": 2836,
      "leaving": 2837,
      "##ector": 2838,
      "Spanish": 2839,
      "Olymp": 2840,
      "Dep": 2841,
      "##viron": 2842,
      "Club": 2843,
      "pay": 2844,
      "##iser": 2845,
      "draw": 2846,
      "##ties": 2847,
      "##tr": 2848,
      "##omer": 2849,
      "##iles": 2850,
      "##igade": 2851,
      "rights": 2852,
      "provide": 2853,
      "##idents": 2854,
      "polic": 2855,
      "trib": 2856,
      "date": 2857,
      "##ournal": 2858,
      "##ension": 2859,
      "Green": 2860,
      "writer": 2861,
      "fail": 2862,
      "territ": 2863,
      "kil": 2864,
      "proposed": 2865,
      "influence": 2866,
      "diss": 2867,
      "react": 2868,
      "##eleb": 2869,
      "overall": 2870,
      "division": 2871,
      "girl": 2872,
      "di": 2873,
      "structure": 2874,
      "##inese": 2875,
      "Party": 2876,
      "##inct": 2877,
      "tax": 2878,
      "arrang": 2879,
      "##ept": 2880,
      "Kh": 2881,
      "Ter": 2882,
      "self": 2883,
      "##iral": 2884,
      "agreed": 2885,
      "Association": 2886,
      "intended": 2887,
      "anti": 2888,
      "##atives": 2889,
      "jud": 2890,
      "type": 2891,
      "wide": 2892,
      "##ronic": 2893,
      "running": 2894,
      "##AF": 2895,
      "room": 2896,
      "Pri": 2897,
      "##ease": 2898,
      "Ital": 2899,
      "Edward": 2900,
      "deep": 2901,
      "Adm": 2902,
      "daughter": 2903,
      "supported": 2904,
      "bow": 2905,
      "purch": 2906,
      "nearly": 2907,
      "##II": 2908,
      "Chicago": 2909,
      "Many": 2910,
      "##tained": 2911,
      "##imum": 2912,
      "Chinese": 2913,
      "establish": 2914,
      "Oper": 2915,
      "research": 2916,
      "##aded": 2917,
      "##ication": 2918,
      "helped": 2919,
      "movement": 2920,
      "married": 2921,
      "##oes": 2922,
      "awarded": 2923,
      "intens": 2924,
      "multip": 2925,
      "Council": 2926,
      "Song": 2927,
      "##atively": 2928,
      "favor": 2929,
      "create": 2930,
      "##leg": 2931,
      "dark": 2932,
      "susp": 2933,
      "Enter": 2934,
      "bird": 2935,
      "##owers": 2936,
      "##che": 2937,
      "##dle": 2938,
      "##ys": 2939,
      "Sal": 2940,
      "Kn": 2941,
      "longer": 2942,
      "stars": 2943,
      "##uing": 2944,
      "cat": 2945,
      "##icted": 2946,
      "language": 2947,
      "aw": 2948,
      "captured": 2949,
      "planned": 2950,
      "higher": 2951,
      "Serv": 2952,
      "##que": 2953,
      "increasing": 2954,
      "##ari": 2955,
      "compared": 2956,
      "Kore": 2957,
      "fans": 2958,
      "conclud": 2959,
      "course": 2960,
      "changed": 2961,
      "##ault": 2962,
      "approximately": 2963,
      "experience": 2964,
      "feature": 2965,
      "related": 2966,
      "Johnson": 2967,
      "##selves": 2968,
      "living": 2969,
      "##ounds": 2970,
      "##abit": 2971,
      "fifth": 2972,
      "Ot": 2973,
      "##enty": 2974,
      "themselves": 2975,
      "done": 2976,
      "History": 2977,
      "withd": 2978,
      "Pacific": 2979,
      "tracks": 2980,
      "producer": 2981,
      "mostly": 2982,
      "temper": 2983,
      "##bers": 2984,
      "Inf": 2985,
      "ens": 2986,
      "##isions": 2987,
      "Back": 2988,
      "Inter": 2989,
      "App": 2990,
      "operations": 2991,
      "imm": 2992,
      "##oe": 2993,
      "##essed": 2994,
      "dead": 2995,
      "space": 2996,
      "Not": 2997,
      "##umn": 2998,
      "Billboard": 2999,
      "thus": 3000,
      "##olic": 3001,
      "##ij": 3002,
      "woman": 3003,
      "remains": 3004,
      "let": 3005,
      "bring": 3006,
      "##thing": 3007,
      "##itting": 3008,
      "quarter": 3009,
      "ult": 3010,
      "##imin": 3011,
      "soldiers": 3012,
      "shoot": 3013,
      "natural": 3014,
      "our": 3015,
      "##uth": 3016,
      "##oint": 3017,
      "whether": 3018,
      "Under": 3019,
      "##andon": 3020,
      "weap": 3021,
      "##can": 3022,
      "probably": 3023,
      "current": 3024,
      "##bour": 3025,
      "face": 3026,
      "Final": 3027,
      "##raz": 3028,
      "##hood": 3029,
      "##ergy": 3030,
      "Scot": 3031,
      "battles": 3032,
      "complex": 3033,
      "buildings": 3034,
      "copies": 3035,
      "##aph": 3036,
      "Sun": 3037,
      "Since": 3038,
      "forward": 3039,
      "leader": 3040,
      "##rown": 3041,
      "lyrics": 3042,
      "voice": 3043,
      "extended": 3044,
      "boy": 3045,
      "##ibr": 3046,
      "portr": 3047,
      "board": 3048,
      "chall": 3049,
      "Str": 3050,
      "##ospital": 3051,
      "heav": 3052,
      "##rupt": 3053,
      "issued": 3054,
      "Atlantic": 3055,
      "suffered": 3056,
      "transport": 3057,
      "really": 3058,
      "##ees": 3059,
      "##riage": 3060,
      "countries": 3061,
      "deg": 3062,
      "Lake": 3063,
      "Fort": 3064,
      "cm": 3065,
      "immediately": 3066,
      "includes": 3067,
      "Sever": 3068,
      "attract": 3069,
      "Love": 3070,
      "##iant": 3071,
      "Florida": 3072,
      "##gn": 3073,
      "cur": 3074,
      "Both": 3075,
      "goals": 3076,
      "cann": 3077,
      "Jim": 3078,
      "##cher": 3079,
      "Jew": 3080,
      "capital": 3081,
      "private": 3082,
      "mixed": 3083,
      "manager": 3084,
      "officers": 3085,
      "likely": 3086,
      "breed": 3087,
      "broadcast": 3088,
      "##etic": 3089,
      "Old": 3090,
      "##rol": 3091,
      "mach": 3092,
      "removed": 3093,
      "##bury": 3094,
      "##mpire": 3095,
      "##hold": 3096,
      "plant": 3097,
      "script": 3098,
      "distrib": 3099,
      "Ol": 3100,
      "##vert": 3101,
      "##ili": 3102,
      "##ette": 3103,
      "celeb": 3104,
      "##ny": 3105,
      "increase": 3106,
      "Dist": 3107,
      "subsequently": 3108,
      "Texas": 3109,
      "initial": 3110,
      "Sea": 3111,
      "Queen": 3112,
      "China": 3113,
      "Mr": 3114,
      "Town": 3115,
      "health": 3116,
      "Tor": 3117,
      "always": 3118,
      "leave": 3119,
      "plans": 3120,
      "compan": 3121,
      "status": 3122,
      "##order": 3123,
      "focus": 3124,
      "via": 3125,
      "Another": 3126,
      "location": 3127,
      "Law": 3128,
      "Trans": 3129,
      "services": 3130,
      "network": 3131,
      "visit": 3132,
      "coin": 3133,
      "Camp": 3134,
      "mur": 3135,
      "##rial": 3136,
      "##jected": 3137,
      "depart": 3138,
      "##ros": 3139,
      "problems": 3140,
      "confl": 3141,
      "uns": 3142,
      "##rison": 3143,
      "##burg": 3144,
      "offered": 3145,
      "flag": 3146,
      "colon": 3147,
      "How": 3148,
      "##ously": 3149,
      "Lord": 3150,
      "tor": 3151,
      "Earth": 3152,
      "instr": 3153,
      "terms": 3154,
      "approach": 3155,
      "Carol": 3156,
      "canc": 3157,
      "##ograph": 3158,
      "Pet": 3159,
      "##aily": 3160,
      "##ria": 3161,
      "Del": 3162,
      "Gre": 3163,
      "norm": 3164,
      "##tainment": 3165,
      "Const": 3166,
      "tons": 3167,
      "Ro": 3168,
      "village": 3169,
      "carry": 3170,
      "model": 3171,
      "something": 3172,
      "Boy": 3173,
      "administ": 3174,
      "##ills": 3175,
      "##orning": 3176,
      "tow": 3177,
      "counter": 3178,
      "Wood": 3179,
      "majority": 3180,
      "Big": 3181,
      "meth": 3182,
      "professional": 3183,
      "##vironment": 3184,
      "sch": 3185,
      "Canadian": 3186,
      "##ga": 3187,
      "Its": 3188,
      "ran": 3189,
      "##uf": 3190,
      "inters": 3191,
      "##adium": 3192,
      "Africa": 3193,
      "got": 3194,
      "Rail": 3195,
      "damaged": 3196,
      "consist": 3197,
      "Bur": 3198,
      "Sir": 3199,
      "##aches": 3200,
      "##uries": 3201,
      "cause": 3202,
      "adop": 3203,
      "meeting": 3204,
      "job": 3205,
      "appears": 3206,
      "minute": 3207,
      "Squadron": 3208,
      "Center": 3209,
      "##ging": 3210,
      "confir": 3211,
      "ranked": 3212,
      "Mel": 3213,
      "lay": 3214,
      "Rh": 3215,
      "Russian": 3216,
      "III": 3217,
      "attacks": 3218,
      "composed": 3219,
      "##esh": 3220,
      "##ify": 3221,
      "Highway": 3222,
      "Rad": 3223,
      "##itect": 3224,
      "##olk": 3225,
      "revealed": 3226,
      "flight": 3227,
      "##imb": 3228,
      "##arch": 3229,
      "plot": 3230,
      "discovered": 3231,
      "##ends": 3232,
      "raised": 3233,
      "##reak": 3234,
      "##lor": 3235,
      "##umed": 3236,
      "financ": 3237,
      "Rel": 3238,
      "contem": 3239,
      "Kent": 3240,
      "Central": 3241,
      "respectively": 3242,
      "makes": 3243,
      "Kr": 3244,
      "Martin": 3245,
      "associated": 3246,
      "Lu": 3247,
      "thr": 3248,
      "numerous": 3249,
      "rout": 3250,
      "anc": 3251,
      "domin": 3252,
      "##aging": 3253,
      "##ription": 3254,
      "Angeles": 3255,
      "takes": 3256,
      "altern": 3257,
      "inspired": 3258,
      "##ails": 3259,
      "needed": 3260,
      "amb": 3261,
      "account": 3262,
      "lived": 3263,
      "coach": 3264,
      "launched": 3265,
      "Dis": 3266,
      "yet": 3267,
      "##aught": 3268,
      "attacked": 3269,
      "cand": 3270,
      "rd": 3271,
      "occurred": 3272,
      "nature": 3273,
      "##aud": 3274,
      "Year": 3275,
      "attempted": 3276,
      "##uments": 3277,
      "contains": 3278,
      "hour": 3279,
      "vehic": 3280,
      "Bu": 3281,
      "DV": 3282,
      "TV": 3283,
      "shown": 3284,
      "Miss": 3285,
      "##ken": 3286,
      "conditions": 3287,
      "##down": 3288,
      "##estival": 3289,
      "moving": 3290,
      "Congress": 3291,
      "sales": 3292,
      "##iest": 3293,
      "Tour": 3294,
      "accomp": 3295,
      "Group": 3296,
      "##cy": 3297,
      "fore": 3298,
      "##joy": 3299,
      "##win": 3300,
      "sen": 3301,
      "##urity": 3302,
      "ang": 3303,
      "refl": 3304,
      "##ports": 3305,
      "Rev": 3306,
      "issues": 3307,
      "Tur": 3308,
      "yards": 3309,
      "birth": 3310,
      "exam": 3311,
      "slight": 3312,
      "Empire": 3313,
      "##izing": 3314,
      "whole": 3315,
      "upper": 3316,
      "information": 3317,
      "##rect": 3318,
      "##cean": 3319,
      "subject": 3320,
      "Sk": 3321,
      "##isk": 3322,
      "referred": 3323,
      "farm": 3324,
      "Out": 3325,
      "incor": 3326,
      "mom": 3327,
      "box": 3328,
      "##quar": 3329,
      "critical": 3330,
      "sal": 3331,
      "prec": 3332,
      "bad": 3333,
      "smaller": 3334,
      "selected": 3335,
      "##ogue": 3336,
      "resulted": 3337,
      "numbers": 3338,
      "finally": 3339,
      "##reme": 3340,
      "Jose": 3341,
      "##eather": 3342,
      "Penn": 3343,
      "elected": 3344,
      "Er": 3345,
      "cer": 3346,
      "##ellow": 3347,
      "scient": 3348,
      "experi": 3349,
      "grant": 3350,
      "active": 3351,
      "##zz": 3352,
      "Gar": 3353,
      "singer": 3354,
      "grand": 3355,
      "princip": 3356,
      "Italian": 3357,
      "##enant": 3358,
      "secret": 3359,
      "mission": 3360,
      "##itation": 3361,
      "Bow": 3362,
      "##uated": 3363,
      "operation": 3364,
      "standard": 3365,
      "industry": 3366,
      "Kar": 3367,
      "##ases": 3368,
      "Arm": 3369,
      "Tel": 3370,
      "largely": 3371,
      "##eek": 3372,
      "##well": 3373,
      "assigned": 3374,
      "sem": 3375,
      "##oud": 3376,
      "##rate": 3377,
      "##ortun": 3378,
      "analy": 3379,
      "legisl": 3380,
      "saf": 3381,
      "earned": 3382,
      "commented": 3383,
      "##ality": 3384,
      "Corps": 3385,
      "web": 3386,
      "expected": 3387,
      "male": 3388,
      "##itude": 3389,
      "pair": 3390,
      "DVD": 3391,
      "audience": 3392,
      "listed": 3393,
      "suggest": 3394,
      "hot": 3395,
      "Cons": 3396,
      "covered": 3397,
      "Crit": 3398,
      "pit": 3399,
      "artic": 3400,
      "purp": 3401,
      "gre": 3402,
      "unable": 3403,
      "sched": 3404,
      "indic": 3405,
      "##ider": 3406,
      "Michigan": 3407,
      "plat": 3408,
      "traditional": 3409,
      "trade": 3410,
      "underst": 3411,
      "artist": 3412,
      "Viet": 3413,
      "refused": 3414,
      "education": 3415,
      "closed": 3416,
      "friends": 3417,
      "attention": 3418,
      "##ounts": 3419,
      "primary": 3420,
      "method": 3421,
      "double": 3422,
      "newsp": 3423,
      "prevent": 3424,
      "##ste": 3425,
      "##ighter": 3426,
      "below": 3427,
      "##aped": 3428,
      "##anes": 3429,
      "sister": 3430,
      "##ipped": 3431,
      "kind": 3432,
      "royal": 3433,
      "Wales": 3434,
      "officer": 3435,
      "und": 3436,
      "reason": 3437,
      "depression": 3438,
      "letter": 3439,
      "dig": 3440,
      "##lo": 3441,
      "performances": 3442,
      "enjoy": 3443,
      "ability": 3444,
      "Mass": 3445,
      "meant": 3446,
      "Nort": 3447,
      "declared": 3448,
      "##ims": 3449,
      "fighting": 3450,
      "##iled": 3451,
      "blood": 3452,
      "giving": 3453,
      "##ona": 3454,
      "commander": 3455,
      "##undred": 3456,
      "word": 3457,
      "Pre": 3458,
      "theat": 3459,
      "religious": 3460,
      "Cath": 3461,
      "concept": 3462,
      "##ples": 3463,
      "middle": 3464,
      "max": 3465,
      "##ka": 3466,
      "rate": 3467,
      "books": 3468,
      "Arch": 3469,
      "Ox": 3470,
      "matches": 3471,
      "amount": 3472,
      "names": 3473,
      "Democr": 3474,
      "##com": 3475,
      "##ady": 3476,
      "Acad": 3477,
      "Step": 3478,
      "##tered": 3479,
      "Long": 3480,
      "records": 3481,
      "mor": 3482,
      "##oses": 3483,
      "constit": 3484,
      "impact": 3485,
      "Bec": 3486,
      "##aine": 3487,
      "unit": 3488,
      "Fer": 3489,
      "recover": 3490,
      "produce": 3491,
      "question": 3492,
      "Test": 3493,
      "Zeal": 3494,
      "Team": 3495,
      "Wal": 3496,
      "centre": 3497,
      "##ounded": 3498,
      "serious": 3499,
      "Major": 3500,
      "competition": 3501,
      "touch": 3502,
      "##ien": 3503,
      "Sar": 3504,
      "##utch": 3505,
      "##antasy": 3506,
      "##odies": 3507,
      "disapp": 3508,
      "vocals": 3509,
      "Midd": 3510,
      "##uct": 3511,
      "abandon": 3512,
      "mention": 3513,
      "Minister": 3514,
      "Several": 3515,
      "Matt": 3516,
      "rapid": 3517,
      "text": 3518,
      "##osh": 3519,
      "##road": 3520,
      "necess": 3521,
      "kilomet": 3522,
      "har": 3523,
      "##overs": 3524,
      "energy": 3525,
      "##rid": 3526,
      "##ening": 3527,
      "train": 3528,
      "traff": 3529,
      "##echan": 3530,
      "constructed": 3531,
      "Kenn": 3532,
      "##ervation": 3533,
      "dut": 3534,
      "So": 3535,
      "##use": 3536,
      "theme": 3537,
      "##we": 3538,
      "Zealand": 3539,
      "##ban": 3540,
      "##ado": 3541,
      "##ishop": 3542,
      "Fox": 3543,
      "Sum": 3544,
      "##onic": 3545,
      "pick": 3546,
      "highly": 3547,
      "Time": 3548,
      "nearby": 3549,
      "##rier": 3550,
      "separate": 3551,
      "Mexico": 3552,
      "positions": 3553,
      "Dar": 3554,
      "##ether": 3555,
      "continue": 3556,
      "annual": 3557,
      "drum": 3558,
      "effort": 3559,
      "heart": 3560,
      "combat": 3561,
      "chief": 3562,
      "African": 3563,
      "Haw": 3564,
      "presented": 3565,
      "Four": 3566,
      "reduced": 3567,
      "controvers": 3568,
      "##ender": 3569,
      "##emorial": 3570,
      "##oper": 3571,
      "##ibly": 3572,
      "##ieut": 3573,
      "##work": 3574,
      "directly": 3575,
      "##ingu": 3576,
      "##ining": 3577,
      "##ansion": 3578,
      "levels": 3579,
      "Tre": 3580,
      "Chris": 3581,
      "object": 3582,
      "means": 3583,
      "cle": 3584,
      "notes": 3585,
      "##rug": 3586,
      "neigh": 3587,
      "Wall": 3588,
      "sevent": 3589,
      "tried": 3590,
      "attended": 3591,
      "Hung": 3592,
      "practice": 3593,
      "nuc": 3594,
      "compos": 3595,
      "fast": 3596,
      "edition": 3597,
      "Madonna": 3598,
      "##vement": 3599,
      "Bob": 3600,
      "metal": 3601,
      "accepted": 3602,
      "twenty": 3603,
      "##ita": 3604,
      "stating": 3605,
      "architect": 3606,
      "watch": 3607,
      "movie": 3608,
      "concert": 3609,
      "rein": 3610,
      "##isation": 3611,
      "##lled": 3612,
      "##osen": 3613,
      "candid": 3614,
      "##shire": 3615,
      "##ires": 3616,
      "##awn": 3617,
      "##track": 3618,
      "Ann": 3619,
      "##stitute": 3620,
      "Scotland": 3621,
      "##inson": 3622,
      "##house": 3623,
      "direction": 3624,
      "##eway": 3625,
      "Jones": 3626,
      "seem": 3627,
      "dism": 3628,
      "thick": 3629,
      "##illery": 3630,
      "schools": 3631,
      "legal": 3632,
      "Their": 3633,
      "##ersey": 3634,
      "Infantry": 3635,
      "Manc": 3636,
      "##icip": 3637,
      "oil": 3638,
      "Cross": 3639,
      "Department": 3640,
      "##inem": 3641,
      "intell": 3642,
      "asp": 3643,
      "horse": 3644,
      "recomm": 3645,
      "purs": 3646,
      "efforts": 3647,
      "college": 3648,
      "managed": 3649,
      "##eath": 3650,
      "ending": 3651,
      "marriage": 3652,
      "Greek": 3653,
      "lif": 3654,
      "resulting": 3655,
      "draft": 3656,
      "Dou": 3657,
      "##wide": 3658,
      "responsible": 3659,
      "##utions": 3660,
      "##ieutenant": 3661,
      "Three": 3662,
      "avoid": 3663,
      "##irit": 3664,
      "wing": 3665,
      "spl": 3666,
      "##ih": 3667,
      "showed": 3668,
      "##MS": 3669,
      "overs": 3670,
      "dropped": 3671,
      "Post": 3672,
      "##band": 3673,
      "##arian": 3674,
      "inside": 3675,
      "Go": 3676,
      "Arab": 3677,
      "display": 3678,
      "Bost": 3679,
      "##like": 3680,
      "##illed": 3681,
      "##arrow": 3682,
      "cyclone": 3683,
      "nation": 3684,
      "Coll": 3685,
      "environment": 3686,
      "Foot": 3687,
      "cases": 3688,
      "kept": 3689,
      "vo": 3690,
      "Ke": 3691,
      "##peror": 3692,
      "rat": 3693,
      "cust": 3694,
      "morning": 3695,
      "culture": 3696,
      "meaning": 3697,
      "Creek": 3698,
      "dom": 3699,
      "##cing": 3700,
      "##olf": 3701,
      "begins": 3702,
      "incorpor": 3703,
      "variety": 3704,
      "##ceeded": 3705,
      "houses": 3706,
      "subst": 3707,
      "championship": 3708,
      "du": 3709,
      "Stone": 3710,
      "forms": 3711,
      "Service": 3712,
      "product": 3713,
      "words": 3714,
      "cerem": 3715,
      "schol": 3716,
      "##cend": 3717,
      "BC": 3718,
      "ge": 3719,
      "##ya": 3720,
      "perm": 3721,
      "##ini": 3722,
      "Williams": 3723,
      "inches": 3724,
      "continues": 3725,
      "marked": 3726,
      "yard": 3727,
      "Leg": 3728,
      "favour": 3729,
      "Records": 3730,
      "Secret": 3731,
      "Che": 3732,
      "##gl": 3733,
      "##ils": 3734,
      "##sw": 3735,
      "Hel": 3736,
      "##enge": 3737,
      "symb": 3738,
      "science": 3739,
      "bank": 3740,
      "Av": 3741,
      "##iated": 3742,
      "uses": 3743,
      "economic": 3744,
      "##ols": 3745,
      "ra": 3746,
      "##gypt": 3747,
      "##writ": 3748,
      "Games": 3749,
      "Cle": 3750,
      "Tri": 3751,
      "Parliament": 3752,
      "source": 3753,
      "Fin": 3754,
      "metres": 3755,
      "##ylv": 3756,
      "##kn": 3757,
      "Stan": 3758,
      "hundred": 3759,
      "##ulations": 3760,
      "quality": 3761,
      "Book": 3762,
      "##sis": 3763,
      "starting": 3764,
      "conducted": 3765,
      "##thur": 3766,
      "Sol": 3767,
      "allowing": 3768,
      "sides": 3769,
      "Egypt": 3770,
      "##light": 3771,
      "specific": 3772,
      "strugg": 3773,
      "beat": 3774,
      "presence": 3775,
      "Oh": 3776,
      "Society": 3777,
      "##cle": 3778,
      "##wh": 3779,
      "##bed": 3780,
      "Ap": 3781,
      "Sur": 3782,
      "suppl": 3783,
      "Jer": 3784,
      "Ma": 3785,
      "exhib": 3786,
      "chap": 3787,
      "viewers": 3788,
      "dance": 3789,
      "##ada": 3790,
      "Win": 3791,
      "Sil": 3792,
      "##sych": 3793,
      "##ications": 3794,
      "rule": 3795,
      "univers": 3796,
      "transferred": 3797,
      "distinct": 3798,
      "Southern": 3799,
      "raid": 3800,
      "Prince": 3801,
      "Beat": 3802,
      "##teen": 3803,
      "Latin": 3804,
      "Sat": 3805,
      "potential": 3806,
      "Stephen": 3807,
      "Committee": 3808,
      "foreign": 3809,
      "Clark": 3810,
      "Spec": 3811,
      "enemy": 3812,
      "Oxford": 3813,
      "##mark": 3814,
      "ple": 3815,
      "peaked": 3816,
      "Georg": 3817,
      "mel": 3818,
      "##inet": 3819,
      "advance": 3820,
      "traffic": 3821,
      "Joseph": 3822,
      "your": 3823,
      "##itiz": 3824,
      "Ver": 3825,
      "becomes": 3826,
      "Bas": 3827,
      "owned": 3828,
      "things": 3829,
      "##venue": 3830,
      "captain": 3831,
      "founded": 3832,
      "greater": 3833,
      "Hal": 3834,
      "portion": 3835,
      "Admiral": 3836,
      "News": 3837,
      "Like": 3838,
      "vocal": 3839,
      "encoun": 3840,
      "big": 3841,
      "Brad": 3842,
      "Tw": 3843,
      "concluded": 3844,
      "##ux": 3845,
      "attend": 3846,
      "respond": 3847,
      "Camb": 3848,
      "Boston": 3849,
      "attempts": 3850,
      "##iance": 3851,
      "relatively": 3852,
      "federal": 3853,
      "Class": 3854,
      "##mon": 3855,
      "##very": 3856,
      "ded": 3857,
      "appar": 3858,
      "Manchester": 3859,
      "scoring": 3860,
      "Chief": 3861,
      "property": 3862,
      "primarily": 3863,
      "Harrison": 3864,
      "stories": 3865,
      "castle": 3866,
      "demonst": 3867,
      "mess": 3868,
      "##rawn": 3869,
      "financial": 3870,
      "##fect": 3871,
      "actually": 3872,
      "Jeff": 3873,
      "Because": 3874,
      "Form": 3875,
      "er": 3876,
      "Before": 3877,
      "animals": 3878,
      "Captain": 3879,
      "Dire": 3880,
      "Battalion": 3881,
      "Tim": 3882,
      "tourn": 3883,
      "Vietn": 3884,
      "Hurricane": 3885,
      "observed": 3886,
      "multiple": 3887,
      "Swed": 3888,
      "collection": 3889,
      "Commission": 3890,
      "opportun": 3891,
      "##istics": 3892,
      "wa": 3893,
      "titled": 3894,
      "##udd": 3895,
      "featuring": 3896,
      "inch": 3897,
      "contact": 3898,
      "weaken": 3899,
      "strength": 3900,
      "Bat": 3901,
      "Bridge": 3902,
      "writers": 3903,
      "tur": 3904,
      "##stein": 3905,
      "Def": 3906,
      "write": 3907,
      "Dev": 3908,
      "Pan": 3909,
      "journal": 3910,
      "situation": 3911,
      "wor": 3912,
      "mechan": 3913,
      "paid": 3914,
      "##umber": 3915,
      "spot": 3916,
      "Ott": 3917,
      "distance": 3918,
      "figure": 3919,
      "companies": 3920,
      "parents": 3921,
      "premi": 3922,
      "##perial": 3923,
      "passeng": 3924,
      "independent": 3925,
      "progress": 3926,
      "onto": 3927,
      "divided": 3928,
      "##eds": 3929,
      "acting": 3930,
      "actor": 3931,
      "mind": 3932,
      "Columb": 3933,
      "Carl": 3934,
      "slightly": 3935,
      "era": 3936,
      "Paris": 3937,
      "link": 3938,
      "Luc": 3939,
      "##iced": 3940,
      "Series": 3941,
      "collabor": 3942,
      "Van": 3943,
      "target": 3944,
      "##mas": 3945,
      "piece": 3946,
      "##ental": 3947,
      "torped": 3948,
      "Mod": 3949,
      "powerful": 3950,
      "function": 3951,
      "reform": 3952,
      "share": 3953,
      "##anna": 3954,
      "innings": 3955,
      "concent": 3956,
      "selling": 3957,
      "##mond": 3958,
      "##de": 3959,
      "##omy": 3960,
      "##osaur": 3961,
      "Pop": 3962,
      "Max": 3963,
      "rating": 3964,
      "##rel": 3965,
      "broke": 3966,
      "##astic": 3967,
      "BBC": 3968,
      "##istry": 3969,
      "plays": 3970,
      "##chest": 3971,
      "today": 3972,
      "##ricket": 3973,
      "Histor": 3974,
      "ultimately": 3975,
      "##uge": 3976,
      "lot": 3977,
      "trial": 3978,
      "walk": 3979,
      "cho": 3980,
      "waters": 3981,
      "##oration": 3982,
      "actions": 3983,
      "rough": 3984,
      "##annel": 3985,
      "Croat": 3986,
      "maximum": 3987,
      "##illa": 3988,
      "##ply": 3989,
      "Hor": 3990,
      "log": 3991,
      "Life": 3992,
      "ring": 3993,
      "##acts": 3994,
      "##aga": 3995,
      "completely": 3996,
      "bound": 3997,
      "Mic": 3998,
      "sought": 3999,
      "Academy": 4000,
      "pilot": 4001,
      "Young": 4002,
      "policy": 4003,
      "blue": 4004,
      "Museum": 4005,
      "##lee": 4006,
      "scale": 4007,
      "interp": 4008,
      "ess": 4009,
      "designated": 4010,
      "society": 4011,
      "##eball": 4012,
      "hus": 4013,
      "##ota": 4014,
      "mainly": 4015,
      "Line": 4016,
      "struck": 4017,
      "##AS": 4018,
      "behav": 4019,
      "Den": 4020,
      "combined": 4021,
      "officials": 4022,
      "Saint": 4023,
      "##king": 4024,
      "northeast": 4025,
      "Way": 4026,
      "influenced": 4027,
      "square": 4028,
      "activity": 4029,
      "bene": 4030,
      "vess": 4031,
      "suc": 4032,
      "transl": 4033,
      "Little": 4034,
      "search": 4035,
      "##ero": 4036,
      "##olved": 4037,
      "##rie": 4038,
      "wear": 4039,
      "##sen": 4040,
      "say": 4041,
      "alongside": 4042,
      "sout": 4043,
      "Brigade": 4044,
      "sn": 4045,
      "corn": 4046,
      "ice": 4047,
      "Italy": 4048,
      "contrast": 4049,
      "Entertainment": 4050,
      "battleship": 4051,
      "calling": 4052,
      "batter": 4053,
      "##iano": 4054,
      "thous": 4055,
      "seconds": 4056,
      "##while": 4057,
      "Americans": 4058,
      "Wind": 4059,
      "sources": 4060,
      "Lee": 4061,
      "##ala": 4062,
      "seg": 4063,
      "naval": 4064,
      "Ell": 4065,
      "##right": 4066,
      "background": 4067,
      "winter": 4068,
      "Regiment": 4069,
      "crow": 4070,
      "##ube": 4071,
      "platform": 4072,
      "More": 4073,
      "##adel": 4074,
      "webs": 4075,
      "Tod": 4076,
      "##quarters": 4077,
      "conver": 4078,
      "recent": 4079,
      "mem": 4080,
      "Ire": 4081,
      "gained": 4082,
      "theory": 4083,
      "nominated": 4084,
      "artists": 4085,
      "Aut": 4086,
      "Avenue": 4087,
      "electric": 4088,
      "promoted": 4089,
      "Add": 4090,
      "widely": 4091,
      "weather": 4092,
      "encour": 4093,
      "Spr": 4094,
      "Ireland": 4095,
      "confirmed": 4096,
      "##HL": 4097,
      "systems": 4098,
      "##TV": 4099,
      "passing": 4100,
      "reaching": 4101,
      "results": 4102,
      "proved": 4103,
      "##ibrary": 4104,
      "invasion": 4105,
      "##egr": 4106,
      "Fleet": 4107,
      "conflict": 4108,
      "##edd": 4109,
      "greatest": 4110,
      "subsequent": 4111,
      "Good": 4112,
      "##pson": 4113,
      "news": 4114,
      "explained": 4115,
      "albums": 4116,
      "opt": 4117,
      "peace": 4118,
      "coming": 4119,
      "northwest": 4120,
      "iron": 4121,
      "content": 4122,
      "sixth": 4123,
      "compr": 4124,
      "resist": 4125,
      "Ray": 4126,
      "wick": 4127,
      "charge": 4128,
      "##ips": 4129,
      "county": 4130,
      "##ias": 4131,
      "##aven": 4132,
      "Bus": 4133,
      "##essions": 4134,
      "##iring": 4135,
      "shortly": 4136,
      "##heless": 4137,
      "Orig": 4138,
      "sust": 4139,
      "says": 4140,
      "adj": 4141,
      "serve": 4142,
      "causing": 4143,
      "Victoria": 4144,
      "versions": 4145,
      "path": 4146,
      "Sant": 4147,
      "##itness": 4148,
      "##ipment": 4149,
      "Tropical": 4150,
      "expressed": 4151,
      "border": 4152,
      "##known": 4153,
      "reception": 4154,
      "residents": 4155,
      "Charl": 4156,
      "Ry": 4157,
      "Work": 4158,
      "Lo": 4159,
      "Sub": 4160,
      "##itan": 4161,
      "deliv": 4162,
      "Catholic": 4163,
      "emot": 4164,
      "##iro": 4165,
      "cities": 4166,
      "Norm": 4167,
      "poll": 4168,
      "chem": 4169,
      "soundtrack": 4170,
      "Live": 4171,
      "Valley": 4172,
      "seasons": 4173,
      "talk": 4174,
      "##ancy": 4175,
      "sense": 4176,
      "##ugh": 4177,
      "green": 4178,
      "Light": 4179,
      "##ufact": 4180,
      "hospital": 4181,
      "appearances": 4182,
      "sexual": 4183,
      "##AA": 4184,
      "##ategory": 4185,
      "artillery": 4186,
      "pun": 4187,
      "hands": 4188,
      "##unction": 4189,
      "identified": 4190,
      "require": 4191,
      "##arn": 4192,
      "Dani": 4193,
      "##ighth": 4194,
      "physical": 4195,
      "older": 4196,
      "Though": 4197,
      "Roll": 4198,
      "kg": 4199,
      "Di": 4200,
      "document": 4201,
      "tells": 4202,
      "Ram": 4203,
      "true": 4204,
      "offer": 4205,
      "Dun": 4206,
      "Conf": 4207,
      "Commun": 4208,
      "Liber": 4209,
      "Through": 4210,
      "weapons": 4211,
      "gas": 4212,
      "represented": 4213,
      "##arden": 4214,
      "Show": 4215,
      "pal": 4216,
      "##eption": 4217,
      "Tem": 4218,
      "ahead": 4219,
      "Fre": 4220,
      "Football": 4221,
      "eas": 4222,
      "##isher": 4223,
      "hors": 4224,
      "Vol": 4225,
      "##icient": 4226,
      "negot": 4227,
      "heavily": 4228,
      "Tay": 4229,
      "image": 4230,
      "##ylvania": 4231,
      "Jul": 4232,
      "Week": 4233,
      "##eed": 4234,
      "##bon": 4235,
      "laws": 4236,
      "defense": 4237,
      "##za": 4238,
      "Upon": 4239,
      "##ms": 4240,
      "Ill": 4241,
      "Bey": 4242,
      "resc": 4243,
      "##abeth": 4244,
      "Dutch": 4245,
      "Hear": 4246,
      "alone": 4247,
      "student": 4248,
      "spread": 4249,
      "studies": 4250,
      "officially": 4251,
      "bit": 4252,
      "district": 4253,
      "compar": 4254,
      "husband": 4255,
      "tun": 4256,
      "executive": 4257,
      "Eliz": 4258,
      "##emic": 4259,
      "prominent": 4260,
      "instit": 4261,
      "Albert": 4262,
      "consisted": 4263,
      "organization": 4264,
      "entr": 4265,
      "stone": 4266,
      "capture": 4267,
      "debuted": 4268,
      "send": 4269,
      "##lers": 4270,
      "appeal": 4271,
      "injury": 4272,
      "Bond": 4273,
      "fired": 4274,
      "wild": 4275,
      "pattern": 4276,
      "defend": 4277,
      "equipment": 4278,
      "Bre": 4279,
      "pack": 4280,
      "poet": 4281,
      "##load": 4282,
      "Mat": 4283,
      "Top": 4284,
      "Rog": 4285,
      "Civil": 4286,
      "figures": 4287,
      "tal": 4288,
      "##aming": 4289,
      "surpr": 4290,
      "##ockey": 4291,
      "exped": 4292,
      "ox": 4293,
      "##ushed": 4294,
      "argued": 4295,
      "Gal": 4296,
      "instrument": 4297,
      "aired": 4298,
      "eth": 4299,
      "pict": 4300,
      "##pool": 4301,
      "suit": 4302,
      "contemporary": 4303,
      "growth": 4304,
      "##acity": 4305,
      "doing": 4306,
      "Dam": 4307,
      "##rical": 4308,
      "returning": 4309,
      "Homer": 4310,
      "floor": 4311,
      "doub": 4312,
      "magn": 4313,
      "##lam": 4314,
      "weight": 4315,
      "laid": 4316,
      "step": 4317,
      "Storm": 4318,
      "Northern": 4319,
      "hers": 4320,
      "earth": 4321,
      "pieces": 4322,
      "##hew": 4323,
      "pra": 4324,
      "##amber": 4325,
      "##ayer": 4326,
      "matter": 4327,
      "Hard": 4328,
      "leaders": 4329,
      "affected": 4330,
      "##bur": 4331,
      "habit": 4332,
      "shell": 4333,
      "##ym": 4334,
      "##appen": 4335,
      "stra": 4336,
      "rang": 4337,
      "here": 4338,
      "maintained": 4339,
      "hyd": 4340,
      "crowd": 4341,
      "termin": 4342,
      "Jon": 4343,
      "occasion": 4344,
      "##ifying": 4345,
      "propos": 4346,
      "visited": 4347,
      "speech": 4348,
      "comes": 4349,
      "chair": 4350,
      "criticized": 4351,
      "##acher": 4352,
      "activities": 4353,
      "##acement": 4354,
      "exec": 4355,
      "##pass": 4356,
      "##amm": 4357,
      "Field": 4358,
      "Carolina": 4359,
      "##ners": 4360,
      "pan": 4361,
      "toward": 4362,
      "hall": 4363,
      "reign": 4364,
      "##rain": 4365,
      "emph": 4366,
      "##duction": 4367,
      "tournament": 4368,
      "Rom": 4369,
      "##orne": 4370,
      "##ocked": 4371,
      "Operation": 4372,
      "citiz": 4373,
      "##uls": 4374,
      "senior": 4375,
      "setting": 4376,
      "singles": 4377,
      "##isco": 4378,
      "##lines": 4379,
      "reference": 4380,
      "couple": 4381,
      "Men": 4382,
      "drug": 4383,
      "formation": 4384,
      "Conn": 4385,
      "adapt": 4386,
      "medical": 4387,
      "##elve": 4388,
      "##ivity": 4389,
      "##intend": 4390,
      "murder": 4391,
      "System": 4392,
      "Scottish": 4393,
      "Marsh": 4394,
      "worldwide": 4395,
      "Government": 4396,
      "##stone": 4397,
      "trying": 4398,
      "Holly": 4399,
      "Colon": 4400,
      "District": 4401,
      "bud": 4402,
      "surre": 4403,
      "territory": 4404,
      "trees": 4405,
      "roll": 4406,
      "Writ": 4407,
      "stations": 4408,
      "machine": 4409,
      "dog": 4410,
      "##embly": 4411,
      "Background": 4412,
      "ut": 4413,
      "rainfall": 4414,
      "load": 4415,
      "displ": 4416,
      "claims": 4417,
      "doll": 4418,
      "Governor": 4419,
      "god": 4420,
      "birds": 4421,
      "Home": 4422,
      "##eller": 4423,
      "Fantasy": 4424,
      "Rod": 4425,
      "guest": 4426,
      "##eman": 4427,
      "historian": 4428,
      "ir": 4429,
      "Guard": 4430,
      "fully": 4431,
      "accident": 4432,
      "##ano": 4433,
      "##agn": 4434,
      "##anger": 4435,
      "cell": 4436,
      "risk": 4437,
      "##ote": 4438,
      "##uled": 4439,
      "Penns": 4440,
      "##hlet": 4441,
      "##omers": 4442,
      "##rael": 4443,
      "value": 4444,
      "therefore": 4445,
      "bott": 4446,
      "chosen": 4447,
      "Short": 4448,
      "treatment": 4449,
      "Duke": 4450,
      "##velopment": 4451,
      "university": 4452,
      "governor": 4453,
      "Senate": 4454,
      "sens": 4455,
      "##ampion": 4456,
      "dyn": 4457,
      "twice": 4458,
      "frequently": 4459,
      "reports": 4460,
      "##ordin": 4461,
      "Ros": 4462,
      "Lew": 4463,
      "leaves": 4464,
      "##stitution": 4465,
      "##illy": 4466,
      "##aved": 4467,
      "remark": 4468,
      "Studios": 4469,
      "faced": 4470,
      "Girl": 4471,
      "Polish": 4472,
      "##irty": 4473,
      "Castle": 4474,
      "paper": 4475,
      "##uous": 4476,
      "##izes": 4477,
      "address": 4478,
      "Eastern": 4479,
      "operated": 4480,
      "walls": 4481,
      "##ledge": 4482,
      "Corn": 4483,
      "Hon": 4484,
      "fear": 4485,
      "##ading": 4486,
      "label": 4487,
      "MD": 4488,
      "billion": 4489,
      "wounded": 4490,
      "color": 4491,
      "follows": 4492,
      "Mean": 4493,
      "opin": 4494,
      "surrounding": 4495,
      "grew": 4496,
      "##ici": 4497,
      "Sel": 4498,
      "##antly": 4499,
      "##ucky": 4500,
      "Os": 4501,
      "manufact": 4502,
      "Andrew": 4503,
      "planet": 4504,
      "Bart": 4505,
      "contained": 4506,
      "Christmas": 4507,
      "Allied": 4508,
      "condition": 4509,
      "##onents": 4510,
      "observ": 4511,
      "##antine": 4512,
      "##resp": 4513,
      "degree": 4514,
      "##azz": 4515,
      "herself": 4516,
      "Mur": 4517,
      "Jud": 4518,
      "accompan": 4519,
      "impress": 4520,
      "passes": 4521,
      "##ety": 4522,
      "typically": 4523,
      "challeng": 4524,
      "visual": 4525,
      "##bit": 4526,
      "##ager": 4527,
      "##pton": 4528,
      "##tle": 4529,
      "fuel": 4530,
      "master": 4531,
      "simply": 4532,
      "Wilson": 4533,
      "reinfor": 4534,
      "brown": 4535,
      "##isters": 4536,
      "Taylor": 4537,
      "Night": 4538,
      "escape": 4539,
      "##fully": 4540,
      "##utation": 4541,
      "element": 4542,
      "mis": 4543,
      "Inst": 4544,
      "Stev": 4545,
      "orders": 4546,
      "fair": 4547,
      "lives": 4548,
      "casual": 4549,
      "railway": 4550,
      "Les": 4551,
      "##add": 4552,
      "editor": 4553,
      "phil": 4554,
      "arms": 4555,
      "##ancing": 4556,
      "serving": 4557,
      "camer": 4558,
      "fan": 4559,
      "consecutive": 4560,
      "moment": 4561,
      "Elizabeth": 4562,
      "Hum": 4563,
      "chose": 4564,
      "nothing": 4565,
      "authority": 4566,
      "vote": 4567,
      "Ha": 4568,
      "Alexander": 4569,
      "cannot": 4570,
      "Each": 4571,
      "##ricult": 4572,
      "workers": 4573,
      "unknown": 4574,
      "newly": 4575,
      "native": 4576,
      "opposed": 4577,
      "participated": 4578,
      "Joe": 4579,
      "burn": 4580,
      "##anda": 4581,
      "Jac": 4582,
      "Cy": 4583,
      "Far": 4584,
      "##andy": 4585,
      "emphas": 4586,
      "##ram": 4587,
      "Pers": 4588,
      "lin": 4589,
      "##gend": 4590,
      "growing": 4591,
      "Of": 4592,
      "bass": 4593,
      "WW": 4594,
      "hun": 4595,
      "attrib": 4596,
      "psych": 4597,
      "website": 4598,
      "Chart": 4599,
      "##ype": 4600,
      "losing": 4601,
      "##war": 4602,
      "newspaper": 4603,
      "extra": 4604,
      "producers": 4605,
      "adopted": 4606,
      "Det": 4607,
      "advanced": 4608,
      "benef": 4609,
      "##iot": 4610,
      "##ilies": 4611,
      "filming": 4612,
      "offensive": 4613,
      "Ret": 4614,
      "##rane": 4615,
      "heard": 4616,
      "Festival": 4617,
      "##imens": 4618,
      "coal": 4619,
      "severe": 4620,
      "Sound": 4621,
      "Pen": 4622,
      "guard": 4623,
      "spirit": 4624,
      "Islands": 4625,
      "Pennsylvania": 4626,
      "What": 4627,
      "opposition": 4628,
      "squadron": 4629,
      "feed": 4630,
      "Hy": 4631,
      "sequence": 4632,
      "##rong": 4633,
      "actors": 4634,
      "Bru": 4635,
      "Wat": 4636,
      "ast": 4637,
      "##bo": 4638,
      "fiction": 4639,
      "basis": 4640,
      "Gall": 4641,
      "##ables": 4642,
      "capacity": 4643,
      "council": 4644,
      "##St": 4645,
      "Card": 4646,
      "weak": 4647,
      "ends": 4648,
      "##TC": 4649,
      "advant": 4650,
      "abandoned": 4651,
      "##isers": 4652,
      "evac": 4653,
      "##room": 4654,
      "prin": 4655,
      "Land": 4656,
      "Further": 4657,
      "Ocean": 4658,
      "Middle": 4659,
      "##ola": 4660,
      "Reception": 4661,
      "horses": 4662,
      "Mike": 4663,
      "Blue": 4664,
      "syn": 4665,
      "Irish": 4666,
      "rival": 4667,
      "SS": 4668,
      "##under": 4669,
      "##onc": 4670,
      "honor": 4671,
      "##iel": 4672,
      "Harry": 4673,
      "##kin": 4674,
      "Tech": 4675,
      "Fam": 4676,
      "##cel": 4677,
      "flying": 4678,
      "elev": 4679,
      "Bab": 4680,
      "kick": 4681,
      "##ico": 4682,
      "sports": 4683,
      "##imet": 4684,
      "##uses": 4685,
      "Spain": 4686,
      "##estic": 4687,
      "homes": 4688,
      "Mid": 4689,
      "bey": 4690,
      "creating": 4691,
      "deploy": 4692,
      "##oma": 4693,
      "##ocated": 4694,
      "Alb": 4695,
      "filmed": 4696,
      "Turk": 4697,
      "launch": 4698,
      "Jersey": 4699,
      "happen": 4700,
      "Ly": 4701,
      "regarded": 4702,
      "normal": 4703,
      "incident": 4704,
      "Us": 4705,
      "##engt": 4706,
      "expansion": 4707,
      "individuals": 4708,
      "##BA": 4709,
      "Cat": 4710,
      "sail": 4711,
      "criticism": 4712,
      "beyond": 4713,
      "agreement": 4714,
      "eye": 4715,
      "##min": 4716,
      "spect": 4717,
      "##apers": 4718,
      "spring": 4719,
      "failure": 4720,
      "Square": 4721,
      "##ella": 4722,
      "sym": 4723,
      "CD": 4724,
      "shar": 4725,
      "liber": 4726,
      "Are": 4727,
      "dismiss": 4728,
      "la": 4729,
      "famous": 4730,
      "##FA": 4731,
      "Coast": 4732,
      "##ura": 4733,
      "narr": 4734,
      "boat": 4735,
      "Lind": 4736,
      "##etts": 4737,
      "##igr": 4738,
      "measure": 4739,
      "possibly": 4740,
      "historical": 4741,
      "bodies": 4742,
      "mile": 4743,
      "mob": 4744,
      "parall": 4745,
      "negative": 4746,
      "strike": 4747,
      "##ima": 4748,
      "Mu": 4749,
      "Att": 4750,
      "Public": 4751,
      "achieved": 4752,
      "##ifications": 4753,
      "roles": 4754,
      "Head": 4755,
      "Wild": 4756,
      "##rog": 4757,
      "killing": 4758,
      "believe": 4759,
      "narrow": 4760,
      "Dan": 4761,
      "silver": 4762,
      "Production": 4763,
      "##iny": 4764,
      "##inger": 4765,
      "Israel": 4766,
      "End": 4767,
      "Broad": 4768,
      "retired": 4769,
      "supply": 4770,
      "Bon": 4771,
      "##imal": 4772,
      "##lew": 4773,
      "rid": 4774,
      "ideas": 4775,
      "fellow": 4776,
      "Mul": 4777,
      "##onent": 4778,
      "Institute": 4779,
      "torpedo": 4780,
      "##iana": 4781,
      "hair": 4782,
      "drive": 4783,
      "imag": 4784,
      "##mosp": 4785,
      "personnel": 4786,
      "Arthur": 4787,
      "task": 4788,
      "##more": 4789,
      "disease": 4790,
      "prompt": 4791,
      "briefly": 4792,
      "Doctor": 4793,
      "diam": 4794,
      "Mir": 4795,
      "armed": 4796,
      "Revolution": 4797,
      "Pu": 4798,
      "tower": 4799,
      "pet": 4800,
      "effective": 4801,
      "##gu": 4802,
      "necessary": 4803,
      "Meanwhile": 4804,
      "##aith": 4805,
      "##edom": 4806,
      "roads": 4807,
      "##asts": 4808,
      "kilometres": 4809,
      "##kins": 4810,
      "##ocks": 4811,
      "##amin": 4812,
      "repeated": 4813,
      "granted": 4814,
      "Germ": 4815,
      "infantry": 4816,
      "##gent": 4817,
      "RA": 4818,
      "Ash": 4819,
      "tree": 4820,
      "athlet": 4821,
      "unf": 4822,
      "Cub": 4823,
      "administration": 4824,
      "budget": 4825,
      "receive": 4826,
      "Republican": 4827,
      "inh": 4828,
      "column": 4829,
      "Sund": 4830,
      "Due": 4831,
      "perman": 4832,
      "rejected": 4833,
      "##och": 4834,
      "Person": 4835,
      "interchange": 4836,
      "twelve": 4837,
      "gross": 4838,
      "conce": 4839,
      "##rich": 4840,
      "##ns": 4841,
      "Album": 4842,
      "trou": 4843,
      "improved": 4844,
      "leadership": 4845,
      "turns": 4846,
      "##iments": 4847,
      "##avalry": 4848,
      "extensive": 4849,
      "straight": 4850,
      "Ohio": 4851,
      "landing": 4852,
      "##ourney": 4853,
      "lands": 4854,
      "crossing": 4855,
      "data": 4856,
      "seat": 4857,
      "management": 4858,
      "plants": 4859,
      "purpose": 4860,
      "interact": 4861,
      "Board": 4862,
      "broken": 4863,
      "choice": 4864,
      "##mit": 4865,
      "defin": 4866,
      "describes": 4867,
      "split": 4868,
      "expanded": 4869,
      "Prot": 4870,
      "successfully": 4871,
      "Ep": 4872,
      "##oured": 4873,
      "intellig": 4874,
      "##lusion": 4875,
      "Lar": 4876,
      "Braz": 4877,
      "yellow": 4878,
      "solo": 4879,
      "##etball": 4880,
      "franch": 4881,
      "Secretary": 4882,
      "fought": 4883,
      "Ni": 4884,
      "explos": 4885,
      "##adelph": 4886,
      "##vention": 4887,
      "##uate": 4888,
      "organized": 4889,
      "surrender": 4890,
      "animal": 4891,
      "didn": 4892,
      "caught": 4893,
      "chor": 4894,
      "convention": 4895,
      "Philadelph": 4896,
      "##stream": 4897,
      "excl": 4898,
      "types": 4899,
      "vehicles": 4900,
      "##iate": 4901,
      "suggests": 4902,
      "commissioned": 4903,
      "Even": 4904,
      "Hit": 4905,
      "##inth": 4906,
      "##orship": 4907,
      "places": 4908,
      "IS": 4909,
      "##haps": 4910,
      "Harv": 4911,
      "Sher": 4912,
      "ancient": 4913,
      "##erc": 4914,
      "acquired": 4915,
      "Mov": 4916,
      "##oln": 4917,
      "glob": 4918,
      "##iday": 4919,
      "##isf": 4920,
      "committee": 4921,
      "drama": 4922,
      "##set": 4923,
      "Liver": 4924,
      "Georgia": 4925,
      "##gress": 4926,
      "Cambridge": 4927,
      "comedy": 4928,
      "creation": 4929,
      "bal": 4930,
      "article": 4931,
      "##appy": 4932,
      "gives": 4933,
      "##akers": 4934,
      "Ron": 4935,
      "seventh": 4936,
      "SR": 4937,
      "rom": 4938,
      "assault": 4939,
      "Philadelphia": 4940,
      "##iable": 4941,
      "prefer": 4942,
      "soft": 4943,
      "wave": 4944,
      "headquarters": 4945,
      "roof": 4946,
      "nuclear": 4947,
      "rear": 4948,
      "##iations": 4949,
      "Also": 4950,
      "authorities": 4951,
      "genus": 4952,
      "contain": 4953,
      "Common": 4954,
      "security": 4955,
      "##restling": 4956,
      "determined": 4957,
      "Tra": 4958,
      "##rot": 4959,
      "Addition": 4960,
      "Mah": 4961,
      "islands": 4962,
      "centuries": 4963,
      "Burn": 4964,
      "Ur": 4965,
      "beaut": 4966,
      "commonly": 4967,
      "mentioned": 4968,
      "Russia": 4969,
      "recently": 4970,
      "looking": 4971,
      "controlled": 4972,
      "gather": 4973,
      "##umes": 4974,
      "##ipl": 4975,
      "upgr": 4976,
      "Among": 4977,
      "aim": 4978,
      "Sup": 4979,
      "families": 4980,
      "battalion": 4981,
      "##ii": 4982,
      "Belg": 4983,
      "Never": 4984,
      "##outs": 4985,
      "convers": 4986,
      "Korean": 4987,
      "household": 4988,
      "##ava": 4989,
      "acad": 4990,
      "sets": 4991,
      "finds": 4992,
      "street": 4993,
      "withdraw": 4994,
      "advert": 4995,
      "decre": 4996,
      "##ishes": 4997,
      "##acks": 4998,
      "experiment": 4999,
      "##vin": 5000,
      "Nintend": 5001,
      "suppor": 5002,
      "##hol": 5003,
      "standing": 5004,
      "illust": 5005,
      "Liverpool": 5006,
      "Linc": 5007,
      "Hay": 5008,
      "Nintendo": 5009,
      "Jenn": 5010,
      "Bor": 5011,
      "singing": 5012,
      "##ping": 5013,
      "##agement": 5014,
      "##agan": 5015,
      "fish": 5016,
      "sac": 5017,
      "Chap": 5018,
      "##fort": 5019,
      "dial": 5020,
      "Earl": 5021,
      "Prime": 5022,
      "##itled": 5023,
      "Pot": 5024,
      "Asia": 5025,
      "Columbia": 5026,
      "##cer": 5027,
      "unique": 5028,
      "height": 5029,
      "protect": 5030,
      "entirely": 5031,
      "stay": 5032,
      "touchdown": 5033,
      "mol": 5034,
      "containing": 5035,
      "cultural": 5036,
      "finish": 5037,
      "contributed": 5038,
      "orchest": 5039,
      "deck": 5040,
      "mist": 5041,
      "Singap": 5042,
      "rob": 5043,
      "extr": 5044,
      "themes": 5045,
      "Lieutenant": 5046,
      "Development": 5047,
      "Jewish": 5048,
      "provides": 5049,
      "younger": 5050,
      "flooding": 5051,
      "Ka": 5052,
      "##iences": 5053,
      "Brazil": 5054,
      "purchased": 5055,
      "defensive": 5056,
      "Child": 5057,
      "awards": 5058,
      "##yph": 5059,
      "atmosp": 5060,
      "##eless": 5061,
      "arrival": 5062,
      "titles": 5063,
      "scheduled": 5064,
      "##inity": 5065,
      "##icial": 5066,
      "Carey": 5067,
      "powers": 5068,
      "##ulate": 5069,
      "Bad": 5070,
      "Ven": 5071,
      "Kel": 5072,
      "Office": 5073,
      "resemb": 5074,
      "Francisco": 5075,
      "Six": 5076,
      "thing": 5077,
      "try": 5078,
      "unus": 5079,
      "##respond": 5080,
      "accompanied": 5081,
      "Singapore": 5082,
      "Dark": 5083,
      "People": 5084,
      "intensity": 5085,
      "expedition": 5086,
      "perfect": 5087,
      "formula": 5088,
      "existing": 5089,
      "worth": 5090,
      "quite": 5091,
      "advantage": 5092,
      "fat": 5093,
      "Lincoln": 5094,
      "locations": 5095,
      "Wars": 5096,
      "##zer": 5097,
      "ceremony": 5098,
      "##essor": 5099,
      "##illing": 5100,
      "dedicated": 5101,
      "performing": 5102,
      "request": 5103,
      "philos": 5104,
      "squad": 5105,
      "extrem": 5106,
      "computer": 5107,
      "##water": 5108,
      "Kir": 5109,
      "Gil": 5110,
      "occupied": 5111,
      "Key": 5112,
      "HMS": 5113,
      "##hens": 5114,
      "Turn": 5115,
      "Lis": 5116,
      "Disney": 5117,
      "Mot": 5118,
      "##laim": 5119,
      "why": 5120,
      "fresh": 5121,
      "##wall": 5122,
      "mounted": 5123,
      "Ball": 5124,
      "##Station": 5125,
      "##roll": 5126,
      "lic": 5127,
      "boats": 5128,
      "mouth": 5129,
      "Order": 5130,
      "recru": 5131,
      "##ashion": 5132,
      "##rons": 5133,
      "PlayStation": 5134,
      "tim": 5135,
      "nob": 5136,
      "##usc": 5137,
      "Press": 5138,
      "##ompl": 5139,
      "currently": 5140,
      "fix": 5141,
      "tail": 5142,
      "##yles": 5143,
      "cry": 5144,
      "mic": 5145,
      "##oster": 5146,
      "store": 5147,
      "closely": 5148,
      "Brook": 5149,
      "Balt": 5150,
      "consists": 5151,
      "##fri": 5152,
      "##iger": 5153,
      "firm": 5154,
      "Conference": 5155,
      "Lewis": 5156,
      "Die": 5157,
      "Steve": 5158,
      "session": 5159,
      "##ao": 5160,
      "Miller": 5161,
      "cricket": 5162,
      "industrial": 5163,
      "Brian": 5164,
      "egg": 5165,
      "Anderson": 5166,
      "Radio": 5167,
      "Norw": 5168,
      "elimin": 5169,
      "cold": 5170,
      "simple": 5171,
      "Byz": 5172,
      "facilities": 5173,
      "rot": 5174,
      "supporting": 5175,
      "alt": 5176,
      "protection": 5177,
      "Once": 5178,
      "drawn": 5179,
      "piano": 5180,
      "##ilton": 5181,
      "##mouth": 5182,
      "survey": 5183,
      "unsu": 5184,
      "Grant": 5185,
      "##omot": 5186,
      "graph": 5187,
      "rated": 5188,
      "belong": 5189,
      "Olympic": 5190,
      "rise": 5191,
      "defined": 5192,
      "submar": 5193,
      "Daniel": 5194,
      "Var": 5195,
      "trains": 5196,
      "selection": 5197,
      "Emperor": 5198,
      "pros": 5199,
      "Gro": 5200,
      "Tam": 5201,
      "regions": 5202,
      "structures": 5203,
      "aid": 5204,
      "protected": 5205,
      "Barb": 5206,
      "harm": 5207,
      "calls": 5208,
      "focused": 5209,
      "drop": 5210,
      "throw": 5211,
      "##mann": 5212,
      "trail": 5213,
      "Railway": 5214,
      "##la": 5215,
      "motion": 5216,
      "receiving": 5217,
      "engaged": 5218,
      "shooting": 5219,
      "comic": 5220,
      "ver": 5221,
      "labor": 5222,
      "NHL": 5223,
      "lap": 5224,
      "adap": 5225,
      "opportunity": 5226,
      "##osa": 5227,
      "correspond": 5228,
      "eyes": 5229,
      "Gulf": 5230,
      "##iration": 5231,
      "Inc": 5232,
      "strengt": 5233,
      "analysis": 5234,
      "Gib": 5235,
      "shark": 5236,
      "##ware": 5237,
      "motor": 5238,
      "##ua": 5239,
      "Summer": 5240,
      "notable": 5241,
      "dry": 5242,
      "citizens": 5243,
      "experienced": 5244,
      "##ctions": 5245,
      "mountain": 5246,
      "conference": 5247,
      "Jr": 5248,
      "##rom": 5249,
      "##awa": 5250,
      "Water": 5251,
      "flow": 5252,
      "holding": 5253,
      "Walter": 5254,
      "Hollywood": 5255,
      "southeast": 5256,
      "Germans": 5257,
      "providing": 5258,
      "resident": 5259,
      "Lab": 5260,
      "mut": 5261,
      "Only": 5262,
      "Bell": 5263,
      "rapidly": 5264,
      "##ker": 5265,
      "casualties": 5266,
      "viewed": 5267,
      "hired": 5268,
      "branch": 5269,
      "merch": 5270,
      "Bul": 5271,
      "sport": 5272,
      "charts": 5273,
      "Ob": 5274,
      "##unior": 5275,
      "##ifically": 5276,
      "##FL": 5277,
      "Davis": 5278,
      "transform": 5279,
      "recognized": 5280,
      "Special": 5281,
      "##eet": 5282,
      "vac": 5283,
      "Democratic": 5284,
      "gain": 5285,
      "##burgh": 5286,
      "UN": 5287,
      "sites": 5288,
      "scholars": 5289,
      "volume": 5290,
      "Fall": 5291,
      "Review": 5292,
      "steel": 5293,
      "reaction": 5294,
      "##ownt": 5295,
      "##olt": 5296,
      "hero": 5297,
      "Rome": 5298,
      "##heim": 5299,
      "concer": 5300,
      "##iat": 5301,
      "Serb": 5302,
      "Between": 5303,
      "shared": 5304,
      "##oh": 5305,
      "teach": 5306,
      "digital": 5307,
      "hyp": 5308,
      "edge": 5309,
      "cart": 5310,
      "publication": 5311,
      "Jean": 5312,
      "moder": 5313,
      "temperature": 5314,
      "economy": 5315,
      "ven": 5316,
      "developing": 5317,
      "lb": 5318,
      "intersection": 5319,
      "heads": 5320,
      "Bank": 5321,
      "rac": 5322,
      "cool": 5323,
      "Prov": 5324,
      "Naz": 5325,
      "##standing": 5326,
      "Lady": 5327,
      "Hun": 5328,
      "Philipp": 5329,
      "Nap": 5330,
      "rare": 5331,
      "symbol": 5332,
      "secondary": 5333,
      "approved": 5334,
      "Gord": 5335,
      "von": 5336,
      "##eral": 5337,
      "Princ": 5338,
      "losses": 5339,
      "chance": 5340,
      "##ographic": 5341,
      "##omew": 5342,
      "Sa": 5343,
      "##ologist": 5344,
      "witness": 5345,
      "prepared": 5346,
      "contest": 5347,
      "enl": 5348,
      "belief": 5349,
      "substant": 5350,
      "Sand": 5351,
      "Daily": 5352,
      "##iful": 5353,
      "vert": 5354,
      "forest": 5355,
      "##ador": 5356,
      "significantly": 5357,
      "myth": 5358,
      "ton": 5359,
      "Women": 5360,
      "##rif": 5361,
      "letters": 5362,
      "Musl": 5363,
      "sort": 5364,
      "bands": 5365,
      "Syd": 5366,
      "Mas": 5367,
      "##onder": 5368,
      "##asty": 5369,
      "##achus": 5370,
      "card": 5371,
      "save": 5372,
      "exact": 5373,
      "steam": 5374,
      "sle": 5375,
      "descend": 5376,
      "unsuccess": 5377,
      "knew": 5378,
      "Command": 5379,
      "southwest": 5380,
      "Gen": 5381,
      "tank": 5382,
      "##pe": 5383,
      "##rations": 5384,
      "literature": 5385,
      "##avel": 5386,
      "goes": 5387,
      "roughly": 5388,
      "Mos": 5389,
      "Ten": 5390,
      "##igation": 5391,
      "##unte": 5392,
      "painting": 5393,
      "Beyonc": 5394,
      "IV": 5395,
      "actress": 5396,
      "technology": 5397,
      "Colonel": 5398,
      "##ules": 5399,
      "urban": 5400,
      "##theless": 5401,
      "##yer": 5402,
      "##ographer": 5403,
      "pitch": 5404,
      "##istan": 5405,
      "anything": 5406,
      "advent": 5407,
      "cab": 5408,
      "projects": 5409,
      "Indust": 5410,
      "Nick": 5411,
      "brothers": 5412,
      "semi": 5413,
      "Point": 5414,
      "shape": 5415,
      "sand": 5416,
      "adult": 5417,
      "resistance": 5418,
      "Fair": 5419,
      "##ete": 5420,
      "gameplay": 5421,
      "storyline": 5422,
      "unp": 5423,
      "##worth": 5424,
      "equal": 5425,
      "employed": 5426,
      "Supreme": 5427,
      "Kentucky": 5428,
      "##ropri": 5429,
      "cars": 5430,
      "Bern": 5431,
      "##aka": 5432,
      "##iminal": 5433,
      "##sey": 5434,
      "injured": 5435,
      "##itors": 5436,
      "reasons": 5437,
      "##ulpt": 5438,
      "Independ": 5439,
      "rules": 5440,
      "daily": 5441,
      "##break": 5442,
      "##ali": 5443,
      "agent": 5444,
      "##box": 5445,
      "Station": 5446,
      "shall": 5447,
      "shaped": 5448,
      "core": 5449,
      "Abb": 5450,
      "##icts": 5451,
      "franchise": 5452,
      "watched": 5453,
      "popularity": 5454,
      "isol": 5455,
      "##oir": 5456,
      "##onym": 5457,
      "lov": 5458,
      "perhaps": 5459,
      "nor": 5460,
      "composition": 5461,
      "adding": 5462,
      "declined": 5463,
      "##rec": 5464,
      "renamed": 5465,
      "Main": 5466,
      "Ross": 5467,
      "getting": 5468,
      "enjoyed": 5469,
      "##ato": 5470,
      "dram": 5471,
      "opinion": 5472,
      "Theat": 5473,
      "calc": 5474,
      "##zen": 5475,
      "Norway": 5476,
      "tend": 5477,
      "##omic": 5478,
      "##osl": 5479,
      "poem": 5480,
      "reputation": 5481,
      "connected": 5482,
      "undert": 5483,
      "converted": 5484,
      "##atures": 5485,
      "museum": 5486,
      "estate": 5487,
      "views": 5488,
      "##ients": 5489,
      "##bound": 5490,
      "Massachus": 5491,
      "drew": 5492,
      "Prem": 5493,
      "stages": 5494,
      "##apped": 5495,
      "Olympics": 5496,
      "##vis": 5497,
      "Gra": 5498,
      "##ba": 5499,
      "retire": 5500,
      "regarding": 5501,
      "##istol": 5502,
      "hydro": 5503,
      "Golden": 5504,
      "sun": 5505,
      "##inking": 5506,
      "Massachusetts": 5507,
      "nick": 5508,
      "##onia": 5509,
      "distingu": 5510,
      "Dream": 5511,
      "##iform": 5512,
      "##han": 5513,
      "##erse": 5514,
      "agricult": 5515,
      "headed": 5516,
      "allows": 5517,
      "##rets": 5518,
      "alternative": 5519,
      "journey": 5520,
      "##rett": 5521,
      "Elect": 5522,
      "missing": 5523,
      "depth": 5524,
      "turning": 5525,
      "cited": 5526,
      "Sus": 5527,
      "increasingly": 5528,
      "approached": 5529,
      "##osis": 5530,
      "planning": 5531,
      "responded": 5532,
      "Airport": 5533,
      "stadium": 5534,
      "table": 5535,
      "knowledge": 5536,
      "overl": 5537,
      "exerc": 5538,
      "##ilding": 5539,
      "parallel": 5540,
      "wealth": 5541,
      "easily": 5542,
      "tall": 5543,
      "instruct": 5544,
      "ign": 5545,
      "##ira": 5546,
      "Walk": 5547,
      "fashion": 5548,
      "escort": 5549,
      "constitution": 5550,
      "collected": 5551,
      "About": 5552,
      "introduction": 5553,
      "succeeded": 5554,
      "pul": 5555,
      "rebu": 5556,
      "##psons": 5557,
      "trip": 5558,
      "cells": 5559,
      "##unicip": 5560,
      "sustained": 5561,
      "##ader": 5562,
      "arc": 5563,
      "Hart": 5564,
      "Ken": 5565,
      "existence": 5566,
      "##ignment": 5567,
      "flu": 5568,
      "Whit": 5569,
      "occas": 5570,
      "Imperial": 5571,
      "safety": 5572,
      "AD": 5573,
      "learned": 5574,
      "Simpsons": 5575,
      "Run": 5576,
      "auth": 5577,
      "##kes": 5578,
      "##put": 5579,
      "operating": 5580,
      "##ads": 5581,
      "Init": 5582,
      "Han": 5583,
      "alle": 5584,
      "models": 5585,
      "rhy": 5586,
      "##eased": 5587,
      "carrying": 5588,
      "defence": 5589,
      "colle": 5590,
      "promotion": 5591,
      "##oted": 5592,
      "youth": 5593,
      "Vietnam": 5594,
      "##uration": 5595,
      "Cas": 5596,
      "baseball": 5597,
      "showing": 5598,
      "##wise": 5599,
      "limit": 5600,
      "McG": 5601,
      "##ati": 5602,
      "buried": 5603,
      "Songs": 5604,
      "exchange": 5605,
      "subm": 5606,
      "appoint": 5607,
      "##ora": 5608,
      "weakened": 5609,
      "##iling": 5610,
      "bed": 5611,
      "##come": 5612,
      "paint": 5613,
      "bul": 5614,
      "credited": 5615,
      "seems": 5616,
      "humans": 5617,
      "##iants": 5618,
      "Cape": 5619,
      "improve": 5620,
      "impl": 5621,
      "##inary": 5622,
      "##state": 5623,
      "designs": 5624,
      "arranged": 5625,
      "freeway": 5626,
      "Shortly": 5627,
      "Jay": 5628,
      "joint": 5629,
      "landfall": 5630,
      "##ko": 5631,
      "producing": 5632,
      "earliest": 5633,
      "Sydney": 5634,
      "proceed": 5635,
      "Ottoman": 5636,
      "flat": 5637,
      "prote": 5638,
      "note": 5639,
      "lasted": 5640,
      "settlement": 5641,
      "sculpt": 5642,
      "retained": 5643,
      "Who": 5644,
      "Pict": 5645,
      "##icks": 5646,
      "Naval": 5647,
      "Ut": 5648,
      "Poland": 5649,
      "acres": 5650,
      "description": 5651,
      "Roy": 5652,
      "Rem": 5653,
      "Maryland": 5654,
      "Bra": 5655,
      "##issance": 5656,
      "Moore": 5657,
      "MTV": 5658,
      "reserve": 5659,
      "Stew": 5660,
      "synt": 5661,
      "##ivalent": 5662,
      "replace": 5663,
      "assistant": 5664,
      "hol": 5665,
      "impr": 5666,
      "consc": 5667,
      "##ources": 5668,
      "##owntown": 5669,
      "install": 5670,
      "Laur": 5671,
      "genre": 5672,
      "playoff": 5673,
      "programs": 5674,
      "virt": 5675,
      "Spring": 5676,
      "catch": 5677,
      "coastal": 5678,
      "violence": 5679,
      "##insula": 5680,
      "##rell": 5681,
      "Arts": 5682,
      "statement": 5683,
      "hits": 5684,
      "entrance": 5685,
      "applied": 5686,
      "Ari": 5687,
      "domestic": 5688,
      "Jes": 5689,
      "consequ": 5690,
      "neut": 5691,
      "Pass": 5692,
      "trust": 5693,
      "root": 5694,
      "##era": 5695,
      "##iege": 5696,
      "scientific": 5697,
      "##othes": 5698,
      "unl": 5699,
      "maintain": 5700,
      "##eler": 5701,
      "##eton": 5702,
      "Greg": 5703,
      "exclus": 5704,
      "Rhodes": 5705,
      "battery": 5706,
      "delivered": 5707,
      "sections": 5708,
      "Bowl": 5709,
      "candidate": 5710,
      "indicated": 5711,
      "stopped": 5712,
      "gradually": 5713,
      "tact": 5714,
      "items": 5715,
      "##izations": 5716,
      "politics": 5717,
      "towns": 5718,
      "van": 5719,
      "Plan": 5720,
      "##leton": 5721,
      "supplies": 5722,
      "IG": 5723,
      "distribution": 5724,
      "filled": 5725,
      "##taining": 5726,
      "details": 5727,
      "independence": 5728,
      "Confeder": 5729,
      "il": 5730,
      "Id": 5731,
      "##hi": 5732,
      "thin": 5733,
      "AC": 5734,
      "stream": 5735,
      "et": 5736,
      "combination": 5737,
      "ways": 5738,
      "##ushing": 5739,
      "Mulder": 5740,
      "cinem": 5741,
      "glass": 5742,
      "Gordon": 5743,
      "##emies": 5744,
      "engines": 5745,
      "parties": 5746,
      "camera": 5747,
      "eld": 5748,
      "##reets": 5749,
      "Stadium": 5750,
      "##yphoon": 5751,
      "##greg": 5752,
      "prisoners": 5753,
      "##apes": 5754,
      "##math": 5755,
      "register": 5756,
      "campus": 5757,
      "##gency": 5758,
      "##ario": 5759,
      "Well": 5760,
      "secure": 5761,
      "entitled": 5762,
      "extremely": 5763,
      "##ela": 5764,
      "##iversary": 5765,
      "acts": 5766,
      "Band": 5767,
      "##ropol": 5768,
      "bask": 5769,
      "##time": 5770,
      "##lan": 5771,
      "finding": 5772,
      "Staff": 5773,
      "##itage": 5774,
      "Theatre": 5775,
      "##urring": 5776,
      "##iques": 5777,
      "repair": 5778,
      "evening": 5779,
      "online": 5780,
      "Univers": 5781,
      "investigation": 5782,
      "decade": 5783,
      "##poration": 5784,
      "winner": 5785,
      "Prof": 5786,
      "##idden": 5787,
      "adapted": 5788,
      "##inois": 5789,
      "Down": 5790,
      "Bir": 5791,
      "Cop": 5792,
      "regiment": 5793,
      "bought": 5794,
      "tick": 5795,
      "Kim": 5796,
      "##okes": 5797,
      "##acter": 5798,
      "survived": 5799,
      "knots": 5800,
      "Here": 5801,
      "##AT": 5802,
      "##evin": 5803,
      "##ashed": 5804,
      "Vill": 5805,
      "somew": 5806,
      "threatened": 5807,
      "Bol": 5808,
      "religion": 5809,
      "##uzz": 5810,
      "deaths": 5811,
      "ruled": 5812,
      "message": 5813,
      "writes": 5814,
      "Anth": 5815,
      "routes": 5816,
      "Moon": 5817,
      "##bell": 5818,
      "consum": 5819,
      "studied": 5820,
      "relief": 5821,
      "Iv": 5822,
      "Justice": 5823,
      "proposal": 5824,
      "##ras": 5825,
      "download": 5826,
      "Instead": 5827,
      "##ealth": 5828,
      "tanks": 5829,
      "voted": 5830,
      "reduce": 5831,
      "ll": 5832,
      "specifically": 5833,
      "##ansas": 5834,
      "Fire": 5835,
      "Nic": 5836,
      "din": 5837,
      "##ighters": 5838,
      "crown": 5839,
      "males": 5840,
      "##ieval": 5841,
      "phase": 5842,
      "Memorial": 5843,
      "revolution": 5844,
      "spons": 5845,
      "##athan": 5846,
      "Age": 5847,
      "ban": 5848,
      "##aked": 5849,
      "fict": 5850,
      "kingdom": 5851,
      "Bal": 5852,
      "recalled": 5853,
      "portrayed": 5854,
      "##oz": 5855,
      "controversy": 5856,
      "duty": 5857,
      "##BN": 5858,
      "implement": 5859,
      "Ast": 5860,
      "##aug": 5861,
      "Od": 5862,
      "soul": 5863,
      "##bourne": 5864,
      "wides": 5865,
      "##hat": 5866,
      "##BS": 5867,
      "##adow": 5868,
      "everything": 5869,
      "Circ": 5870,
      "causes": 5871,
      "bottom": 5872,
      "Gill": 5873,
      "stret": 5874,
      "capable": 5875,
      "##ervative": 5876,
      "##opher": 5877,
      "convin": 5878,
      "intention": 5879,
      "bor": 5880,
      "lit": 5881,
      "Tony": 5882,
      "references": 5883,
      "##wick": 5884,
      "##ja": 5885,
      "Nel": 5886,
      "sell": 5887,
      "importance": 5888,
      "Kong": 5889,
      "##aki": 5890,
      "ago": 5891,
      "breeding": 5892,
      "offers": 5893,
      "McK": 5894,
      "arrested": 5895,
      "crossed": 5896,
      "Singles": 5897,
      "Director": 5898,
      "Pear": 5899,
      "meters": 5900,
      "entry": 5901,
      "##entially": 5902,
      "Ok": 5903,
      "Power": 5904,
      "##encies": 5905,
      "##ician": 5906,
      "##senal": 5907,
      "climb": 5908,
      "emp": 5909,
      "##ront": 5910,
      "Seas": 5911,
      "admitted": 5912,
      "internal": 5913,
      "##eston": 5914,
      "opera": 5915,
      "Adams": 5916,
      "corner": 5917,
      "Alan": 5918,
      "nomination": 5919,
      "mort": 5920,
      "owner": 5921,
      "##ipping": 5922,
      "ones": 5923,
      "Dougl": 5924,
      "equipped": 5925,
      "installed": 5926,
      "products": 5927,
      "concerns": 5928,
      "Jane": 5929,
      "Jord": 5930,
      "##po": 5931,
      "Beach": 5932,
      "starts": 5933,
      "IGN": 5934,
      "VII": 5935,
      "##ructure": 5936,
      "FA": 5937,
      "##know": 5938,
      "convoy": 5939,
      "Critical": 5940,
      "preced": 5941,
      "##eline": 5942,
      "conqu": 5943,
      "Alf": 5944,
      "Hamilton": 5945,
      "##ranean": 5946,
      "tell": 5947,
      "##pread": 5948,
      "invited": 5949,
      "shel": 5950,
      "medal": 5951,
      "vent": 5952,
      "commit": 5953,
      "Engine": 5954,
      "recommended": 5955,
      "Simon": 5956,
      "principal": 5957,
      "UTC": 5958,
      "shut": 5959,
      "crime": 5960,
      "interested": 5961,
      "retreat": 5962,
      "acid": 5963,
      "remainder": 5964,
      "##cement": 5965,
      "Maria": 5966,
      "Your": 5967,
      "Adam": 5968,
      "Imp": 5969,
      "rich": 5970,
      "Plot": 5971,
      "fly": 5972,
      "stock": 5973,
      "actual": 5974,
      "solid": 5975,
      "Kennedy": 5976,
      "charged": 5977,
      "apart": 5978,
      "consisting": 5979,
      "door": 5980,
      "Death": 5981,
      "##ilation": 5982,
      "funds": 5983,
      "##osaurus": 5984,
      "Indones": 5985,
      "promote": 5986,
      "gall": 5987,
      "objects": 5988,
      "##erted": 5989,
      "milit": 5990,
      "Sav": 5991,
      "Bos": 5992,
      "##hedral": 5993,
      "considerable": 5994,
      "Cart": 5995,
      "Video": 5996,
      "composer": 5997,
      "dates": 5998,
      "snow": 5999,
      "females": 6000,
      "NBA": 6001,
      "page": 6002,
      "pow": 6003,
      "##entions": 6004,
      "Marc": 6005,
      "Found": 6006,
      "price": 6007,
      "WWE": 6008,
      "grounds": 6009,
      "Nether": 6010,
      "##met": 6011,
      "##ingly": 6012,
      "Today": 6013,
      "hear": 6014,
      "duties": 6015,
      "Ca": 6016,
      "extension": 6017,
      "typical": 6018,
      "skin": 6019,
      "Military": 6020,
      "Hitler": 6021,
      "##rete": 6022,
      "Transport": 6023,
      "Gun": 6024,
      "##har": 6025,
      "rural": 6026,
      "someone": 6027,
      "Eric": 6028,
      "eighth": 6029,
      "##BI": 6030,
      "evolution": 6031,
      "Sunday": 6032,
      "integr": 6033,
      "images": 6034,
      "Howard": 6035,
      "decades": 6036,
      "zone": 6037,
      "penal": 6038,
      "##vements": 6039,
      "spin": 6040,
      "driving": 6041,
      "Indiana": 6042,
      "##bro": 6043,
      "hotel": 6044,
      "Bry": 6045,
      "##osite": 6046,
      "identity": 6047,
      "lane": 6048,
      "Pit": 6049,
      "reading": 6050,
      "challenge": 6051,
      "##esc": 6052,
      "##hetic": 6053,
      "Hou": 6054,
      "Fle": 6055,
      "##bar": 6056,
      "occurs": 6057,
      "Norweg": 6058,
      "Leon": 6059,
      "ham": 6060,
      "##after": 6061,
      "remix": 6062,
      "frag": 6063,
      "manner": 6064,
      "subs": 6065,
      "permanent": 6066,
      "##iller": 6067,
      "Scully": 6068,
      "Five": 6069,
      "brigade": 6070,
      "pret": 6071,
      "aspects": 6072,
      "dated": 6073,
      "correct": 6074,
      "aer": 6075,
      "##icate": 6076,
      "volcan": 6077,
      "Int": 6078,
      "speak": 6079,
      "##ican": 6080,
      "Cult": 6081,
      "vir": 6082,
      "colour": 6083,
      "Ele": 6084,
      "noting": 6085,
      "slowly": 6086,
      "##regon": 6087,
      "##iley": 6088,
      "armor": 6089,
      "posted": 6090,
      "Portug": 6091,
      "restaur": 6092,
      "vessels": 6093,
      "##ensus": 6094,
      "Mountain": 6095,
      "##ds": 6096,
      "##icit": 6097,
      "##ione": 6098,
      "Scient": 6099,
      "Ryan": 6100,
      "Yank": 6101,
      "##isis": 6102,
      "##ubb": 6103,
      "clean": 6104,
      "supporters": 6105,
      "##ivals": 6106,
      "##ucks": 6107,
      "##ophy": 6108,
      "involving": 6109,
      "##aware": 6110,
      "describing": 6111,
      "entering": 6112,
      "patrol": 6113,
      "Assembly": 6114,
      "enemies": 6115,
      "Research": 6116,
      "union": 6117,
      "Science": 6118,
      "##veland": 6119,
      "department": 6120,
      "equivalent": 6121,
      "obtained": 6122,
      "Constitution": 6123,
      "dress": 6124,
      "debate": 6125,
      "memorial": 6126,
      "Argent": 6127,
      "accur": 6128,
      "Hug": 6129,
      "classes": 6130,
      "settled": 6131,
      "##orney": 6132,
      "oldest": 6133,
      "##RA": 6134,
      "Magazine": 6135,
      "purchase": 6136,
      "##err": 6137,
      "widespread": 6138,
      "songwrit": 6139,
      "basic": 6140,
      "parliament": 6141,
      "##omatic": 6142,
      "Rolling": 6143,
      "Disc": 6144,
      "decline": 6145,
      "##agues": 6146,
      "disturb": 6147,
      "Oregon": 6148,
      "##ige": 6149,
      "attached": 6150,
      "decor": 6151,
      "##iy": 6152,
      "income": 6153,
      "Lenn": 6154,
      "faith": 6155,
      "concerned": 6156,
      "Pier": 6157,
      "folk": 6158,
      "##erto": 6159,
      "departure": 6160,
      "##heastern": 6161,
      "formal": 6162,
      "Kat": 6163,
      "Rose": 6164,
      "spr": 6165,
      "connection": 6166,
      "Cleveland": 6167,
      "Illinois": 6168,
      "nest": 6169,
      "accused": 6170,
      "Throughout": 6171,
      "recognition": 6172,
      "Douglas": 6173,
      "##alog": 6174,
      "certified": 6175,
      "Gram": 6176,
      "deleg": 6177,
      "ori": 6178,
      "Now": 6179,
      "##otic": 6180,
      "##iously": 6181,
      "outer": 6182,
      "derived": 6183,
      "Low": 6184,
      "sequel": 6185,
      "Weekly": 6186,
      "committed": 6187,
      "Es": 6188,
      "Stand": 6189,
      "mode": 6190,
      "assumed": 6191,
      "acknow": 6192,
      "Andy": 6193,
      "hosted": 6194,
      "wearing": 6195,
      "Family": 6196,
      "Stanley": 6197,
      "##ommod": 6198,
      "Fe": 6199,
      "##western": 6200,
      "Feder": 6201,
      "Freder": 6202,
      "segment": 6203,
      "foss": 6204,
      "##wan": 6205,
      "returns": 6206,
      "Forest": 6207,
      "torn": 6208,
      "charges": 6209,
      "Jordan": 6210,
      "row": 6211,
      "champion": 6212,
      "acclaim": 6213,
      "##ooth": 6214,
      "temple": 6215,
      "Arsenal": 6216,
      "Third": 6217,
      "Mediter": 6218,
      "##ertain": 6219,
      "literary": 6220,
      "terminus": 6221,
      "valley": 6222,
      "Media": 6223,
      "Roger": 6224,
      "flo": 6225,
      "denied": 6226,
      "ec": 6227,
      "fine": 6228,
      "populations": 6229,
      "transition": 6230,
      "Treat": 6231,
      "Tenn": 6232,
      "Ira": 6233,
      "Kevin": 6234,
      "##nic": 6235,
      "sessions": 6236,
      "Recording": 6237,
      "##agonist": 6238,
      "Mediterranean": 6239,
      "Beatles": 6240,
      "regional": 6241,
      "##ruption": 6242,
      "##key": 6243,
      "Project": 6244,
      "##emed": 6245,
      "Bruce": 6246,
      "circum": 6247,
      "thousands": 6248,
      "supposed": 6249,
      "demand": 6250,
      "Bet": 6251,
      "Ba": 6252,
      "Educ": 6253,
      "##ji": 6254,
      "ISBN": 6255,
      "Bristol": 6256,
      "warm": 6257,
      "Norwegian": 6258,
      "Ak": 6259,
      "intelligence": 6260,
      "hang": 6261,
      "downtown": 6262,
      "ru": 6263,
      "##achel": 6264,
      "shots": 6265,
      "inher": 6266,
      "Rain": 6267,
      "strongly": 6268,
      "wickets": 6269,
      "sailed": 6270,
      "##oli": 6271,
      "Federal": 6272,
      "Conc": 6273,
      "Inv": 6274,
      "Philip": 6275,
      "circulation": 6276,
      "passengers": 6277,
      "##orter": 6278,
      "##heme": 6279,
      "possibility": 6280,
      "generation": 6281,
      "##uan": 6282,
      "##iva": 6283,
      "hill": 6284,
      "##ipe": 6285,
      "Ho": 6286,
      "##abb": 6287,
      "freedom": 6288,
      "cloud": 6289,
      "##pres": 6290,
      "##CA": 6291,
      "##ocal": 6292,
      "fictional": 6293,
      "thirty": 6294,
      "##chers": 6295,
      "##IA": 6296,
      "animated": 6297,
      "##utt": 6298,
      "hope": 6299,
      "Az": 6300,
      "answ": 6301,
      "administr": 6302,
      "Channel": 6303,
      "Bush": 6304,
      "##rophy": 6305,
      "##friend": 6306,
      "replacement": 6307,
      "##va": 6308,
      "commanded": 6309,
      "Mexican": 6310,
      "##opes": 6311,
      "begun": 6312,
      "assistance": 6313,
      "Tar": 6314,
      "behavior": 6315,
      "##aver": 6316,
      "portray": 6317,
      "minister": 6318,
      "missions": 6319,
      "Korea": 6320,
      "Let": 6321,
      "destruction": 6322,
      "Web": 6323,
      "rar": 6324,
      "fruit": 6325,
      "brain": 6326,
      "crash": 6327,
      "missed": 6328,
      "criminal": 6329,
      "##atinum": 6330,
      "##borne": 6331,
      "Raj": 6332,
      "moves": 6333,
      "exception": 6334,
      "tied": 6335,
      "volunte": 6336,
      "Within": 6337,
      "hip": 6338,
      "Color": 6339,
      "Row": 6340,
      "##ran": 6341,
      "mo": 6342,
      "Dig": 6343,
      "costs": 6344,
      "bringing": 6345,
      "Master": 6346,
      "##onto": 6347,
      "##organ": 6348,
      "##elsh": 6349,
      "feeling": 6350,
      "highlight": 6351,
      "speaking": 6352,
      "##ategy": 6353,
      "alleged": 6354,
      "##ami": 6355,
      "Additionally": 6356,
      "Pur": 6357,
      "##isms": 6358,
      "finishing": 6359,
      "Bah": 6360,
      "unusual": 6361,
      "recovered": 6362,
      "garr": 6363,
      "shop": 6364,
      "demol": 6365,
      "serves": 6366,
      "Fame": 6367,
      "stayed": 6368,
      "properties": 6369,
      "incorporated": 6370,
      "##ca": 6371,
      "strateg": 6372,
      "breaking": 6373,
      "attributed": 6374,
      "##enses": 6375,
      "emerged": 6376,
      "dipl": 6377,
      "sons": 6378,
      "Space": 6379,
      "##urray": 6380,
      "opposite": 6381,
      "##aza": 6382,
      "Lisa": 6383,
      "swim": 6384,
      "Rick": 6385,
      "##ito": 6386,
      "driven": 6387,
      "Phill": 6388,
      "theatre": 6389,
      "##riers": 6390,
      "atmosphere": 6391,
      "Morris": 6392,
      "Iron": 6393,
      "##roc": 6394,
      "chorus": 6395,
      "Robinson": 6396,
      "##othing": 6397,
      "Prior": 6398,
      "Po": 6399,
      "classic": 6400,
      "Norman": 6401,
      "occasionally": 6402,
      "##rates": 6403,
      "Ow": 6404,
      "##mes": 6405,
      "##umin": 6406,
      "ready": 6407,
      "Der": 6408,
      "establishment": 6409,
      "cavalry": 6410,
      "dang": 6411,
      "Spe": 6412,
      "regularly": 6413,
      "courts": 6414,
      "effectively": 6415,
      "USA": 6416,
      "dissip": 6417,
      "surviving": 6418,
      "vary": 6419,
      "##gers": 6420,
      "divers": 6421,
      "responsibility": 6422,
      "Television": 6423,
      "methods": 6424,
      "prey": 6425,
      "Similar": 6426,
      "Hawai": 6427,
      "sounds": 6428,
      "CE": 6429,
      "dream": 6430,
      "Around": 6431,
      "completion": 6432,
      "strengthen": 6433,
      "Unlike": 6434,
      "Morgan": 6435,
      "materials": 6436,
      "Sn": 6437,
      "##sew": 6438,
      "##weight": 6439,
      "province": 6440,
      "Construction": 6441,
      "heat": 6442,
      "classified": 6443,
      "##anth": 6444,
      "warning": 6445,
      "fields": 6446,
      "attracted": 6447,
      "Est": 6448,
      "##oslav": 6449,
      "##ersed": 6450,
      "divisions": 6451,
      "Lanc": 6452,
      "accommod": 6453,
      "Ever": 6454,
      "##uting": 6455,
      "quant": 6456,
      "##rupted": 6457,
      "persu": 6458,
      "Francis": 6459,
      "Nelson": 6460,
      "Sky": 6461,
      "Nich": 6462,
      "technical": 6463,
      "global": 6464,
      "interpret": 6465,
      "Budd": 6466,
      "##inton": 6467,
      "PA": 6468,
      "differences": 6469,
      "##nold": 6470,
      "sam": 6471,
      "passage": 6472,
      "Ford": 6473,
      "##abled": 6474,
      "cruiser": 6475,
      "DE": 6476,
      "Premier": 6477,
      "##don": 6478,
      "neither": 6479,
      "Sweden": 6480,
      "Bou": 6481,
      "none": 6482,
      "Patrick": 6483,
      "aboard": 6484,
      "##uty": 6485,
      "Techn": 6486,
      "stood": 6487,
      "basketball": 6488,
      "Hell": 6489,
      "battleships": 6490,
      "clubs": 6491,
      "association": 6492,
      "gal": 6493,
      "Sports": 6494,
      "Finn": 6495,
      "##nings": 6496,
      "collect": 6497,
      "ancest": 6498,
      "Welsh": 6499,
      "rooms": 6500,
      "Dick": 6501,
      "eleven": 6502,
      "ratings": 6503,
      "Mit": 6504,
      "Nations": 6505,
      "intercept": 6506,
      "musicians": 6507,
      "##idges": 6508,
      "desire": 6509,
      "shif": 6510,
      "Anne": 6511,
      "rose": 6512,
      "outbreak": 6513,
      "separated": 6514,
      "classification": 6515,
      "climate": 6516,
      "seemed": 6517,
      "votes": 6518,
      "##agle": 6519,
      "##teenth": 6520,
      "predecess": 6521,
      "Toronto": 6522,
      "requested": 6523,
      "Dor": 6524,
      "nav": 6525,
      "vehicle": 6526,
      "Matthew": 6527,
      "picture": 6528,
      "##pping": 6529,
      "historians": 6530,
      "Dog": 6531,
      "ow": 6532,
      "reality": 6533,
      "memory": 6534,
      "Temple": 6535,
      "Cab": 6536,
      "##eness": 6537,
      "##oyd": 6538,
      "movements": 6539,
      "Allen": 6540,
      "##burn": 6541,
      "##ogen": 6542,
      "chemical": 6543,
      "Byzantine": 6544,
      "##sewhere": 6545,
      "hoped": 6546,
      "Marine": 6547,
      "Netherlands": 6548,
      "##ships": 6549,
      "Ath": 6550,
      "Open": 6551,
      "##abil": 6552,
      "difficulty": 6553,
      "raise": 6554,
      "Journal": 6555,
      "##rig": 6556,
      "Every": 6557,
      "illeg": 6558,
      "restored": 6559,
      "##ece": 6560,
      "Whe": 6561,
      "expect": 6562,
      "programme": 6563,
      "vide": 6564,
      "##inder": 6565,
      "communities": 6566,
      "##hire": 6567,
      "##thm": 6568,
      "USS": 6569,
      "fal": 6570,
      "remember": 6571,
      "teen": 6572,
      "Jews": 6573,
      "Iraq": 6574,
      "##yard": 6575,
      "flank": 6576,
      "obl": 6577,
      "premiere": 6578,
      "delayed": 6579,
      "Ult": 6580,
      "##uts": 6581,
      "discovery": 6582,
      "Dean": 6583,
      "Jacob": 6584,
      "kid": 6585,
      "Ts": 6586,
      "relative": 6587,
      "Again": 6588,
      "anniversary": 6589,
      "inspiration": 6590,
      "greatly": 6591,
      "fit": 6592,
      "injuries": 6593,
      "Design": 6594,
      "satisf": 6595,
      "Bishop": 6596,
      "##reck": 6597,
      "otherwise": 6598,
      "##anny": 6599,
      "neighbor": 6600,
      "Sax": 6601,
      "accounts": 6602,
      "Lev": 6603,
      "funding": 6604,
      "depict": 6605,
      "Domin": 6606,
      "Gri": 6607,
      "inner": 6608,
      "surrounded": 6609,
      "praise": 6610,
      "dens": 6611,
      "Bull": 6612,
      "massive": 6613,
      "penalty": 6614,
      "spoke": 6615,
      "partner": 6616,
      "crop": 6617,
      "needs": 6618,
      "claiming": 6619,
      "tries": 6620,
      "Gh": 6621,
      "##ureau": 6622,
      "Wy": 6623,
      "assemb": 6624,
      "batting": 6625,
      "die": 6626,
      "weapon": 6627,
      "suburb": 6628,
      "crosses": 6629,
      "od": 6630,
      "Front": 6631,
      "lat": 6632,
      "strategy": 6633,
      "Oak": 6634,
      "consp": 6635,
      "forming": 6636,
      "wrong": 6637,
      "consult": 6638,
      "astron": 6639,
      "legend": 6640,
      "involvement": 6641,
      "fled": 6642,
      "accompl": 6643,
      "stands": 6644,
      "Glob": 6645,
      "ash": 6646,
      "architecture": 6647,
      "documentary": 6648,
      "Armen": 6649,
      "worst": 6650,
      "Croatian": 6651,
      "Sin": 6652,
      "##real": 6653,
      "##gets": 6654,
      "remn": 6655,
      "hal": 6656,
      "##aire": 6657,
      "temporary": 6658,
      "bombard": 6659,
      "determine": 6660,
      "plane": 6661,
      "cul": 6662,
      "Thompson": 6663,
      "girls": 6664,
      "dismissed": 6665,
      "NC": 6666,
      "que": 6667,
      "Russell": 6668,
      "Jam": 6669,
      "shr": 6670,
      "Islam": 6671,
      "Trib": 6672,
      "sale": 6673,
      "Hend": 6674,
      "Hop": 6675,
      "convinced": 6676,
      "Kelly": 6677,
      "category": 6678,
      "enth": 6679,
      "Centre": 6680,
      "ensure": 6681,
      "Last": 6682,
      "rum": 6683,
      "reserv": 6684,
      "##enz": 6685,
      "Mars": 6686,
      "adaptation": 6687,
      "NFL": 6688,
      "resources": 6689,
      "##onds": 6690,
      "colonial": 6691,
      "somewhat": 6692,
      "library": 6693,
      "interests": 6694,
      "Holy": 6695,
      "turb": 6696,
      "Free": 6697,
      "ray": 6698,
      "Modern": 6699,
      "pure": 6700,
      "streets": 6701,
      "immediate": 6702,
      "scheme": 6703,
      "Carter": 6704,
      "Winter": 6705,
      "Puerto": 6706,
      "starred": 6707,
      "##body": 6708,
      "medieval": 6709,
      "##aya": 6710,
      "commemor": 6711,
      "##agre": 6712,
      "Cooper": 6713,
      "falling": 6714,
      "##going": 6715,
      "##emet": 6716,
      "bon": 6717,
      "presidential": 6718,
      "absor": 6719,
      "carbon": 6720,
      "##itzer": 6721,
      "ble": 6722,
      "##wealth": 6723,
      "throne": 6724,
      "##icide": 6725,
      "academic": 6726,
      "surviv": 6727,
      "##iggest": 6728,
      "Bang": 6729,
      "scrap": 6730,
      "appropri": 6731,
      "classical": 6732,
      "Along": 6733,
      "techniques": 6734,
      "races": 6735,
      "sed": 6736,
      "##ester": 6737,
      "eggs": 6738,
      "fitted": 6739,
      "meets": 6740,
      "fighter": 6741,
      "Brother": 6742,
      "loyal": 6743,
      "ninth": 6744,
      "Hungarian": 6745,
      "Network": 6746,
      "##aling": 6747,
      "Gard": 6748,
      "adults": 6749,
      "bright": 6750,
      "reven": 6751,
      "tra": 6752,
      "##action": 6753,
      "photograph": 6754,
      "bull": 6755,
      "##night": 6756,
      "Fore": 6757,
      "Pak": 6758,
      "ster": 6759,
      "superior": 6760,
      "submarine": 6761,
      "Nob": 6762,
      "reviewer": 6763,
      "passenger": 6764,
      "##dden": 6765,
      "interior": 6766,
      "##elsen": 6767,
      "lake": 6768,
      "attacking": 6769,
      "absence": 6770,
      "seeing": 6771,
      "Labor": 6772,
      "pin": 6773,
      "Thus": 6774,
      "renew": 6775,
      "Tok": 6776,
      "Wright": 6777,
      "fer": 6778,
      "favorite": 6779,
      "airport": 6780,
      "Parker": 6781,
      "Cry": 6782,
      "else": 6783,
      "##etr": 6784,
      "engineer": 6785,
      "credit": 6786,
      "premiered": 6787,
      "convection": 6788,
      "synthes": 6789,
      "alien": 6790,
      "##lyn": 6791,
      "##osure": 6792,
      "deemed": 6793,
      "##edding": 6794,
      "##acent": 6795,
      "##arsh": 6796,
      "##ivan": 6797,
      "visible": 6798,
      "AI": 6799,
      "dub": 6800,
      "conclusion": 6801,
      "landed": 6802,
      "Late": 6803,
      "dating": 6804,
      "Harris": 6805,
      "appearing": 6806,
      "Bi": 6807,
      "##oral": 6808,
      "partn": 6809,
      "characteristics": 6810,
      "##PA": 6811,
      "bat": 6812,
      "operate": 6813,
      "Batman": 6814,
      "##iner": 6815,
      "afterwards": 6816,
      "leads": 6817,
      "romantic": 6818,
      "lies": 6819,
      "elections": 6820,
      "depend": 6821,
      "facility": 6822,
      "Library": 6823,
      "municip": 6824,
      "colony": 6825,
      "san": 6826,
      "suffering": 6827,
      "encouraged": 6828,
      "temperatures": 6829,
      "##eor": 6830,
      "Murray": 6831,
      "modified": 6832,
      "Heart": 6833,
      "retirement": 6834,
      "DNA": 6835,
      "doct": 6836,
      "everyone": 6837,
      "painted": 6838,
      "holds": 6839,
      "controversial": 6840,
      "sight": 6841,
      "Li": 6842,
      "##ossible": 6843,
      "legislation": 6844,
      "Education": 6845,
      "Commonwealth": 6846,
      "attempting": 6847,
      "##iac": 6848,
      "##roit": 6849,
      "##urches": 6850,
      "believes": 6851,
      "Ku": 6852,
      "gone": 6853,
      "##apping": 6854,
      "Berlin": 6855,
      "Knight": 6856,
      "Police": 6857,
      "Tal": 6858,
      "##agu": 6859,
      "pound": 6860,
      "wings": 6861,
      "Commander": 6862,
      "distributed": 6863,
      "dominated": 6864,
      "Houston": 6865,
      "continuing": 6866,
      "rescue": 6867,
      "##oen": 6868,
      "RAAF": 6869,
      "##uster": 6870,
      "gar": 6871,
      "secured": 6872,
      "##ixon": 6873,
      "depicted": 6874,
      "Hospital": 6875,
      "Palace": 6876,
      "Santa": 6877,
      "judge": 6878,
      "##chang": 6879,
      "##scape": 6880,
      "looked": 6881,
      "authors": 6882,
      "Deb": 6883,
      "##book": 6884,
      "FI": 6885,
      "anyone": 6886,
      "Ey": 6887,
      "option": 6888,
      "##apse": 6889,
      "Story": 6890,
      "##aft": 6891,
      "##uv": 6892,
      "buy": 6893,
      "standards": 6894,
      "Advent": 6895,
      "longest": 6896,
      "trained": 6897,
      "##rait": 6898,
      "grass": 6899,
      "unsuccessful": 6900,
      "##itable": 6901,
      "monarch": 6902,
      "##coming": 6903,
      "##xual": 6904,
      "habitat": 6905,
      "neck": 6906,
      "wins": 6907,
      "##char": 6908,
      "graphics": 6909,
      "Yug": 6910,
      "chairman": 6911,
      "Cook": 6912,
      "Mort": 6913,
      "railroad": 6914,
      "Thor": 6915,
      "biggest": 6916,
      "##emetery": 6917,
      "Swedish": 6918,
      "sudden": 6919,
      "arrangement": 6920,
      "Indians": 6921,
      "##atically": 6922,
      "archae": 6923,
      "Roberts": 6924,
      "measures": 6925,
      "jump": 6926,
      "Simpson": 6927,
      "##ultane": 6928,
      "##inals": 6929,
      "map": 6930,
      "carrier": 6931,
      "##ila": 6932,
      "##aska": 6933,
      "acknowled": 6934,
      "##igration": 6935,
      "deployed": 6936,
      "##prise": 6937,
      "nickn": 6938,
      "##owa": 6939,
      "apparent": 6940,
      "Cru": 6941,
      "belt": 6942,
      "ha": 6943,
      "Get": 6944,
      "##eenth": 6945,
      "##aled": 6946,
      "##uther": 6947,
      "##ache": 6948,
      "Ext": 6949,
      "code": 6950,
      "Silver": 6951,
      "##ture": 6952,
      "Corporation": 6953,
      "informed": 6954,
      "representing": 6955,
      "##ternal": 6956,
      "Social": 6957,
      "Seat": 6958,
      "releases": 6959,
      "achieve": 6960,
      "Warner": 6961,
      "sees": 6962,
      "outl": 6963,
      "closer": 6964,
      "garrison": 6965,
      "generated": 6966,
      "formerly": 6967,
      "Merc": 6968,
      "alleg": 6969,
      "##olph": 6970,
      "##tenance": 6971,
      "Jason": 6972,
      "NBC": 6973,
      "historic": 6974,
      "Supp": 6975,
      "##fare": 6976,
      "Yugoslav": 6977,
      "styles": 6978,
      "trials": 6979,
      "Anthony": 6980,
      "grade": 6981,
      "gets": 6982,
      "assass": 6983,
      "emergency": 6984,
      "bats": 6985,
      "moderate": 6986,
      "cancer": 6987,
      "veter": 6988,
      "influential": 6989,
      "RAF": 6990,
      "Obs": 6991,
      "festival": 6992,
      "##rm": 6993,
      "successor": 6994,
      "siege": 6995,
      "cycle": 6996,
      "questions": 6997,
      "##otype": 6998,
      "Detroit": 6999,
      "molec": 7000,
      "emotional": 7001,
      "Croatia": 7002,
      "##una": 7003,
      "owners": 7004,
      "Track": 7005,
      "Dom": 7006,
      "##isen": 7007,
      "ridge": 7008,
      "enfor": 7009,
      "influences": 7010,
      "novels": 7011,
      "narrative": 7012,
      "wooden": 7013,
      "##yo": 7014,
      "stead": 7015,
      "defended": 7016,
      "##ele": 7017,
      "Author": 7018,
      "excess": 7019,
      "Dal": 7020,
      "constant": 7021,
      "apparently": 7022,
      "Gaga": 7023,
      "veget": 7024,
      "victims": 7025,
      "journalist": 7026,
      "##aste": 7027,
      "##aints": 7028,
      "discussed": 7029,
      "experiences": 7030,
      "squ": 7031,
      "Chamber": 7032,
      "Sull": 7033,
      "childhood": 7034,
      "##iens": 7035,
      "detail": 7036,
      "executed": 7037,
      "Gilbert": 7038,
      "eat": 7039,
      "alco": 7040,
      "mathem": 7041,
      "Fri": 7042,
      "instruments": 7043,
      "##noon": 7044,
      "pregn": 7045,
      "Shar": 7046,
      "##bec": 7047,
      "offices": 7048,
      "render": 7049,
      "##arked": 7050,
      "Nev": 7051,
      "treated": 7052,
      "Samuel": 7053,
      "environmental": 7054,
      "mine": 7055,
      "##aws": 7056,
      "Princess": 7057,
      "##usted": 7058,
      "depos": 7059,
      "giant": 7060,
      "Asian": 7061,
      "##using": 7062,
      "enters": 7063,
      "Lyn": 7064,
      "bes": 7065,
      "PC": 7066,
      "Spears": 7067,
      "##mun": 7068,
      "coins": 7069,
      "legs": 7070,
      "##imore": 7071,
      "##achment": 7072,
      "##eeper": 7073,
      "Melbourne": 7074,
      "bab": 7075,
      "factors": 7076,
      "bear": 7077,
      "Vice": 7078,
      "Heavy": 7079,
      "Clinton": 7080,
      "Jesus": 7081,
      "hunting": 7082,
      "settle": 7083,
      "##obi": 7084,
      "##bl": 7085,
      "##ching": 7086,
      "channel": 7087,
      "Anton": 7088,
      "##ods": 7089,
      "Nar": 7090,
      "##iliar": 7091,
      "Somers": 7092,
      "Atlant": 7093,
      "hundreds": 7094,
      "Evans": 7095,
      "ocean": 7096,
      "Nielsen": 7097,
      "Pope": 7098,
      "##MA": 7099,
      "resigned": 7100,
      "uniform": 7101,
      "gay": 7102,
      "ride": 7103,
      "##rum": 7104,
      "Express": 7105,
      "reveals": 7106,
      "fil": 7107,
      "enh": 7108,
      "Guy": 7109,
      "Xbox": 7110,
      "##itter": 7111,
      "skills": 7112,
      "Nevertheless": 7113,
      "prevented": 7114,
      "pointed": 7115,
      "clim": 7116,
      "Wing": 7117,
      "##rees": 7118,
      "watching": 7119,
      "pushed": 7120,
      "Category": 7121,
      "chapter": 7122,
      "##uro": 7123,
      "##ES": 7124,
      "##orous": 7125,
      "Organ": 7126,
      "drums": 7127,
      "facing": 7128,
      "Stewart": 7129,
      "deliver": 7130,
      "opponents": 7131,
      "happened": 7132,
      "preferred": 7133,
      "Bulgar": 7134,
      "pull": 7135,
      "##rence": 7136,
      "##isp": 7137,
      "flew": 7138,
      "disappear": 7139,
      "Muslim": 7140,
      "footage": 7141,
      "Origin": 7142,
      "chain": 7143,
      "Real": 7144,
      "##ais": 7145,
      "difference": 7146,
      "reportedly": 7147,
      "Hin": 7148,
      "##icians": 7149,
      "formally": 7150,
      "Tower": 7151,
      "firing": 7152,
      "check": 7153,
      "poetry": 7154,
      "Edd": 7155,
      "inhabit": 7156,
      "intense": 7157,
      "languages": 7158,
      "Turkish": 7159,
      "thereafter": 7160,
      "locomot": 7161,
      "Ru": 7162,
      "##onies": 7163,
      "handed": 7164,
      "thousand": 7165,
      "Mun": 7166,
      "##ogether": 7167,
      "resign": 7168,
      "vision": 7169,
      "Carib": 7170,
      "relationships": 7171,
      "Sarah": 7172,
      "Austria": 7173,
      "Benn": 7174,
      "notably": 7175,
      "theor": 7176,
      "##br": 7177,
      "Aud": 7178,
      "Rey": 7179,
      "device": 7180,
      "Queens": 7181,
      "visitors": 7182,
      "Lennon": 7183,
      "lem": 7184,
      "animation": 7185,
      "exposed": 7186,
      "Colorado": 7187,
      "existed": 7188,
      "employees": 7189,
      "Raw": 7190,
      "##wich": 7191,
      "##ologists": 7192,
      "Greece": 7193,
      "hearing": 7194,
      "learn": 7195,
      "departed": 7196,
      "accompany": 7197,
      "Bird": 7198,
      "boil": 7199,
      "Albums": 7200,
      "participate": 7201,
      "##oto": 7202,
      "linked": 7203,
      "Bed": 7204,
      "##mad": 7205,
      "Malays": 7206,
      "Baltimore": 7207,
      "##igen": 7208,
      "Hans": 7209,
      "##hatt": 7210,
      "##ares": 7211,
      "##bean": 7212,
      "Ark": 7213,
      "rebell": 7214,
      "dialogue": 7215,
      "##usic": 7216,
      "Cz": 7217,
      "Stock": 7218,
      "extent": 7219,
      "arrest": 7220,
      "residential": 7221,
      "erect": 7222,
      "afternoon": 7223,
      "cruisers": 7224,
      "##alo": 7225,
      "format": 7226,
      "instance": 7227,
      "learning": 7228,
      "substantial": 7229,
      "detailed": 7230,
      "##aria": 7231,
      "##stic": 7232,
      "vul": 7233,
      "beach": 7234,
      "audio": 7235,
      "##ropolitan": 7236,
      "Sullivan": 7237,
      "Cam": 7238,
      "impressed": 7239,
      "Writing": 7240,
      "util": 7241,
      "##orage": 7242,
      "##anz": 7243,
      "##phy": 7244,
      "Lane": 7245,
      "stem": 7246,
      "##ek": 7247,
      "##unes": 7248,
      "universe": 7249,
      "##atus": 7250,
      "##oys": 7251,
      "Initially": 7252,
      "mart": 7253,
      "##endment": 7254,
      "##ez": 7255,
      "Marshall": 7256,
      "easy": 7257,
      "##bridge": 7258,
      "##elle": 7259,
      "shore": 7260,
      "periods": 7261,
      "Wrestling": 7262,
      "Foundation": 7263,
      "DS": 7264,
      "huge": 7265,
      "tempor": 7266,
      "Dave": 7267,
      "Horn": 7268,
      "##ribed": 7269,
      "imprison": 7270,
      "taught": 7271,
      "teeth": 7272,
      "territories": 7273,
      "Frederick": 7274,
      "reviewers": 7275,
      "fur": 7276,
      "driver": 7277,
      "testing": 7278,
      "enthus": 7279,
      "Sab": 7280,
      "##opter": 7281,
      "Chronic": 7282,
      "Ern": 7283,
      "videos": 7284,
      "hat": 7285,
      "##lie": 7286,
      "happy": 7287,
      "isolated": 7288,
      "stable": 7289,
      "feud": 7290,
      "diameter": 7291,
      "vessel": 7292,
      "##ogan": 7293,
      "##iami": 7294,
      "tests": 7295,
      "upd": 7296,
      "Having": 7297,
      "Lin": 7298,
      "##otes": 7299,
      "bridges": 7300,
      "understand": 7301,
      "Horse": 7302,
      "Banks": 7303,
      "lob": 7304,
      "reprodu": 7305,
      "##orial": 7306,
      "withdrew": 7307,
      "picked": 7308,
      "encountered": 7309,
      "upgraded": 7310,
      "liqu": 7311,
      "##asure": 7312,
      "##ectic": 7313,
      "negotiations": 7314,
      "surg": 7315,
      "Anna": 7316,
      "agents": 7317,
      "Mario": 7318,
      "Lim": 7319,
      "sympt": 7320,
      "goods": 7321,
      "##idae": 7322,
      "sleep": 7323,
      "##present": 7324,
      "Somerset": 7325,
      "Release": 7326,
      "Call": 7327,
      "Jess": 7328,
      "teamm": 7329,
      "Desc": 7330,
      "dangerous": 7331,
      "aged": 7332,
      "##anton": 7333,
      "simultane": 7334,
      "diagn": 7335,
      "junior": 7336,
      "founder": 7337,
      "mir": 7338,
      "satell": 7339,
      "normally": 7340,
      "Ty": 7341,
      "Anglo": 7342,
      "behavi": 7343,
      "relie": 7344,
      "Son": 7345,
      "window": 7346,
      "factor": 7347,
      "keeping": 7348,
      "Mississ": 7349,
      "tie": 7350,
      "collaps": 7351,
      "specimens": 7352,
      "transm": 7353,
      "rej": 7354,
      "reun": 7355,
      "sure": 7356,
      "partly": 7357,
      "Giants": 7358,
      "Miami": 7359,
      "##rad": 7360,
      "##igs": 7361,
      "medium": 7362,
      "##eph": 7363,
      "ethnic": 7364,
      "technique": 7365,
      "Player": 7366,
      "frequent": 7367,
      "##FC": 7368,
      "crisis": 7369,
      "##etime": 7370,
      "ax": 7371,
      "pounds": 7372,
      "prep": 7373,
      "lowest": 7374,
      "vic": 7375,
      "Alab": 7376,
      "prohib": 7377,
      "##sea": 7378,
      "monument": 7379,
      "organizations": 7380,
      "Ban": 7381,
      "Ra": 7382,
      "Seattle": 7383,
      "apprec": 7384,
      "##borough": 7385,
      "diet": 7386,
      "toll": 7387,
      "##olas": 7388,
      "engineering": 7389,
      "turrets": 7390,
      "Op": 7391,
      "##away": 7392,
      "traveled": 7393,
      "ped": 7394,
      "whereas": 7395,
      "Championships": 7396,
      "Athlet": 7397,
      "Soon": 7398,
      "refers": 7399,
      "Human": 7400,
      "##col": 7401,
      "weekend": 7402,
      "insc": 7403,
      "##helm": 7404,
      "rarely": 7405,
      "tone": 7406,
      "##tar": 7407,
      "resear": 7408,
      "designer": 7409,
      "##icine": 7410,
      "##olis": 7411,
      "underw": 7412,
      "Trek": 7413,
      "CR": 7414,
      "proced": 7415,
      "##ygen": 7416,
      "Treaty": 7417,
      "lose": 7418,
      "maintenance": 7419,
      "vice": 7420,
      "##amese": 7421,
      "##iece": 7422,
      "orb": 7423,
      "doesn": 7424,
      "ML": 7425,
      "partially": 7426,
      "Bri": 7427,
      "permission": 7428,
      "Iowa": 7429,
      "spending": 7430,
      "advice": 7431,
      "unn": 7432,
      "verse": 7433,
      "Alabama": 7434,
      "Ah": 7435,
      "##gram": 7436,
      "criticised": 7437,
      "bypass": 7438,
      "##oked": 7439,
      "Forces": 7440,
      "Australians": 7441,
      "Napole": 7442,
      "platinum": 7443,
      "difficulties": 7444,
      "persp": 7445,
      "Hand": 7446,
      "Margar": 7447,
      "##ennis": 7448,
      "finale": 7449,
      "plate": 7450,
      "Then": 7451,
      "agree": 7452,
      "restric": 7453,
      "policies": 7454,
      "excell": 7455,
      "##gressive": 7456,
      "finals": 7457,
      "compete": 7458,
      "ranking": 7459,
      "phen": 7460,
      "proport": 7461,
      "mainstream": 7462,
      "indicate": 7463,
      "personality": 7464,
      "refuge": 7465,
      "Buff": 7466,
      "##urance": 7467,
      "pitched": 7468,
      "##ilst": 7469,
      "anticip": 7470,
      "##attered": 7471,
      "##inction": 7472,
      "seek": 7473,
      "concerts": 7474,
      "Tro": 7475,
      "comments": 7476,
      "recordings": 7477,
      "remove": 7478,
      "Charlie": 7479,
      "Caribbean": 7480,
      "mamm": 7481,
      "##li": 7482,
      "shear": 7483,
      "windows": 7484,
      "covers": 7485,
      "Canal": 7486,
      "Minnes": 7487,
      "Lawrence": 7488,
      "chronic": 7489,
      "##zy": 7490,
      "symp": 7491,
      "strip": 7492,
      "moral": 7493,
      "falls": 7494,
      "honour": 7495,
      "representative": 7496,
      "seats": 7497,
      "bron": 7498,
      "jur": 7499,
      "forcing": 7500,
      "McD": 7501,
      "##udes": 7502,
      "extreme": 7503,
      "restrict": 7504,
      "Hu": 7505,
      "fighters": 7506,
      "hull": 7507,
      "Ll": 7508,
      "rates": 7509,
      "##icy": 7510,
      "Mach": 7511,
      "phr": 7512,
      "Buck": 7513,
      "Lock": 7514,
      "Crown": 7515,
      "##power": 7516,
      "alter": 7517,
      "##uda": 7518,
      "protest": 7519,
      "divor": 7520,
      "##chell": 7521,
      "prompted": 7522,
      "Holl": 7523,
      "Nat": 7524,
      "destroyers": 7525,
      "Fal": 7526,
      "tenth": 7527,
      "##ses": 7528,
      "brand": 7529,
      "Bros": 7530,
      "subt": 7531,
      "Senator": 7532,
      "##isd": 7533,
      "truth": 7534,
      "dynasty": 7535,
      "describe": 7536,
      "MP": 7537,
      "##lev": 7538,
      "reconst": 7539,
      "examples": 7540,
      "minimum": 7541,
      "bases": 7542,
      "Ian": 7543,
      "tub": 7544,
      "Nazi": 7545,
      "Ministry": 7546,
      "sufficient": 7547,
      "Burg": 7548,
      "##esses": 7549,
      "travelled": 7550,
      "hockey": 7551,
      "USD": 7552,
      "friendly": 7553,
      "churches": 7554,
      "Garden": 7555,
      "Blood": 7556,
      "Grammy": 7557,
      "Hungary": 7558,
      "Cur": 7559,
      "Health": 7560,
      "boys": 7561,
      "neighborhood": 7562,
      "##imeter": 7563,
      "##usal": 7564,
      "Polit": 7565,
      "bombers": 7566,
      "##alions": 7567,
      "drawing": 7568,
      "forec": 7569,
      "Country": 7570,
      "##anium": 7571,
      "Benj": 7572,
      "Return": 7573,
      "Dance": 7574,
      "##encing": 7575,
      "inaug": 7576,
      "doctor": 7577,
      "##ugby": 7578,
      "mand": 7579,
      "Shakes": 7580,
      "housing": 7581,
      "##onnaissance": 7582,
      "displayed": 7583,
      "approval": 7584,
      "tribute": 7585,
      "adjacent": 7586,
      "Belgium": 7587,
      "Township": 7588,
      "collapse": 7589,
      "perce": 7590,
      "credits": 7591,
      "aware": 7592,
      "##oken": 7593,
      "joining": 7594,
      "listing": 7595,
      "##eare": 7596,
      "Hamp": 7597,
      "Christopher": 7598,
      "Adv": 7599,
      "creator": 7600,
      "grown": 7601,
      "##rod": 7602,
      "designation": 7603,
      "Diego": 7604,
      "Event": 7605,
      "fung": 7606,
      "DC": 7607,
      "partnership": 7608,
      "Cold": 7609,
      "Rand": 7610,
      "##eland": 7611,
      "advis": 7612,
      "copy": 7613,
      "explo": 7614,
      "protagonist": 7615,
      "Michel": 7616,
      "Shakesp": 7617,
      "arts": 7618,
      "refere": 7619,
      "storms": 7620,
      "wheel": 7621,
      "moments": 7622,
      "##ogy": 7623,
      "acted": 7624,
      "creative": 7625,
      "Medal": 7626,
      "Kal": 7627,
      "changing": 7628,
      "powered": 7629,
      "Much": 7630,
      "##aser": 7631,
      "asks": 7632,
      "sky": 7633,
      "Hud": 7634,
      "Dead": 7635,
      "##velt": 7636,
      "rounds": 7637,
      "ju": 7638,
      "instrumental": 7639,
      "##ecraft": 7640,
      "radar": 7641,
      "trend": 7642,
      "victories": 7643,
      "Beck": 7644,
      "Camer": 7645,
      "possession": 7646,
      "Children": 7647,
      "uncertain": 7648,
      "dollars": 7649,
      "paintings": 7650,
      "canal": 7651,
      "treaty": 7652,
      "appointment": 7653,
      "Represent": 7654,
      "##ounced": 7655,
      "elsewhere": 7656,
      "covering": 7657,
      "villages": 7658,
      "survive": 7659,
      "Cred": 7660,
      "Khan": 7661,
      "minimal": 7662,
      "eliminated": 7663,
      "Record": 7664,
      "##raf": 7665,
      "Legacy": 7666,
      "##ta": 7667,
      "##otten": 7668,
      "loan": 7669,
      "Dur": 7670,
      "Kurt": 7671,
      "scientists": 7672,
      "surprise": 7673,
      "Guardian": 7674,
      "Benjamin": 7675,
      "pool": 7676,
      "tomb": 7677,
      "grav": 7678,
      "innov": 7679,
      "precip": 7680,
      "telling": 7681,
      "##chen": 7682,
      "Hills": 7683,
      "Minnesota": 7684,
      "##pan": 7685,
      "##iders": 7686,
      "##ivated": 7687,
      "helic": 7688,
      "seeking": 7689,
      "occupation": 7690,
      "Roose": 7691,
      "Mississipp": 7692,
      "arriving": 7693,
      "twin": 7694,
      "rhythm": 7695,
      "suicide": 7696,
      "newspapers": 7697,
      "Vietnamese": 7698,
      "emperor": 7699,
      "helping": 7700,
      "Hockey": 7701,
      "##eted": 7702,
      "purposes": 7703,
      "AR": 7704,
      "smooth": 7705,
      "Alfred": 7706,
      "values": 7707,
      "occasions": 7708,
      "gard": 7709,
      "##ouri": 7710,
      "##ante": 7711,
      "Div": 7712,
      "##active": 7713,
      "Interstate": 7714,
      "unlike": 7715,
      "Manhatt": 7716,
      "dispute": 7717,
      "Administ": 7718,
      "micro": 7719,
      "Hong": 7720,
      "fishing": 7721,
      "Manhattan": 7722,
      "Hind": 7723,
      "Tun": 7724,
      "degrees": 7725,
      "Bh": 7726,
      "Gab": 7727,
      "Stevens": 7728,
      "Aff": 7729,
      "benefit": 7730,
      "Walker": 7731,
      "murd": 7732,
      "soil": 7733,
      "manusc": 7734,
      "##ographical": 7735,
      "##roid": 7736,
      "marry": 7737,
      "schedule": 7738,
      "struggle": 7739,
      "Franklin": 7740,
      "balance": 7741,
      "##uman": 7742,
      "preserved": 7743,
      "poly": 7744,
      "Om": 7745,
      "cryst": 7746,
      "Roosevelt": 7747,
      "Comb": 7748,
      "Flight": 7749,
      "Peninsula": 7750,
      "Perform": 7751,
      "##rating": 7752,
      "teacher": 7753,
      "Anim": 7754,
      "##TA": 7755,
      "resumed": 7756,
      "circumst": 7757,
      "Trust": 7758,
      "Kansas": 7759,
      "##fire": 7760,
      "Shel": 7761,
      "survivors": 7762,
      "##orph": 7763,
      "publicly": 7764,
      "competed": 7765,
      "categ": 7766,
      "##ika": 7767,
      "##munition": 7768,
      "flash": 7769,
      "##atherine": 7770,
      "neutral": 7771,
      "cooper": 7772,
      "violent": 7773,
      "spiritual": 7774,
      "candidates": 7775,
      "dies": 7776,
      "##ascar": 7777,
      "procl": 7778,
      "intensified": 7779,
      "deter": 7780,
      "Ward": 7781,
      "impossible": 7782,
      "Portland": 7783,
      "pilots": 7784,
      "Fried": 7785,
      "##nik": 7786,
      "Industry": 7787,
      "discip": 7788,
      "Dw": 7789,
      "wedding": 7790,
      "Nash": 7791,
      "Rang": 7792,
      "##incial": 7793,
      "abilities": 7794,
      "coordin": 7795,
      "cook": 7796,
      "##acle": 7797,
      "##ulating": 7798,
      "beautiful": 7799,
      "VI": 7800,
      "##jo": 7801,
      "alignment": 7802,
      "concrete": 7803,
      "Satur": 7804,
      "Born": 7805,
      "assisted": 7806,
      "multi": 7807,
      "Hotel": 7808,
      "Philippines": 7809,
      "##oking": 7810,
      "poison": 7811,
      "Lith": 7812,
      "prosp": 7813,
      "simpl": 7814,
      "argument": 7815,
      "defeating": 7816,
      "advoc": 7817,
      "electronic": 7818,
      "##obile": 7819,
      "teaching": 7820,
      "Know": 7821,
      "concurr": 7822,
      "grey": 7823,
      "nations": 7824,
      "Building": 7825,
      "##eu": 7826,
      "##ensions": 7827,
      "businesses": 7828,
      "custom": 7829,
      "lists": 7830,
      "rivers": 7831,
      "serial": 7832,
      "Brun": 7833,
      "Native": 7834,
      "danc": 7835,
      "overt": 7836,
      "ski": 7837,
      "elabor": 7838,
      "##agen": 7839,
      "absol": 7840,
      "Cyr": 7841,
      "##uits": 7842,
      "opponent": 7843,
      "suitable": 7844,
      "assists": 7845,
      "Mississippi": 7846,
      "agricultural": 7847,
      "rit": 7848,
      "Digital": 7849,
      "mines": 7850,
      "Kl": 7851,
      "Wolf": 7852,
      "encounter": 7853,
      "oxygen": 7854,
      "foundation": 7855,
      "interesting": 7856,
      "tunnel": 7857,
      "submitted": 7858,
      "signing": 7859,
      "Nag": 7860,
      "fifteen": 7861,
      "Area": 7862,
      "backing": 7863,
      "##ext": 7864,
      "scholar": 7865,
      "Cob": 7866,
      "Blues": 7867,
      "understanding": 7868,
      "Ice": 7869,
      "##itated": 7870,
      "multipl": 7871,
      "behalf": 7872,
      "Rap": 7873,
      "Wol": 7874,
      "sank": 7875,
      "##ilty": 7876,
      "##iveness": 7877,
      "Lad": 7878,
      "citing": 7879,
      "sunk": 7880,
      "Dod": 7881,
      "waves": 7882,
      "##gate": 7883,
      "##dale": 7884,
      "percentage": 7885,
      "Alexand": 7886,
      "##sters": 7887,
      "forests": 7888,
      "symptoms": 7889,
      "ninet": 7890,
      "ammunition": 7891,
      "nom": 7892,
      "orbit": 7893,
      "Shakespeare": 7894,
      "Campbell": 7895,
      "Tenness": 7896,
      "Tag": 7897,
      "parish": 7898,
      "Sym": 7899,
      "##adi": 7900,
      "##elli": 7901,
      "subjects": 7902,
      "skull": 7903,
      "Halo": 7904,
      "Hem": 7905,
      "forty": 7906,
      "scr": 7907,
      "situated": 7908,
      "closing": 7909,
      "Hindu": 7910,
      "##ifer": 7911,
      "imperial": 7912,
      "wrest": 7913,
      "signs": 7914,
      "Vinc": 7915,
      "junction": 7916,
      "repairs": 7917,
      "affair": 7918,
      "usual": 7919,
      "Offic": 7920,
      "Kings": 7921,
      "Non": 7922,
      "Hero": 7923,
      "##onymous": 7924,
      "autom": 7925,
      "##alities": 7926,
      "resolution": 7927,
      "illness": 7928,
      "voiced": 7929,
      "deliber": 7930,
      "Steven": 7931,
      "Ple": 7932,
      "corpor": 7933,
      "Box": 7934,
      "##wa": 7935,
      "controll": 7936,
      "Apple": 7937,
      "superv": 7938,
      "Josh": 7939,
      "##amps": 7940,
      "functions": 7941,
      "audiences": 7942,
      "Surv": 7943,
      "attendance": 7944,
      "Lucas": 7945,
      "Historic": 7946,
      "Dest": 7947,
      "asking": 7948,
      "##amic": 7949,
      "disaster": 7950,
      "Egyptian": 7951,
      "collaboration": 7952,
      "##osm": 7953,
      "restaurant": 7954,
      "feelings": 7955,
      "suspended": 7956,
      "Jos": 7957,
      "Mack": 7958,
      "Race": 7959,
      "##sky": 7960,
      "evil": 7961,
      "flights": 7962,
      "underground": 7963,
      "mountains": 7964,
      "lieutenant": 7965,
      "targets": 7966,
      "##odore": 7967,
      "cargo": 7968,
      "Margaret": 7969,
      "Joh": 7970,
      "affairs": 7971,
      "exit": 7972,
      "Tennessee": 7973,
      "lect": 7974,
      "##reation": 7975,
      "earthqu": 7976,
      "pron": 7977,
      "operational": 7978,
      "Karl": 7979,
      "Care": 7980,
      "willing": 7981,
      "Louisiana": 7982,
      "##estone": 7983,
      "##unc": 7984,
      "adopt": 7985,
      "funeral": 7986,
      "##asters": 7987,
      "anch": 7988,
      "Depression": 7989,
      "Labour": 7990,
      "Fred": 7991,
      "aimed": 7992,
      "prol": 7993,
      "abol": 7994,
      "Montreal": 7995,
      "##SP": 7996,
      "compilation": 7997,
      "string": 7998,
      "McL": 7999,
      "Palest": 8000,
      "poorly": 8001,
      "documents": 8002,
      "Micro": 8003,
      "filed": 8004,
      "##lah": 8005,
      "measured": 8006,
      "##uable": 8007,
      "##rix": 8008,
      "professor": 8009,
      "Missouri": 8010,
      "sector": 8011,
      "favorable": 8012,
      "registered": 8013,
      "##inea": 8014,
      "initi": 8015,
      "Ren": 8016,
      "##rac": 8017,
      "Vis": 8018,
      "##lec": 8019,
      "##sex": 8020,
      "liked": 8021,
      "##emen": 8022,
      "recognised": 8023,
      "elder": 8024,
      "##ocking": 8025,
      "circuit": 8026,
      "##agg": 8027,
      "##ishment": 8028,
      "statue": 8029,
      "temporarily": 8030,
      "cod": 8031,
      "##andal": 8032,
      "Dragon": 8033,
      "explosion": 8034,
      "##atics": 8035,
      "##ateur": 8036,
      "entertainment": 8037,
      "shells": 8038,
      "Lam": 8039,
      "##mers": 8040,
      "represents": 8041,
      "Critics": 8042,
      "##father": 8043,
      "##ques": 8044,
      "Harvey": 8045,
      "jazz": 8046,
      "##CC": 8047,
      "##eta": 8048,
      "replacing": 8049,
      "Billy": 8050,
      "##cho": 8051,
      "Mitchell": 8052,
      "Ring": 8053,
      "sequences": 8054,
      "Magn": 8055,
      "Cow": 8056,
      "overw": 8057,
      "preparation": 8058,
      "##idel": 8059,
      "Small": 8060,
      "fifty": 8061,
      "Cher": 8062,
      "wet": 8063,
      "Kirk": 8064,
      "Czech": 8065,
      "Mes": 8066,
      "offering": 8067,
      "Warren": 8068,
      "artwork": 8069,
      "interpre": 8070,
      "Independent": 8071,
      "##overe": 8072,
      "residence": 8073,
      "restoration": 8074,
      "##irteen": 8075,
      "Near": 8076,
      "##owed": 8077,
      "margin": 8078,
      "Grey": 8079,
      "cyl": 8080,
      "infr": 8081,
      "nucle": 8082,
      "Graham": 8083,
      "ing": 8084,
      "Business": 8085,
      "wore": 8086,
      "terror": 8087,
      "##orders": 8088,
      "reluct": 8089,
      "reflected": 8090,
      "prime": 8091,
      "expensive": 8092,
      "##ception": 8093,
      "##species": 8094,
      "##face": 8095,
      "##equ": 8096,
      "##unch": 8097,
      "alliance": 8098,
      "##issions": 8099,
      "suggesting": 8100,
      "Lov": 8101,
      "Mess": 8102,
      "touring": 8103,
      "Fem": 8104,
      "thinking": 8105,
      "##inental": 8106,
      "completing": 8107,
      "Snow": 8108,
      "bay": 8109,
      "##ctic": 8110,
      "##artney": 8111,
      "rebuilt": 8112,
      "alcohol": 8113,
      "amongst": 8114,
      "banks": 8115,
      "##bishop": 8116,
      "##ello": 8117,
      "UE": 8118,
      "meat": 8119,
      "Seven": 8120,
      "horror": 8121,
      "frig": 8122,
      "##ancell": 8123,
      "assess": 8124,
      "directors": 8125,
      "##ylan": 8126,
      "dimens": 8127,
      "Maur": 8128,
      "##rine": 8129,
      "span": 8130,
      "tribes": 8131,
      "escaped": 8132,
      "pulled": 8133,
      "gang": 8134,
      "lacked": 8135,
      "cancelled": 8136,
      "Ariz": 8137,
      "##iary": 8138,
      "recommend": 8139,
      "##onn": 8140,
      "armored": 8141,
      "coverage": 8142,
      "racing": 8143,
      "##rage": 8144,
      "wasn": 8145,
      "amounts": 8146,
      "clearly": 8147,
      "Cuba": 8148,
      "Mik": 8149,
      "Chand": 8150,
      "decides": 8151,
      "Guide": 8152,
      "predomin": 8153,
      "tru": 8154,
      "engagement": 8155,
      "wel": 8156,
      "argues": 8157,
      "familiar": 8158,
      "colonies": 8159,
      "craft": 8160,
      "##rous": 8161,
      "dramatic": 8162,
      "garden": 8163,
      "##quir": 8164,
      "communication": 8165,
      "##DS": 8166,
      "Ped": 8167,
      "##athy": 8168,
      "patterns": 8169,
      "cous": 8170,
      "Indies": 8171,
      "marks": 8172,
      "err": 8173,
      "Files": 8174,
      "Phoen": 8175,
      "drove": 8176,
      "Persian": 8177,
      "##urally": 8178,
      "ownership": 8179,
      "Tamil": 8180,
      "ca": 8181,
      "##ova": 8182,
      "safe": 8183,
      "seed": 8184,
      "remnants": 8185,
      "merchant": 8186,
      "perspective": 8187,
      "Meg": 8188,
      "net": 8189,
      "Sony": 8190,
      "saved": 8191,
      "Bureau": 8192,
      "Lor": 8193,
      "##oming": 8194,
      "Arizona": 8195,
      "contributions": 8196,
      "Saturday": 8197,
      "ben": 8198,
      "print": 8199,
      "poems": 8200,
      "solution": 8201,
      "badly": 8202,
      "fastest": 8203,
      "wicket": 8204,
      "administrative": 8205,
      "false": 8206,
      "tag": 8207,
      "execut": 8208,
      "Marie": 8209,
      "armament": 8210,
      "Cycl": 8211,
      "crews": 8212,
      "playoffs": 8213,
      "sup": 8214,
      "##acon": 8215,
      "Edge": 8216,
      "militia": 8217,
      "Dylan": 8218,
      "See": 8219,
      "##ieties": 8220,
      "excav": 8221,
      "artistic": 8222,
      "obv": 8223,
      "characterized": 8224,
      "Scout": 8225,
      "bulk": 8226,
      "##ucing": 8227,
      "boundary": 8228,
      "severely": 8229,
      "institutions": 8230,
      "rising": 8231,
      "##orious": 8232,
      "earning": 8233,
      "##iph": 8234,
      "##idency": 8235,
      "Confederate": 8236,
      "disappoin": 8237,
      "kings": 8238,
      "retail": 8239,
      "ideal": 8240,
      "vel": 8241,
      "depending": 8242,
      "inhabitants": 8243,
      "notice": 8244,
      "##cements": 8245,
      "##olid": 8246,
      "##rik": 8247,
      "context": 8248,
      "##omber": 8249,
      "explains": 8250,
      "distinctive": 8251,
      "##rome": 8252,
      "##orer": 8253,
      "frust": 8254,
      "demonstrated": 8255,
      "EP": 8256,
      "inland": 8257,
      "threw": 8258,
      "##ripts": 8259,
      "comparison": 8260,
      "Oklah": 8261,
      "##eled": 8262,
      "##enger": 8263,
      "genetic": 8264,
      "restricted": 8265,
      "bronze": 8266,
      "condem": 8267,
      "recip": 8268,
      "ranks": 8269,
      "bowling": 8270,
      "ranging": 8271,
      "##oga": 8272,
      "arrive": 8273,
      "fallen": 8274,
      "Nik": 8275,
      "sisters": 8276,
      "Austrian": 8277,
      "controls": 8278,
      "spend": 8279,
      "flagship": 8280,
      "##uations": 8281,
      "quiet": 8282,
      "##ivia": 8283,
      "kW": 8284,
      "explain": 8285,
      "Switzer": 8286,
      "Amy": 8287,
      "##anches": 8288,
      "loop": 8289,
      "plus": 8290,
      "Liz": 8291,
      "Such": 8292,
      "Broadway": 8293,
      "wider": 8294,
      "##roke": 8295,
      "maneu": 8296,
      "electron": 8297,
      "practices": 8298,
      "wants": 8299,
      "revol": 8300,
      "##fish": 8301,
      "Wilhelm": 8302,
      "vulner": 8303,
      "Econom": 8304,
      "##life": 8305,
      "Switzerland": 8306,
      "gap": 8307,
      "shield": 8308,
      "conservative": 8309,
      "confront": 8310,
      "Mrs": 8311,
      "Murphy": 8312,
      "riders": 8313,
      "faster": 8314,
      "mental": 8315,
      "ABC": 8316,
      "##otton": 8317,
      "##formation": 8318,
      "##phony": 8319,
      "acceler": 8320,
      "stores": 8321,
      "##abl": 8322,
      "northward": 8323,
      "exhibition": 8324,
      "##hu": 8325,
      "synd": 8326,
      "surge": 8327,
      "frame": 8328,
      "Barry": 8329,
      "distinguished": 8330,
      "evolved": 8331,
      "spotted": 8332,
      "repor": 8333,
      "##oven": 8334,
      "exclud": 8335,
      "Delaware": 8336,
      "reaches": 8337,
      "earn": 8338,
      "millimet": 8339,
      "satellite": 8340,
      "Rat": 8341,
      "##rist": 8342,
      "gate": 8343,
      "nominations": 8344,
      "application": 8345,
      "##Ar": 8346,
      "palace": 8347,
      "prepare": 8348,
      "agency": 8349,
      "Oklahoma": 8350,
      "##sk": 8351,
      "##erk": 8352,
      "Federation": 8353,
      "##lings": 8354,
      "##EC": 8355,
      "##inian": 8356,
      "##roph": 8357,
      "wreck": 8358,
      "##AR": 8359,
      "##acc": 8360,
      "pace": 8361,
      "##inations": 8362,
      "quarterback": 8363,
      "dominant": 8364,
      "storage": 8365,
      "households": 8366,
      "kit": 8367,
      "vs": 8368,
      "armour": 8369,
      "##sequently": 8370,
      "##exp": 8371,
      "carriers": 8372,
      "Original": 8373,
      "obtain": 8374,
      "protein": 8375,
      "subspecies": 8376,
      "predicted": 8377,
      "autobi": 8378,
      "##upp": 8379,
      "thor": 8380,
      "##storm": 8381,
      "##abs": 8382,
      "typhoon": 8383,
      "Ay": 8384,
      "##uma": 8385,
      "##acked": 8386,
      "Bomb": 8387,
      "slaves": 8388,
      "blocks": 8389,
      "##pha": 8390,
      "Pil": 8391,
      "attained": 8392,
      "##urer": 8393,
      "boss": 8394,
      "vast": 8395,
      "allies": 8396,
      "battalions": 8397,
      "printed": 8398,
      "repeatedly": 8399,
      "##rim": 8400,
      "abund": 8401,
      "predecessor": 8402,
      "##etta": 8403,
      "##agh": 8404,
      "intellect": 8405,
      "fixed": 8406,
      "rub": 8407,
      "##azing": 8408,
      "strict": 8409,
      "peaking": 8410,
      "Perry": 8411,
      "articles": 8412,
      "Baby": 8413,
      "vertical": 8414,
      "surgery": 8415,
      "##uki": 8416,
      "Originally": 8417,
      "yield": 8418,
      "Ald": 8419,
      "signal": 8420,
      "excellent": 8421,
      "pup": 8422,
      "##oned": 8423,
      "striking": 8424,
      "##riptions": 8425,
      "Leslie": 8426,
      "westward": 8427,
      "bombs": 8428,
      "Baseball": 8429,
      "Ridge": 8430,
      "philosophy": 8431,
      "##rose": 8432,
      "illegal": 8433,
      "Tokyo": 8434,
      "disagre": 8435,
      "##imen": 8436,
      "phenomen": 8437,
      "parent": 8438,
      "adventure": 8439,
      "Less": 8440,
      "##tha": 8441,
      "remarked": 8442,
      "pretty": 8443,
      "perceived": 8444,
      "Rih": 8445,
      "##eley": 8446,
      "waiting": 8447,
      "circumstances": 8448,
      "##isons": 8449,
      "Denmark": 8450,
      "tight": 8451,
      "comfort": 8452,
      "Program": 8453,
      "Mother": 8454,
      "useful": 8455,
      "meetings": 8456,
      "seriously": 8457,
      "choose": 8458,
      "##ardo": 8459,
      "Jonathan": 8460,
      "Hann": 8461,
      "##rift": 8462,
      "##shore": 8463,
      "apartment": 8464,
      "icon": 8465,
      "civilian": 8466,
      "Ont": 8467,
      "Rico": 8468,
      "##AC": 8469,
      "sket": 8470,
      "coinc": 8471,
      "##lecru": 8472,
      "Pow": 8473,
      "reconnaissance": 8474,
      "Johnny": 8475,
      "Players": 8476,
      "sick": 8477,
      "tiss": 8478,
      "##aughters": 8479,
      "Campaign": 8480,
      "Atlanta": 8481,
      "Chel": 8482,
      "##TW": 8483,
      "Territ": 8484,
      "drugs": 8485,
      "gust": 8486,
      "phone": 8487,
      "Rihanna": 8488,
      "##aro": 8489,
      "dollar": 8490,
      "les": 8491,
      "##yler": 8492,
      "Abbey": 8493,
      "Brig": 8494,
      "##ois": 8495,
      "##apolis": 8496,
      "layer": 8497,
      "Wor": 8498,
      "breat": 8499,
      "whilst": 8500,
      "Inn": 8501,
      "chamber": 8502,
      "retain": 8503,
      "readers": 8504,
      "institution": 8505,
      "Hur": 8506,
      "##ls": 8507,
      "Ton": 8508,
      "Juan": 8509,
      "casting": 8510,
      "Cra": 8511,
      "Nixon": 8512,
      "Lang": 8513,
      "om": 8514,
      "##bre": 8515,
      "similarly": 8516,
      "visiting": 8517,
      "strengthened": 8518,
      "matters": 8519,
      "##rant": 8520,
      "alive": 8521,
      "##hips": 8522,
      "demanded": 8523,
      "##onomy": 8524,
      "Edwards": 8525,
      "planets": 8526,
      "horn": 8527,
      "##hr": 8528,
      "legacy": 8529,
      "simultaneously": 8530,
      "enlisted": 8531,
      "##mingham": 8532,
      "##oons": 8533,
      "McM": 8534,
      "##imm": 8535,
      "clock": 8536,
      "alternate": 8537,
      "Pitts": 8538,
      "Maj": 8539,
      "Arnold": 8540,
      "##hyl": 8541,
      "##LC": 8542,
      "##reated": 8543,
      "insisted": 8544,
      "Opp": 8545,
      "empt": 8546,
      "Railroad": 8547,
      "bombing": 8548,
      "tack": 8549,
      "shipping": 8550,
      "##attle": 8551,
      "Et": 8552,
      "lanes": 8553,
      "##estyle": 8554,
      "Keith": 8555,
      "##jan": 8556,
      "justice": 8557,
      "##rov": 8558,
      "Ral": 8559,
      "hook": 8560,
      "Rub": 8561,
      "Lex": 8562,
      "backed": 8563,
      "demands": 8564,
      "mainland": 8565,
      "Jimmy": 8566,
      "subsid": 8567,
      "Madag": 8568,
      "athletes": 8569,
      "revenue": 8570,
      "promised": 8571,
      "sung": 8572,
      "Sem": 8573,
      "extend": 8574,
      "portions": 8575,
      "neighb": 8576,
      "forg": 8577,
      "##atern": 8578,
      "console": 8579,
      "Prize": 8580,
      "personally": 8581,
      "struggled": 8582,
      "guilty": 8583,
      "looks": 8584,
      "definition": 8585,
      "Shaw": 8586,
      "drivers": 8587,
      "democr": 8588,
      "Internet": 8589,
      "guitarist": 8590,
      "continu": 8591,
      "propag": 8592,
      "conscious": 8593,
      "pione": 8594,
      "##ghan": 8595,
      "##ugg": 8596,
      "behaviour": 8597,
      "Rachel": 8598,
      "blow": 8599,
      "select": 8600,
      "orchestra": 8601,
      "##acre": 8602,
      "armies": 8603,
      "audition": 8604,
      "Cost": 8605,
      "Pars": 8606,
      "diver": 8607,
      "Fel": 8608,
      "roots": 8609,
      "Tracy": 8610,
      "##lain": 8611,
      "##iti": 8612,
      "##otyp": 8613,
      "ritual": 8614,
      "Vik": 8615,
      "artific": 8616,
      "Gray": 8617,
      "Bach": 8618,
      "##opp": 8619,
      "Furthermore": 8620,
      "mal": 8621,
      "jobs": 8622,
      "demolished": 8623,
      "Yankees": 8624,
      "##odox": 8625,
      "Lost": 8626,
      "theater": 8627,
      "starring": 8628,
      "panel": 8629,
      "##entle": 8630,
      "marketing": 8631,
      "Hugh": 8632,
      "conspir": 8633,
      "##pent": 8634,
      "organisation": 8635,
      "triple": 8636,
      "ruling": 8637,
      "essential": 8638,
      "Birmingham": 8639,
      "dancing": 8640,
      "##azines": 8641,
      "believing": 8642,
      "surpass": 8643,
      "feels": 8644,
      "Constant": 8645,
      "pursue": 8646,
      "ports": 8647,
      "profile": 8648,
      "Eventually": 8649,
      "##bird": 8650,
      "##aks": 8651,
      "##inding": 8652,
      "counties": 8653,
      "bonus": 8654,
      "Fat": 8655,
      "punk": 8656,
      "compens": 8657,
      "heading": 8658,
      "Canter": 8659,
      "Impact": 8660,
      "Mans": 8661,
      "rif": 8662,
      "McCartney": 8663,
      "Nine": 8664,
      "##fe": 8665,
      "obst": 8666,
      "factory": 8667,
      "Obama": 8668,
      "##avery": 8669,
      "mining": 8670,
      "increases": 8671,
      "Universal": 8672,
      "Na": 8673,
      "Si": 8674,
      "##folk": 8675,
      "##yt": 8676,
      "expression": 8677,
      "Stat": 8678,
      "discont": 8679,
      "discovers": 8680,
      "delivery": 8681,
      "pages": 8682,
      "sq": 8683,
      "upr": 8684,
      "##nie": 8685,
      "##arant": 8686,
      "erected": 8687,
      "clothing": 8688,
      "##grad": 8689,
      "patron": 8690,
      "Buddh": 8691,
      "##ouver": 8692,
      "##umps": 8693,
      "Enterprise": 8694,
      "Bobby": 8695,
      "elevation": 8696,
      "heir": 8697,
      "orn": 8698,
      "affect": 8699,
      "succeed": 8700,
      "Baker": 8701,
      "##itis": 8702,
      "##ovi": 8703,
      "mobile": 8704,
      "salt": 8705,
      "Hudson": 8706,
      "Phoenix": 8707,
      "bid": 8708,
      "aggreg": 8709,
      "secretary": 8710,
      "Publ": 8711,
      "stick": 8712,
      "horiz": 8713,
      "Potter": 8714,
      "overseas": 8715,
      "Pearl": 8716,
      "Wag": 8717,
      "mayor": 8718,
      "engage": 8719,
      "Wayne": 8720,
      "doubt": 8721,
      "##arth": 8722,
      "Works": 8723,
      "##cles": 8724,
      "##ultan": 8725,
      "acou": 8726,
      "defences": 8727,
      "Todd": 8728,
      "Connectic": 8729,
      "##aux": 8730,
      "deterior": 8731,
      "Madagascar": 8732,
      "Ta": 8733,
      "kiss": 8734,
      "Peace": 8735,
      "Defence": 8736,
      "Iran": 8737,
      "Patt": 8738,
      "accum": 8739,
      "Girls": 8740,
      "Rights": 8741,
      "Connecticut": 8742,
      "altered": 8743,
      "##opol": 8744,
      "##annon": 8745,
      "settlers": 8746,
      "NAS": 8747,
      "##inces": 8748,
      "Jup": 8749,
      "Sak": 8750,
      "Vi": 8751,
      "##OS": 8752,
      "renov": 8753,
      "AS": 8754,
      "baby": 8755,
      "chest": 8756,
      "pale": 8757,
      "Bosn": 8758,
      "Ontario": 8759,
      "Hold": 8760,
      "expand": 8761,
      "objective": 8762,
      "Morrison": 8763,
      "Canterbury": 8764,
      "legislature": 8765,
      "highways": 8766,
      "listen": 8767,
      "##warf": 8768,
      "voy": 8769,
      "##ensively": 8770,
      "Friday": 8771,
      "conversion": 8772,
      "musician": 8773,
      "Community": 8774,
      "Sig": 8775,
      "wrestling": 8776,
      "Diam": 8777,
      "##irts": 8778,
      "campaigns": 8779,
      "aerial": 8780,
      "disl": 8781,
      "organised": 8782,
      "indicating": 8783,
      "Farm": 8784,
      "Goth": 8785,
      "cup": 8786,
      "compounds": 8787,
      "raising": 8788,
      "Bernard": 8789,
      "Tol": 8790,
      "aftermath": 8791,
      "decisions": 8792,
      "Allies": 8793,
      "Napoleon": 8794,
      "raids": 8795,
      "sitting": 8796,
      "##low": 8797,
      "##din": 8798,
      "##osy": 8799,
      "##pert": 8800,
      "concentration": 8801,
      "##atropical": 8802,
      "##aments": 8803,
      "Spart": 8804,
      "solar": 8805,
      "Boys": 8806,
      "turret": 8807,
      "dissipated": 8808,
      "happ": 8809,
      "scen": 8810,
      "liquid": 8811,
      "hidden": 8812,
      "prove": 8813,
      "wealthy": 8814,
      "Foreign": 8815,
      "##ulous": 8816,
      "##ifies": 8817,
      "##rows": 8818,
      "radical": 8819,
      "acknowledged": 8820,
      "anth": 8821,
      "realized": 8822,
      "Mol": 8823,
      "soldier": 8824,
      "TNA": 8825,
      "dressed": 8826,
      "exactly": 8827,
      "appropriate": 8828,
      "danger": 8829,
      "improvements": 8830,
      "permitted": 8831,
      "Pruss": 8832,
      "Mountains": 8833,
      "chapel": 8834,
      "execution": 8835,
      "Tit": 8836,
      "Windows": 8837,
      "Griff": 8838,
      "brick": 8839,
      "aggressive": 8840,
      "publications": 8841,
      "graduated": 8842,
      "evacuated": 8843,
      "mac": 8844,
      "##hous": 8845,
      "removal": 8846,
      "pm": 8847,
      "encl": 8848,
      "fewer": 8849,
      "Dall": 8850,
      "interpretation": 8851,
      "Unt": 8852,
      "##ean": 8853,
      "profit": 8854,
      "celebrated": 8855,
      "bones": 8856,
      "Champion": 8857,
      "observations": 8858,
      "sharp": 8859,
      "venue": 8860,
      "Gary": 8861,
      "Pok": 8862,
      "meter": 8863,
      "initiated": 8864,
      "##inister": 8865,
      "travels": 8866,
      "theatrical": 8867,
      "Lat": 8868,
      "Legend": 8869,
      "##uese": 8870,
      "Outstanding": 8871,
      "UEFA": 8872,
      "stationed": 8873,
      "Bath": 8874,
      "Jar": 8875,
      "Vanc": 8876,
      "##boy": 8877,
      "##ivation": 8878,
      "cannon": 8879,
      "Season": 8880,
      "tort": 8881,
      "##stan": 8882,
      "founding": 8883,
      "##enna": 8884,
      "Abd": 8885,
      "##itals": 8886,
      "##ocation": 8887,
      "defending": 8888,
      "requires": 8889,
      "rebellion": 8890,
      "##OT": 8891,
      "publishing": 8892,
      "##itudes": 8893,
      "##urd": 8894,
      "Drive": 8895,
      "originated": 8896,
      "Vancouver": 8897,
      "origins": 8898,
      "considering": 8899,
      "jurisd": 8900,
      "Lion": 8901,
      "##Sp": 8902,
      "establishing": 8903,
      "##town": 8904,
      "##adal": 8905,
      "retro": 8906,
      "debt": 8907,
      "Jupiter": 8908,
      "connect": 8909,
      "steps": 8910,
      "extratropical": 8911,
      "mush": 8912,
      "brill": 8913,
      "explan": 8914,
      "##amental": 8915,
      "strategic": 8916,
      "##asm": 8917,
      "Mint": 8918,
      "youngest": 8919,
      "Mem": 8920,
      "##uction": 8921,
      "##oa": 8922,
      "##adier": 8923,
      "##ags": 8924,
      "approaching": 8925,
      "##DI": 8926,
      "arrangements": 8927,
      "Pap": 8928,
      "fantasy": 8929,
      "shorter": 8930,
      "placing": 8931,
      "cutting": 8932,
      "Edin": 8933,
      "announcement": 8934,
      "guarant": 8935,
      "magazines": 8936,
      "walking": 8937,
      "Champions": 8938,
      "donated": 8939,
      "lying": 8940,
      "##itively": 8941,
      "##autical": 8942,
      "Administration": 8943,
      "##eto": 8944,
      "##otte": 8945,
      "##ennium": 8946,
      "aspect": 8947,
      "Pakistan": 8948,
      "##icle": 8949,
      "comed": 8950,
      "##pled": 8951,
      "connecting": 8952,
      "hosts": 8953,
      "Gor": 8954,
      "Soul": 8955,
      "memor": 8956,
      "ongoing": 8957,
      "Lib": 8958,
      "##osexual": 8959,
      "magic": 8960,
      "Gate": 8961,
      "spac": 8962,
      "##hard": 8963,
      "##ioc": 8964,
      "Cov": 8965,
      "rig": 8966,
      "##mund": 8967,
      "Our": 8968,
      "##hears": 8969,
      "discussion": 8970,
      "edited": 8971,
      "talent": 8972,
      "Portuguese": 8973,
      "##aja": 8974,
      "funny": 8975,
      "closest": 8976,
      "Bradman": 8977,
      "##asa": 8978,
      "strongest": 8979,
      "insects": 8980,
      "thel": 8981,
      "##ecution": 8982,
      "colleagues": 8983,
      "cub": 8984,
      "gray": 8985,
      "glac": 8986,
      "putting": 8987,
      "tubes": 8988,
      "##idal": 8989,
      "qualified": 8990,
      "withdrawal": 8991,
      "Da": 8992,
      "Tak": 8993,
      "##ista": 8994,
      "Alice": 8995,
      "landscape": 8996,
      "rede": 8997,
      "gathered": 8998,
      "Tan": 8999,
      "forth": 9000,
      "##angel": 9001,
      "decide": 9002,
      "battlecru": 9003,
      "volumes": 9004,
      "predict": 9005,
      "hypothes": 9006,
      "Dwight": 9007,
      "supplied": 9008,
      "Anc": 9009,
      "circle": 9010,
      "identify": 9011,
      "angle": 9012,
      "NCAA": 9013,
      "collapsed": 9014,
      "Trophy": 9015,
      "switch": 9016,
      "merely": 9017,
      "indicates": 9018,
      "Triple": 9019,
      "challenged": 9020,
      "trouble": 9021,
      "Mong": 9022,
      "fill": 9023,
      "desert": 9024,
      "##venth": 9025,
      "##arc": 9026,
      "Stu": 9027,
      "Base": 9028,
      "##uz": 9029,
      "coup": 9030,
      "markets": 9031,
      "Type": 9032,
      "##odge": 9033,
      "caps": 9034,
      "neighbour": 9035,
      "watershed": 9036,
      "Pa": 9037,
      "##anner": 9038,
      "beam": 9039,
      "##bow": 9040,
      "##imented": 9041,
      "partial": 9042,
      "exposure": 9043,
      "plain": 9044,
      "Fleming": 9045,
      "Marvel": 9046,
      "Meteor": 9047,
      "density": 9048,
      "Roc": 9049,
      "affili": 9050,
      "Joy": 9051,
      "specimen": 9052,
      "Reserve": 9053,
      "Honor": 9054,
      "Convention": 9055,
      "Dub": 9056,
      "Len": 9057,
      "Mission": 9058,
      "Years": 9059,
      "limits": 9060,
      "##aration": 9061,
      "hydrogen": 9062,
      "dubbed": 9063,
      "Ches": 9064,
      "shift": 9065,
      "##case": 9066,
      "Hampshire": 9067,
      "amid": 9068,
      "Isa": 9069,
      "visits": 9070,
      "corps": 9071,
      "Afghan": 9072,
      "Oliver": 9073,
      "concentrated": 9074,
      "##igenous": 9075,
      "Stri": 9076,
      "membership": 9077,
      "feeding": 9078,
      "Celt": 9079,
      "Rab": 9080,
      "cock": 9081,
      "gro": 9082,
      "##ye": 9083,
      "navy": 9084,
      "annually": 9085,
      "educational": 9086,
      "conventional": 9087,
      "Edinburgh": 9088,
      "bearing": 9089,
      "exha": 9090,
      "Las": 9091,
      "sad": 9092,
      "topped": 9093,
      "Those": 9094,
      "reflect": 9095,
      "##iper": 9096,
      "##ensis": 9097,
      "provision": 9098,
      "seized": 9099,
      "assembly": 9100,
      "Flying": 9101,
      "Mick": 9102,
      "clin": 9103,
      "##icity": 9104,
      "Tob": 9105,
      "##otal": 9106,
      "ranges": 9107,
      "Somet": 9108,
      "trough": 9109,
      "##angle": 9110,
      "Mosc": 9111,
      "##haw": 9112,
      "##lock": 9113,
      "attending": 9114,
      "endors": 9115,
      "##irates": 9116,
      "Scar": 9117,
      "parody": 9118,
      "emphasis": 9119,
      "Bak": 9120,
      "champions": 9121,
      "duo": 9122,
      "grave": 9123,
      "Princip": 9124,
      "Victorian": 9125,
      "List": 9126,
      "Natural": 9127,
      "Charts": 9128,
      "legit": 9129,
      "bacter": 9130,
      "Where": 9131,
      "##aders": 9132,
      "offense": 9133,
      "investigate": 9134,
      "productions": 9135,
      "dogs": 9136,
      "Pink": 9137,
      "furn": 9138,
      "basin": 9139,
      "Begin": 9140,
      "weekly": 9141,
      "Finally": 9142,
      "sole": 9143,
      "talking": 9144,
      "anime": 9145,
      "Beaut": 9146,
      "exercise": 9147,
      "bone": 9148,
      "jury": 9149,
      "unless": 9150,
      "##ieth": 9151,
      "cruc": 9152,
      "Democrats": 9153,
      "##onica": 9154,
      "ol": 9155,
      "delay": 9156,
      "##igible": 9157,
      "resol": 9158,
      "Personal": 9159,
      "Turner": 9160,
      "Ax": 9161,
      "bond": 9162,
      "Maya": 9163,
      "promotional": 9164,
      "flooded": 9165,
[...]
